{
  "version": "1.0",
  "truncation": null,
  "padding": null,
  "added_tokens": [
    {
      "id": 0,
      "content": "<unk>",
      "single_word": false,
      "lstrip": false,
      "rstrip": false,
      "normalized": true,
      "special": true
    },
    {
      "id": 1,
      "content": "<s>",
      "single_word": false,
      "lstrip": false,
      "rstrip": false,
      "normalized": true,
      "special": true
    },
    {
      "id": 2,
      "content": "</s>",
      "single_word": false,
      "lstrip": false,
      "rstrip": false,
      "normalized": true,
      "special": true
    }
  ],
  "normalizer": {
    "type": "Sequence",
    "normalizers": [
      {
        "type": "Prepend",
        "prepend": "▁"
      },
      {
        "type": "Replace",
        "pattern": {
          "String": " "
        },
        "content": "▁"
      }
    ]
  },
  "pre_tokenizer": null,
  "post_processor": {
    "type": "TemplateProcessing",
    "single": [
      {
        "SpecialToken": {
          "id": "<s>",
          "type_id": 0
        }
      },
      {
        "Sequence": {
          "id": "A",
          "type_id": 0
        }
      }
    ],
    "pair": [
      {
        "SpecialToken": {
          "id": "<s>",
          "type_id": 0
        }
      },
      {
        "Sequence": {
          "id": "A",
          "type_id": 0
        }
      },
      {
        "Sequence": {
          "id": "B",
          "type_id": 0
        }
      }
    ],
    "special_tokens": {
      "<s>": {
        "id": "<s>",
        "ids": [
          1
        ],
        "tokens": [
          "<s>"
        ]
      }
    }
  },
  "decoder": {
    "type": "Sequence",
    "decoders": [
      {
        "type": "Replace",
        "pattern": {
          "String": "▁"
        },
        "content": " "
      },
      {
        "type": "ByteFallback"
      },
      {
        "type": "Fuse"
      },
      {
        "type": "Strip",
        "content": " ",
        "start": 1,
        "stop": 0
      }
    ]
  },
  "model": {
    "type": "BPE",
    "dropout": null,
    "unk_token": "<unk>",
    "continuing_subword_prefix": null,
    "end_of_word_suffix": null,
    "fuse_unk": true,
    "byte_fallback": true,
    "vocab": {
      "<unk>": 0,
      "<s>": 1,
      "</s>": 2,
      "<pad>": 3,
      "<mask>": 4,
      "\n": 5,
      "+": 6,
      "-": 7,
      "*": 8,
      "$": 9,
      "%": 10,
      "^": 11,
      "1": 12,
      "2": 13,
      "3": 14,
      "4": 15,
      "5": 16,
      "6": 17,
      "7": 18,
      "8": 19,
      "9": 20,
      "0": 21,
      "#": 22,
      "@": 23,
      "&": 24,
      "=": 25,
      "~": 26,
      "<": 27,
      ">": 28,
      ":": 29,
      ";": 30,
      "'": 31,
      "(": 32,
      ")": 33,
      ".": 34,
      ",": 35,
      "ஒரு": 36,
      "என்று": 37,
      "மற்றும்": 38,
      "இந்த": 39,
      "இது": 40,
      "என்ற": 41,
      "கொண்டு": 42,
      "என்பது": 43,
      "பல": 44,
      "ஆகும்": 45,
      "அல்லது": 46,
      "அவர்": 47,
      "நான்": 48,
      "உள்ள": 49,
      "அந்த": 50,
      "இவர்": 51,
      "என": 52,
      "முதல்": 53,
      "என்ன": 54,
      "இருந்து": 55,
      "சில": 56,
      "என்": 57,
      "போன்ற": 58,
      "வேண்டும்": 59,
      "வந்து": 60,
      "இதன்": 61,
      "அது": 62,
      "அவன்": 63,
      "தான்": 64,
      "பலரும்": 65,
      "என்னும்": 66,
      "மேலும்": 67,
      "பின்னர்": 68,
      "கொண்ட": 69,
      "இருக்கும்": 70,
      "தனது": 71,
      "உள்ளது": 72,
      "போது": 73,
      "என்றும்": 74,
      "அதன்": 75,
      "தன்": 76,
      "பிறகு": 77,
      "அவர்கள்": 78,
      "வரை": 79,
      "அவள்": 80,
      "நீ": 81,
      "ஆகிய": 82,
      "இருந்தது": 83,
      "உள்ளன": 84,
      "வந்த": 85,
      "இருந்த": 86,
      "மிகவும்": 87,
      "இங்கு": 88,
      "மீது": 89,
      "ஓர்": 90,
      "இவை": 91,
      "இந்தக்": 92,
      "பற்றி": 93,
      "வரும்": 94,
      "வேறு": 95,
      "இரு": 96,
      "இதில்": 97,
      "போல்": 98,
      "இப்போது": 99,
      "அவரது": 100,
      "மட்டும்": 101,
      "இந்தப்": 102,
      "எனும்": 103,
      "மேல்": 104,
      "பின்": 105,
      "சேர்ந்த": 106,
      "ஆகியோர்": 107,
      "எனக்கு": 108,
      "இன்னும்": 109,
      "அந்தப்": 110,
      "அன்று": 111,
      "ஒரே": 112,
      "மிக": 113,
      "அங்கு": 114,
      "பல்வேறு": 115,
      "விட்டு": 116,
      "பெரும்": 117,
      "அதை": 118,
      "பற்றிய": 119,
      "உன்": 120,
      "அதிக": 121,
      "அந்தக்": 122,
      "பேர்": 123,
      "இதனால்": 124,
      "அவை": 125,
      "அதே": 126,
      "ஏன்": 127,
      "முறை": 128,
      "யார்": 129,
      "என்பதை": 130,
      "எல்லாம்": 131,
      "மட்டுமே": 132,
      "இங்கே": 133,
      "அங்கே": 134,
      "இடம்": 135,
      "இடத்தில்": 136,
      "அதில்": 137,
      "நாம்": 138,
      "அதற்கு": 139,
      "எனவே": 140,
      "பிற": 141,
      "சிறு": 142,
      "மற்ற": 143,
      "விட": 144,
      "எந்த": 145,
      "எனவும்": 146,
      "எனப்படும்": 147,
      "எனினும்": 148,
      "அடுத்த": 149,
      "இதனை": 150,
      "இதை": 151,
      "கொள்ள": 152,
      "இந்தத்": 153,
      "இதற்கு": 154,
      "அதனால்": 155,
      "தவிர": 156,
      "போல": 157,
      "வரையில்": 158,
      "சற்று": 159,
      "எனக்": 160,
      "தந்தை": 161,
      "தாய்": 162,
      "சகோதரர்": 163,
      "சகோதரி": 164,
      "தங்கை": 165,
      "மகன்": 166,
      "மகள்": 167,
      "மாமா": 168,
      "அத்தை": 169,
      "மருமகள்": 170,
      "மருமகன்": 171,
      "வா": 172,
      "போ": 173,
      "செய்": 174,
      "கேள்": 175,
      "பேசு": 176,
      "கவனி": 177,
      "அறி": 178,
      "வாங்கு": 179,
      "விடு": 180,
      "உதவ": 181,
      "படிக்க": 182,
      "எழுத": 183,
      "சாப்பிட": 184,
      "குடிக்க": 185,
      "வேலை": 186,
      "கண்டுபிடி": 187,
      "விண்ணப்ப": 188,
      "கிடைக்க": 189,
      "விளக்கு": 190,
      "அனுப்பு": 191,
      "ஆரம்பி": 192,
      "முடி": 193,
      "விளையாடு": 194,
      "சிரி": 195,
      "அழு": 196,
      "புது": 197,
      "கல்": 198,
      "மற": 199,
      "தோண்ட": 200,
      "விற்க": 201,
      "தூங்க": 202,
      "பிடி": 203,
      "விய": 204,
      "நம்ப": 205,
      "வளர்": 206,
      "கட்டு": 207,
      "தேட": 208,
      "நகர": 209,
      "வெளி": 210,
      "இழு": 211,
      "தள்ளு": 212,
      "பற": 213,
      "நட": 214,
      "ஓட": 215,
      "குழு": 216,
      "வேகம்": 217,
      "ஏற": 218,
      "விழ": 219,
      "சேர்": 220,
      "கட": 221,
      "காய": 222,
      "நுகர": 223,
      "சுவை": 224,
      "உண்": 225,
      "சொல்": 226,
      "காட்ட": 227,
      "செலுத்த": 228,
      "செயல்": 229,
      "அதிர்": 230,
      "பார்": 231,
      "சிந்தி": 232,
      "விரும்ப": 233,
      "வெறு": 234,
      "அழை": 235,
      "சரி": 236,
      "தவிர்": 237,
      "உயர்த்த": 238,
      "ஆட": 239,
      "சாவு": 240,
      "கொலை": 241,
      "அடி": 242,
      "வீச": 243,
      "சுத்தம்": 244,
      "காத்திரு": 245,
      "வலி": 246,
      "பிடிக்க": 247,
      "பயம்": 248,
      "கேட்க": 249,
      "திரும்ப": 250,
      "முயற்சி": 251,
      "சோதி": 252,
      "வெல்ல": 253,
      "ஓட்ட": 254,
      "குதி": 255,
      "நீந்த": 256,
      "வை": 257,
      "க்க": 258,
      "க்கு": 259,
      "கள்": 260,
      "கும்": 261,
      "யும்": 262,
      "வும்": 263,
      "வார்": 264,
      "வர்": 265,
      "தார்": 266,
      "ப்ப": 267,
      "ம்ப": 268,
      "ந்த": 269,
      "ண்ட": 270,
      "த்த": 271,
      "ன்ற": 272,
      "ச்ச": 273,
      "ன்ன": 274,
      "ஞ்ச": 275,
      "ற்ற": 276,
      "ட்ட": 277,
      "ங்க": 278,
      "ல்ல": 279,
      "ர்க": 280,
      "ள்ள": 281,
      "அவ": 282,
      "இவ": 283,
      "அத": 284,
      "இத": 285,
      "உலஅழ": 286,
      "அள": 287,
      "அற": 288,
      "அர": 289,
      "அன": 290,
      "அண": 291,
      "அட": 292,
      "மன": 293,
      "மண": 294,
      "மர": 295,
      "மல": 296,
      "மள": 297,
      "இன": 298,
      "தமிழ": 299,
      "காதல": 300,
      "a": 301,
      "b": 302,
      "c": 303,
      "d": 304,
      "e": 305,
      "f": 306,
      "g": 307,
      "h": 308,
      "i": 309,
      "j": 310,
      "k": 311,
      "l": 312,
      "m": 313,
      "n": 314,
      "o": 315,
      "p": 316,
      "q": 317,
      "r": 318,
      "s": 319,
      "t": 320,
      "u": 321,
      "v": 322,
      "w": 323,
      "x": 324,
      "y": 325,
      "z": 326,
      "A": 327,
      "B": 328,
      "C": 329,
      "D": 330,
      "E": 331,
      "F": 332,
      "G": 333,
      "H": 334,
      "I": 335,
      "J": 336,
      "K": 337,
      "L": 338,
      "M": 339,
      "N": 340,
      "O": 341,
      "P": 342,
      "Q": 343,
      "R": 344,
      "S": 345,
      "T": 346,
      "U": 347,
      "V": 348,
      "W": 349,
      "X": 350,
      "Y": 351,
      "Z": 352,
      "ம்": 353,
      "ன்": 354,
      "ிய": 355,
      "▁ப": 356,
      "ிர": 357,
      "▁க": 358,
      "ல்": 359,
      "ர்": 360,
      "▁த": 361,
      "▁ச": 362,
      "ாக": 363,
      "து": 364,
      "ைய": 365,
      "டு": 366,
      "▁ம": 367,
      "ிரு": 368,
      "▁வ": 369,
      "கள": 370,
      "ிற": 371,
      "ரு": 372,
      "ான": 373,
      "க்": 374,
      "ஸ்": 375,
      "▁ந": 376,
      "ில்": 377,
      "ப்": 378,
      "ள்": 379,
      "ும்": 380,
      "ில": 381,
      "ின்": 382,
      "ின": 383,
      "மா": 384,
      "ட்": 385,
      "டி": 386,
      "்க": 387,
      "ரி": 388,
      "தி": 389,
      "த்": 390,
      "ரா": 391,
      "▁அ": 392,
      "வு": 393,
      "▁இ": 394,
      "ய்": 395,
      "▁உ": 396,
      "ால": 397,
      "வி": 398,
      "ால்": 399,
      "▁ஆ": 400,
      "ார": 401,
      "ுக": 402,
      "▁எ": 403,
      "ண்": 404,
      "ாத": 405,
      "ார்": 406,
      "▁கு": 407,
      "சி": 408,
      "ுவ": 409,
      "ச்": 410,
      "ிட": 411,
      "ுட": 412,
      "்ட": 413,
      "லா": 414,
      "மை": 415,
      "வே": 416,
      "லை": 417,
      "ான்": 418,
      "ியா": 419,
      "தா": 420,
      "கு": 421,
      "களை": 422,
      "▁மு": 423,
      "ளை": 424,
      "று": 425,
      "▁வி": 426,
      "கி": 427,
      "பா": 428,
      "்கு": 429,
      "தை": 430,
      "யா": 431,
      "ற்": 432,
      "▁பு": 433,
      "டை": 434,
      "மு": 435,
      "பு": 436,
      "லி": 437,
      "ளி": 438,
      "மி": 439,
      "ூட": 440,
      "களு": 441,
      "மாக": 442,
      "மான": 443,
      "ளு": 444,
      "▁செ": 445,
      "னை": 446,
      "▁பெ": 447,
      "றி": 448,
      "ழி": 449,
      "ரை": 450,
      "▁பா": 451,
      "மே": 452,
      "சு": 453,
      "▁ஜ": 454,
      "கா": 455,
      "▁ர": 456,
      "கிற": 457,
      "னு": 458,
      "▁ஒ": 459,
      "ழ்": 460,
      "தாக": 461,
      "ரிய": 462,
      "ண்ண": 463,
      "பி": 464,
      "ழு": 465,
      "▁ட": 466,
      "ையா": 467,
      "▁பிர": 468,
      "▁கா": 469,
      "▁மா": 470,
      "▁சு": 471,
      "▁சி": 472,
      "னி": 473,
      "னா": 474,
      "ேன்": 475,
      "▁பொ": 476,
      "▁கொ": 477,
      "ணி": 478,
      "மைய": 479,
      "▁ஹ": 480,
      "ளா": 481,
      "▁து": 482,
      "▁தொ": 483,
      "திய": 484,
      "வர": 485,
      "சா": 486,
      "சிய": 487,
      "டிய": 488,
      "தே": 489,
      "தற": 490,
      "ிலிரு": 491,
      "மெ": 492,
      "யி": 493,
      "ிர்": 494,
      "நா": 495,
      "▁வெ": 496,
      "▁ஸ்": 497,
      "வது": 498,
      "ரோ": 499,
      "▁கோ": 500,
      "ேய": 501,
      "ினை": 502,
      "ுடன்": 503,
      "ங்": 504,
      "ிரி": 505,
      "லு": 506,
      "பெ": 507,
      "▁ய": 508,
      "டா": 509,
      "படு": 510,
      "ிற்கு": 511,
      "ாம்": 512,
      "ிலும்": 513,
      "றை": 514,
      "ோம்": 515,
      "▁சா": 516,
      "ோடு": 517,
      "ஷ்": 518,
      "▁பி": 519,
      "▁பே": 520,
      "▁ல": 521,
      "▁நா": 522,
      "ியிரு": 523,
      "▁கூ": 524,
      "▁தெ": 525,
      "▁வே": 526,
      "தான": 527,
      "வ்": 528,
      "▁தே": 529,
      "னர்": 530,
      "ாலும்": 531,
      "கை": 532,
      "▁நி": 533,
      "▁திரு": 534,
      "சை": 535,
      "கோ": 536,
      "ையே": 537,
      "வெ": 538,
      "ூர்": 539,
      "வன": 540,
      "ிரா": 541,
      "ியை": 542,
      "ையை": 543,
      "டன்": 544,
      "வோ": 545,
      "ையில்": 546,
      "செ": 547,
      "▁மே": 548,
      "தொ": 549,
      "▁ஏ": 550,
      "//": 551,
      "வின்": 552,
      "ிற்": 553,
      "▁தி": 554,
      "▁தா": 555,
      "▁கி": 556,
      "ரீ": 557,
      "வீ": 558,
      "லாம்": 559,
      "களாக": 560,
      "மோ": 561,
      "ணை": 562,
      "தெ": 563,
      "ந்": 564,
      "களின்": 565,
      "களில்": 566,
      "▁ஊ": 567,
      "ிறது": 568,
      "▁தீ": 569,
      "▁ரா": 570,
      "ியு": 571,
      "யு": 572,
      "ிலை": 573,
      "வில்": 574,
      "▁கே": 575,
      "▁“": 576,
      "களும்": 577,
      "▁`": 578,
      "▁‘": 579,
      "▁மெ": 580,
      "வன்": 581,
      "யிரு": 582,
      "ாகி": 583,
      "▁பய": 584,
      "னும்": 585,
      "ிடம்": 586,
      "தும்": 587,
      "ாய்": 588,
      "ேயே": 589,
      "மும்": 590,
      "ுடைய": 591,
      "ரே": 592,
      "▁வீ": 593,
      "டைய": 594,
      "ழை": 595,
      "பே": 596,
      "ாள": 597,
      "வத": 598,
      "▁நெ": 599,
      "தற்க": 600,
      "வரு": 601,
      "ொரு": 602,
      "மூ": 603,
      "▁கரு": 604,
      "▁ஃ": 605,
      "கூட": 606,
      "▁பூ": 607,
      "ன்ப": 608,
      "▁ஷ": 609,
      "தற்கு": 610,
      "▁மூ": 611,
      "ராக": 612,
      "ொள்": 613,
      "ிற்க": 614,
      "▁ஈ": 615,
      "ற்ப": 616,
      "ிறா": 617,
      "யர்": 618,
      "ென": 619,
      "▁ப்": 620,
      "ளாக": 621,
      "கே": 622,
      "டர்": 623,
      "▁சீ": 624,
      "ெடு": 625,
      "ுற": 626,
      "ுப": 627,
      "ினால்": 628,
      "டும்": 629,
      "▁ஓ": 630,
      "ளின்": 631,
      "ளே": 632,
      "தல்": 633,
      "▁தோ": 634,
      "தோ": 635,
      "ற்க": 636,
      "ைப்": 637,
      "தல": 638,
      "மிரு": 639,
      "றிய": 640,
      "▁சே": 641,
      "ைக்": 642,
      "ளும்": 643,
      "ிக": 644,
      "ிலு": 645,
      "ோக": 646,
      "▁நிற": 647,
      "முக": 648,
      "▁கை": 649,
      "▁மீ": 650,
      "லே": 651,
      "மீ": 652,
      "ணர்": 653,
      "யே": 654,
      "தால்": 655,
      "ாள்": 656,
      "ாக்": 657,
      "▁[": 658,
      "ம்மா": 659,
      "ாது": 660,
      "லக": 661,
      "ஜ்": 662,
      "ட்சி": 663,
      "ஜி": 664,
      "னே": 665,
      "யில்": 666,
      "ரும்": 667,
      "ளில்": 668,
      "ரம்": 669,
      "ினி": 670,
      "ிலே": 671,
      "திர்": 672,
      "மொ": 673,
      "சே": 674,
      "▁மி": 675,
      "தீ": 676,
      "▁சூ": 677,
      "திர": 678,
      "▁ஸ": 679,
      "▁சொ": 680,
      "கார": 681,
      "றா": 682,
      "ியாக": 683,
      "கிறது": 684,
      "▁பெரு": 685,
      "▁//": 686,
      "ுகி": 687,
      "ஸ்ட": 688,
      "ெய்": 689,
      "சன": 690,
      "பிர": 691,
      "ொடு": 692,
      "ரின்": 693,
      "ணா": 694,
      "▁ஐ": 695,
      "ியோ": 696,
      "▁மொ": 697,
      "தன": 698,
      "▁தூ": 699,
      "டுவ": 700,
      "திரு": 701,
      "்ற": 702,
      "ினா": 703,
      "▁சோ": 704,
      "லோ": 705,
      "▁டி": 706,
      "▁உரு": 707,
      "ுக்": 708,
      "்ப": 709,
      "▁வர": 710,
      "நில": 711,
      "▁இய": 712,
      "ியில்": 713,
      "டம்": 714,
      "▁நே": 715,
      "▁வரு": 716,
      "▁கால": 717,
      "நி": 718,
      "▁பர": 719,
      "ியின்": 720,
      "ுகிற": 721,
      "ாய": 722,
      "ளோ": 723,
      "ெய": 724,
      "படி": 725,
      "ையோ": 726,
      "ரெ": 727,
      "▁எடு": 728,
      "▁இர": 729,
      "▁கல": 730,
      "▁கொடு": 731,
      "கம்": 732,
      "களா": 733,
      "சோ": 734,
      "யோ": 735,
      "ைத்": 736,
      "னோ": 737,
      "ித": 738,
      "▁பரி": 739,
      "▁கெ": 740,
      "ிக்": 741,
      "ம்ம": 742,
      "▁தலை": 743,
      "லம்": 744,
      "▁க்": 745,
      "ூடிய": 746,
      "▁வழ": 747,
      "சீ": 748,
      "▁நோ": 749,
      "பூ": 750,
      "ணு": 751,
      "மய": 752,
      "ையு": 753,
      "தில்": 754,
      "ிடு": 755,
      "டோ": 756,
      "▁அமை": 757,
      "தானே": 758,
      "ா்": 759,
      "ோல": 760,
      "ென்": 761,
      "ானது": 762,
      "ட்ச": 763,
      "ராஜ": 764,
      "பட": 765,
      "▁கீ": 766,
      "பொ": 767,
      "யை": 768,
      "ிலேயே": 769,
      "▁சிற": 770,
      "தம்": 771,
      "▁பொரு": 772,
      "யூ": 773,
      "கூ": 774,
      "ுப்": 775,
      "யாக": 776,
      "ஹ்": 777,
      "ிரை": 778,
      "▁இல": 779,
      "▁விள": 780,
      "▁அக": 781,
      "தர": 782,
      "▁மோ": 783,
      "னிய": 784,
      "ும": 785,
      "ிலா": 786,
      "கொ": 787,
      "ஸ்ட்": 788,
      "ரூ": 789,
      "ஷ்ட": 790,
      "ியது": 791,
      "யின்": 792,
      "ையெ": 793,
      "சன்": 794,
      "ைச்": 795,
      "ையாக": 796,
      "விரு": 797,
      "பீ": 798,
      "▁நினை": 799,
      "ையாள": 800,
      "னின்": 801,
      "▁குறி": 802,
      "தற்காக": 803,
      "டல்": 804,
      "ியே": 805,
      "▁முக": 806,
      "▁உய": 807,
      "ஃப்": 808,
      "கர": 809,
      "▁வழி": 810,
      "்ல": 811,
      "▁தெரி": 812,
      "▁பழ": 813,
      "▁எதிர்": 814,
      "தொகு": 815,
      "வரா": 816,
      "▁ரி": 817,
      "▁டெ": 818,
      "ோர்": 819,
      "ஹா": 820,
      "▁நில": 821,
      "ுல": 822,
      "டே": 823,
      "▁அல": 824,
      "ணம்": 825,
      "ட்ப": 826,
      "வல": 827,
      "கர்": 828,
      "மாய்": 829,
      "ரில்": 830,
      "ையின்": 831,
      "▁பதி": 832,
      "▁கண": 833,
      "ினர்": 834,
      "ுரு": 835,
      "றது": 836,
      "▁பால": 837,
      "கால": 838,
      "வரி": 839,
      "பர": 840,
      "க்ஸ்": 841,
      "பை": 842,
      "ஸி": 843,
      "சூ": 844,
      "டுகிற": 845,
      "நோ": 846,
      "்டி": 847,
      "▁செய": 848,
      "ளைய": 849,
      "னாக": 850,
      "டுகி": 851,
      "ீர்": 852,
      "▁புக": 853,
      "▁இற": 854,
      "ியூ": 855,
      "நிலை": 856,
      "வதை": 857,
      "▁நு": 858,
      "ழிய": 859,
      "டெ": 860,
      "களே": 861,
      "பால": 862,
      "தலை": 863,
      "ஜா": 864,
      "களால்": 865,
      "ானா": 866,
      "களைப்": 867,
      "▁பிரி": 868,
      "ணும்": 869,
      "▁பட": 870,
      "வின": 871,
      "லும்": 872,
      "ட்சிய": 873,
      "ானே": 874,
      "▁படி": 875,
      "▁யா": 876,
      "ிறார்": 877,
      "ாரா": 878,
      "மார்": 879,
      "▁பத": 880,
      "ஷி": 881,
      "நே": 882,
      "னான": 883,
      "▁தனி": 884,
      "வராக": 885,
      "வுடன்": 886,
      "ரியா": 887,
      "ஞ்": 888,
      "சார": 889,
      "வல்": 890,
      "பாடு": 891,
      "▁பண்ண": 892,
      "▁படு": 893,
      "களைக்": 894,
      "்த": 895,
      "▁ட்": 896,
      "ினு": 897,
      "▁கார": 898,
      "்சி": 899,
      "யம்": 900,
      "▁பீ": 901,
      "வடி": 902,
      "ிலி": 903,
      "பதி": 904,
      "ுமா": 905,
      "▁ஸ்ரீ": 906,
      "▁முன்": 907,
      "▁ரெ": 908,
      "ுத": 909,
      "ஷன்": 910,
      "சம்": 911,
      "▁தொழ": 912,
      "ோது": 913,
      "விர": 914,
      "்ன": 915,
      "லில்": 916,
      "பர்": 917,
      "ஷா": 918,
      "வம்": 919,
      "ிடி": 920,
      "ிலோ": 921,
      "ுவது": 922,
      "▁ஜெ": 923,
      "▁இட": 924,
      "▁தர": 925,
      "ளர்": 926,
      "களுடன்": 927,
      "▁``": 928,
      "▁குறை": 929,
      "நாய": 930,
      "ாரு": 931,
      "மிட": 932,
      "ையி": 933,
      "லாக": 934,
      "ுர": 935,
      "ோட": 936,
      "▁உறு": 937,
      "நெ": 938,
      "▁தொட": 939,
      "▁பண": 940,
      "டுப": 941,
      "லெ": 942,
      "▁ஆர்": 943,
      "▁குழ": 944,
      "ளம்": 945,
      "ிடமிரு": 946,
      "ுத்": 947,
      "மாகி": 948,
      "▁நிர": 949,
      "மடை": 950,
      "▁{": 951,
      "சால": 952,
      "ியம்": 953,
      "▁தீர்": 954,
      "▁விரு": 955,
      "தற்": 956,
      "்வ": 957,
      "▁திற": 958,
      "▁புற": 959,
      "தார": 960,
      "ஸ்வர": 961,
      "ாகவே": 962,
      "▁அல்": 963,
      "தாம்": 964,
      "ாலே": 965,
      "ாடு": 966,
      "புர": 967,
      "யான": 968,
      "பய": 969,
      "லின்": 970,
      "ட்ஸ்": 971,
      "ஞான": 972,
      "▁தொடர்": 973,
      "ழக": 974,
      "ாவ": 975,
      "டாத": 976,
      "▁கிர": 977,
      "ோல்": 978,
      "▁நிலை": 979,
      "▁நூ": 980,
      "ியான": 981,
      "ாட": 982,
      "சர்": 983,
      "ற்கு": 984,
      "ினும்": 985,
      "னம்": 986,
      "யாத": 987,
      "ிப்": 988,
      "▁பொது": 989,
      "▁நிக": 990,
      "ாரி": 991,
      "▁தேர்": 992,
      "்டது": 993,
      "▁ரு": 994,
      "மிய": 995,
      "ணைய": 996,
      "▁லா": 997,
      "▁செல்": 998,
      "கைய": 999,
      "ஸ்ஸ": 1000,
      "ரான": 1001,
      "▁உணர்": 1002,
      "ரன்": 1003,
      "▁குரு": 1004,
      "லிய": 1005,
      "நிற": 1006,
      "▁ம்": 1007,
      "▁ராஜ": 1008,
      "மென": 1009,
      "வழி": 1010,
      "தூ": 1011,
      "ுகள": 1012,
      "▁படை": 1013,
      "டக": 1014,
      "்து": 1015,
      "▁இரா": 1016,
      "ெரு": 1017,
      "▁எழு": 1018,
      "▁மத": 1019,
      "கிறா": 1020,
      "தனை": 1021,
      "வதி": 1022,
      "ுகளை": 1023,
      "்று": 1024,
      "வனு": 1025,
      "▁கண்ண": 1026,
      "▁நிறை": 1027,
      "கல": 1028,
      "▁எண்ண": 1029,
      "▁கார்": 1030,
      "னால்": 1031,
      "ொட": 1032,
      "▁நிர்": 1033,
      "ளிய": 1034,
      "ுடனும்": 1035,
      "ரண": 1036,
      "வில": 1037,
      "ண்ப": 1038,
      "ளைப்": 1039,
      "▁உண": 1040,
      "வதாக": 1041,
      "ஸ்த": 1042,
      "▁சிவ": 1043,
      "மூக": 1044,
      "ளால்": 1045,
      "ானு": 1046,
      "▁யோ": 1047,
      "▁திர": 1048,
      "▁தவ": 1049,
      "எஸ்": 1050,
      "▁கலை": 1051,
      "மொழி": 1052,
      "▁பயன்": 1053,
      "▁கிட": 1054,
      "▁லி": 1055,
      "ுரை": 1056,
      "ராய்": 1057,
      "▁உட": 1058,
      "ினார்": 1059,
      "சியா": 1060,
      "▁இணை": 1061,
      "▁குடு": 1062,
      "▁ரோ": 1063,
      "▁உட்": 1064,
      "▁பொறு": 1065,
      "]]": 1066,
      "▁சர்": 1067,
      "ியல்": 1068,
      "நாத": 1069,
      "நு": 1070,
      "ேர்": 1071,
      "ிற்காக": 1072,
      "கார்": 1073,
      "▁வய": 1074,
      "க்ஷ": 1075,
      "ுகு": 1076,
      "ிறேன்": 1077,
      "▁குடி": 1078,
      "ன்ஸ்": 1079,
      "ெழு": 1080,
      "▁மதி": 1081,
      "வள்": 1082,
      "ாம": 1083,
      "▁பாதி": 1084,
      "கிர": 1085,
      "ுச்": 1086,
      "▁கர்": 1087,
      "மையை": 1088,
      "படிய": 1089,
      "வள": 1090,
      "▁சை": 1091,
      "▁வில": 1092,
      "தர்": 1093,
      "வச": 1094,
      "▁ற": 1095,
      "ஸா": 1096,
      "▁கள": 1097,
      "னெ": 1098,
      "ஹி": 1099,
      "நூ": 1100,
      "ரிட": 1101,
      "வனை": 1102,
      "தற்கான": 1103,
      "▁புர": 1104,
      "ஸு": 1105,
      "மானது": 1106,
      "▁விர": 1107,
      "கீ": 1108,
      "ளைக்": 1109,
      "ோன": 1110,
      "வழ": 1111,
      "ராய": 1112,
      "்படு": 1113,
      "▁அழி": 1114,
      "ாதே": 1115,
      "▁பை": 1116,
      "ுகளு": 1117,
      "▁வடி": 1118,
      "றும்": 1119,
      "கன": 1120,
      "ெல்": 1121,
      "சுவ": 1122,
      "▁புல": 1123,
      "கரு": 1124,
      "தைப்": 1125,
      "ாண": 1126,
      "பார": 1127,
      "▁கூற": 1128,
      "ுறை": 1129,
      "சார்": 1130,
      "மையா": 1131,
      "வதற்கு": 1132,
      "▁வீர": 1133,
      "\\\\": 1134,
      "ியன்": 1135,
      "களைத்": 1136,
      "லைய": 1137,
      "ஸை": 1138,
      "▁பணி": 1139,
      "ுள்": 1140,
      "கிழ்": 1141,
      "ிறீ": 1142,
      "ாலோ": 1143,
      "டீ": 1144,
      "்பு": 1145,
      "▁பார": 1146,
      "▁[[": 1147,
      "ோடும்": 1148,
      "▁கிள": 1149,
      "▁சுய": 1150,
      "▁யூ": 1151,
      "சர": 1152,
      "லீ": 1153,
      "ுடை": 1154,
      "▁கன": 1155,
      "்டா": 1156,
      "கப்": 1157,
      "கன்": 1158,
      "டியா": 1159,
      "்கா": 1160,
      "▁உள்": 1161,
      "▁இள": 1162,
      "ுவரு": 1163,
      "ளுடன்": 1164,
      "ய்ய": 1165,
      "ழுது": 1166,
      "மின்": 1167,
      "▁பாட": 1168,
      "▁ப்ர": 1169,
      "தேச": 1170,
      "தைய": 1171,
      "ிஸ்": 1172,
      "ஸின்": 1173,
      "▁உற": 1174,
      "▁மை": 1175,
      "ஜூ": 1176,
      "▁சம": 1177,
      "யிர": 1178,
      "▁புரி": 1179,
      "▁காண": 1180,
      "▁உப": 1181,
      "ாதி": 1182,
      "ஃப": 1183,
      "வனாக": 1184,
      "தியா": 1185,
      "▁நிகழ்": 1186,
      "ருவ": 1187,
      "மதி": 1188,
      "▁டை": 1189,
      "▁முழு": 1190,
      "தைக்": 1191,
      "கரி": 1192,
      "▁ஒளி": 1193,
      "▁அம்": 1194,
      "ிடையே": 1195,
      "்ஸ்": 1196,
      "னில்": 1197,
      "க்தி": 1198,
      "ணிய": 1199,
      "ளான": 1200,
      "ிருஷ்": 1201,
      "▁மாத": 1202,
      "யன்": 1203,
      "▁நாக": 1204,
      "▁ஹெ": 1205,
      "களிலும்": 1206,
      "வேன்": 1207,
      "ராம்": 1208,
      "▁ன": 1209,
      "றே": 1210,
      "▁கர": 1211,
      "றுவ": 1212,
      "▁ர்": 1213,
      "▁நிறு": 1214,
      "யில": 1215,
      "துடன்": 1216,
      "ளாம்": 1217,
      "ப்ர": 1218,
      "மென்": 1219,
      "ாவு": 1220,
      "மாயிரு": 1221,
      "▁யு": 1222,
      "கிறார்": 1223,
      "▁சாத": 1224,
      "ய்யா": 1225,
      "வக": 1226,
      "துகா": 1227,
      "ூடாது": 1228,
      "தின": 1229,
      "மான்": 1230,
      "ாகப்": 1231,
      "▁கொள்": 1232,
      "கெ": 1233,
      "ஜெ": 1234,
      "ழுவ": 1235,
      "▁கவி": 1236,
      "▁மொழி": 1237,
      "▁த்": 1238,
      "றீ": 1239,
      "▁உயர்": 1240,
      "ுது": 1241,
      "ிற்கான": 1242,
      "▁தடு": 1243,
      "பட்": 1244,
      "▁எண்": 1245,
      "்ச": 1246,
      "ாதீ": 1247,
      "வண": 1248,
      "ாகக்": 1249,
      "டுகிறது": 1250,
      "னைய": 1251,
      "ளெ": 1252,
      "தோடு": 1253,
      "ித்": 1254,
      "ளவு": 1255,
      "▁ஜோ": 1256,
      "ாலேயே": 1257,
      "சல்": 1258,
      "டுவது": 1259,
      "லூ": 1260,
      "ாலி": 1261,
      "ஜீ": 1262,
      "▁பேர": 1263,
      "▁உலக": 1264,
      "ாவது": 1265,
      "திரி": 1266,
      "சைய": 1267,
      "பொரு": 1268,
      "ாலை": 1269,
      "▁ஜீ": 1270,
      "வூ": 1271,
      "ரிடம்": 1272,
      "ரால்": 1273,
      "ய்வு": 1274,
      "▁சார்": 1275,
      "னியா": 1276,
      "▁எரி": 1277,
      "ுதல்": 1278,
      "ுவன": 1279,
      "மையான": 1280,
      "யல்": 1281,
      "▁பிரா": 1282,
      "மக": 1283,
      "▁வட": 1284,
      "ண்ணு": 1285,
      "ிறு": 1286,
      "▁எதி": 1287,
      "தியாக": 1288,
      "த்ர": 1289,
      "வனா": 1290,
      "▁இறை": 1291,
      "்டால்": 1292,
      "பாக": 1293,
      "▁பேச": 1294,
      "கான": 1295,
      "▁/": 1296,
      "நாடு": 1297,
      "▁பெரிய": 1298,
      "முன்": 1299,
      "ூடாக": 1300,
      "மம்": 1301,
      "ிற்ப": 1302,
      "▁டு": 1303,
      "ோரு": 1304,
      "ன்மை": 1305,
      "மது": 1306,
      "சின்": 1307,
      "ிழ": 1308,
      "ண்ணா": 1309,
      "தாகக்": 1310,
      "்டிரு": 1311,
      "▁இசை": 1312,
      "புரம்": 1313,
      "மாம்": 1314,
      "▁விரி": 1315,
      "▁நெரு": 1316,
      "டுவத": 1317,
      "▁ரூ": 1318,
      "▁குண": 1319,
      "▁பயன்படு": 1320,
      "மத": 1321,
      "சொ": 1322,
      "ன்பது": 1323,
      "ுவி": 1324,
      "▁கதை": 1325,
      "்கி": 1326,
      "ுகிறது": 1327,
      "▁சமூக": 1328,
      "வோம்": 1329,
      "▁வள": 1330,
      "ஆர்": 1331,
      "▁மின்": 1332,
      "னது": 1333,
      "▁உர": 1334,
      "ினோ": 1335,
      "றைய": 1336,
      "▁ஃப": 1337,
      "▁டா": 1338,
      "ிறோம்": 1339,
      "ாதா": 1340,
      "▁உரி": 1341,
      "குறி": 1342,
      "▁சர": 1343,
      "▁உயிர்": 1344,
      "▁அழ": 1345,
      "▁பக": 1346,
      "▁ஜெய": 1347,
      "▁குறு": 1348,
      "சியல்": 1349,
      "▁மது": 1350,
      "எம்": 1351,
      "ாரே": 1352,
      "வலை": 1353,
      "க்ஸ": 1354,
      "னீ": 1355,
      "▁ஜி": 1356,
      "ருக": 1357,
      "ிரம்": 1358,
      "▁கிரா": 1359,
      "▁ஹி": 1360,
      "ஸ்க": 1361,
      "களான": 1362,
      "ினாலும்": 1363,
      "ுமே": 1364,
      "வித": 1365,
      "இல": 1366,
      "▁தர்": 1367,
      "ீடு": 1368,
      "டிக்": 1369,
      "வினை": 1370,
      "▁குள": 1371,
      "சிற": 1372,
      "களிடம்": 1373,
      "கொடு": 1374,
      "வொ": 1375,
      "யெ": 1376,
      "▁கண்": 1377,
      "▁தை": 1378,
      "ிறான்": 1379,
      "ழல்": 1380,
      "▁பாரா": 1381,
      "▁உடை": 1382,
      "சாக": 1383,
      "▁சுக": 1384,
      "ளைத்": 1385,
      "▁ள்": 1386,
      "▁மான": 1387,
      "▁ல்": 1388,
      "ஜன": 1389,
      "ட்சு": 1390,
      "▁செல": 1391,
      "▁பெண்": 1392,
      "▁ஃப்": 1393,
      "மெரி": 1394,
      "▁ஆன்": 1395,
      "▁ன்": 1396,
      "▁இடை": 1397,
      "▁வச": 1398,
      "ர்ஸ்": 1399,
      "ுணர்": 1400,
      "▁லெ": 1401,
      "ிலான": 1402,
      "▁கூட": 1403,
      "தாவது": 1404,
      "▁திரி": 1405,
      "ியி": 1406,
      "விள": 1407,
      "▁தக": 1408,
      "▁லை": 1409,
      "ுடனான": 1410,
      "த்ய": 1411,
      "ளிலும்": 1412,
      "▁டிர": 1413,
      "பூர்": 1414,
      "▁கைய": 1415,
      "லான": 1416,
      "ுகிறா": 1417,
      "டாக": 1418,
      "யாரி": 1419,
      "ரக": 1420,
      "களோ": 1421,
      "▁கால்": 1422,
      "ாதார": 1423,
      "வய": 1424,
      "ுடு": 1425,
      "▁வரி": 1426,
      "ஆக": 1427,
      "▁இழ": 1428,
      "டவி": 1429,
      "செல்": 1430,
      "ாடி": 1431,
      "களைச்": 1432,
      "▁தெரிய": 1433,
      "▁அப்": 1434,
      "சனை": 1435,
      "ிங்": 1436,
      "▁மகா": 1437,
      "களிலிரு": 1438,
      "▁தெளி": 1439,
      "ாதிரு": 1440,
      "▁தொலை": 1441,
      "▁அச": 1442,
      "▁நேர": 1443,
      "அமை": 1444,
      "பெரு": 1445,
      "ூர": 1446,
      "வுட": 1447,
      "்டு": 1448,
      "▁ஞான": 1449,
      "▁அலை": 1450,
      "▁மய": 1451,
      "▁டே": 1452,
      "▁மேற்": 1453,
      "▁மக": 1454,
      "▁லே": 1455,
      "▁அக்": 1456,
      "▁பாத": 1457,
      "ுள": 1458,
      "ியாள": 1459,
      "ாரோ": 1460,
      "▁ஆர": 1461,
      "பரி": 1462,
      "ோய்": 1463,
      "யர": 1464,
      "▁நொ": 1465,
      "▁விஜ": 1466,
      "▁தரு": 1467,
      "டியே": 1468,
      "▁விஷ": 1469,
      "▁ஏமா": 1470,
      "தியை": 1471,
      "▁ரே": 1472,
      "பால்": 1473,
      "ஸில்": 1474,
      "ரல்": 1475,
      "விலிரு": 1476,
      "▁ஒது": 1477,
      "பத": 1478,
      "லன்": 1479,
      "ந்ந": 1480,
      "வீன": 1481,
      "சாரி": 1482,
      "▁பாதுகா": 1483,
      "▁பண்": 1484,
      "▁”": 1485,
      "ுமெ": 1486,
      "▁தெரிவி": 1487,
      "பக": 1488,
      "தாய": 1489,
      "்சிய": 1490,
      "ருடன்": 1491,
      "புரி": 1492,
      "▁ஸ்ட": 1493,
      "மிழ": 1494,
      "ையான": 1495,
      "▁ஹா": 1496,
      "கிறேன்": 1497,
      "▁டீ": 1498,
      "▁ஜா": 1499,
      "▁ஆதி": 1500,
      "தின்": 1501,
      "▁திரை": 1502,
      "▁கீழ்": 1503,
      "மாறு": 1504,
      "ரைப்": 1505,
      "திலும்": 1506,
      "யின": 1507,
      "▁ஒலி": 1508,
      "தக": 1509,
      "ியர்": 1510,
      "▁மகிழ்": 1511,
      "தாகத்": 1512,
      "▁உல": 1513,
      "றேன்": 1514,
      "▁கிற": 1515,
      "டவு": 1516,
      "ிருஷ்ண": 1517,
      "ேக": 1518,
      "ன்மைய": 1519,
      "ானி": 1520,
      "்ண": 1521,
      "களி": 1522,
      "ுமதி": 1523,
      "ீஸ்": 1524,
      "ணுவ": 1525,
      "▁துவ": 1526,
      "▁–": 1527,
      "ஃபி": 1528,
      "ட்க": 1529,
      "ாலா": 1530,
      "ிடமும்": 1531,
      "ுன": 1532,
      "▁ஹை": 1533,
      "▁பர்": 1534,
      "▁மூல": 1535,
      "▁ரீ": 1536,
      "▁டோ": 1537,
      "ளிடம்": 1538,
      "தைத்": 1539,
      "ைகளு": 1540,
      "▁இஸ்": 1541,
      "ய்வ": 1542,
      "▁சமா": 1543,
      "▁உள": 1544,
      "ைகளை": 1545,
      "லியா": 1546,
      "பாய்": 1547,
      "ெரி": 1548,
      "▁சிர": 1549,
      "ானோ": 1550,
      "டியோ": 1551,
      "நிதி": 1552,
      "▁எஸ்": 1553,
      "▁மார்": 1554,
      "ரைய": 1555,
      "ாரை": 1556,
      "ாகத்": 1557,
      "▁தன": 1558,
      "்டார்": 1559,
      "ளூ": 1560,
      "▁இறு": 1561,
      "▁ஒழு": 1562,
      "▁சாதி": 1563,
      "ியாய": 1564,
      "▁நேர்": 1565,
      "கின்": 1566,
      "க்ர": 1567,
      "ிச்": 1568,
      "▁ஈடு": 1569,
      "▁விதி": 1570,
      "தய": 1571,
      "நிலைய": 1572,
      "சக": 1573,
      "▁சுரு": 1574,
      "▁ஞ": 1575,
      "த்ரா": 1576,
      "ாட்சி": 1577,
      "வதும்": 1578,
      "ராட்சி": 1579,
      "▁கழி": 1580,
      "வீர": 1581,
      "மாண": 1582,
      "ினே": 1583,
      "ர்ட்": 1584,
      "பம்": 1585,
      "கொள்": 1586,
      "ட்ரோ": 1587,
      "ழில்": 1588,
      "▁இம்": 1589,
      "முடைய": 1590,
      "▁பால்": 1591,
      "▁அப": 1592,
      "▁’": 1593,
      "▁முதல": 1594,
      "தரி": 1595,
      "ுகை": 1596,
      "டியாக": 1597,
      "ுரி": 1598,
      "ஜோ": 1599,
      "களோடு": 1600,
      "லாள": 1601,
      "▁வகு": 1602,
      "குமா": 1603,
      "ேயிரு": 1604,
      "▁துணை": 1605,
      "வரின்": 1606,
      "▁ஜன": 1607,
      "நாயக": 1608,
      "ிணை": 1609,
      "ாவின்": 1610,
      "மயமா": 1611,
      "க்ட": 1612,
      "ெட்": 1613,
      "▁ள": 1614,
      "பாத": 1615,
      "இய": 1616,
      "▁வலை": 1617,
      "சுர": 1618,
      "யாது": 1619,
      "தது": 1620,
      "ுவே": 1621,
      "▁லோ": 1622,
      "னைப்": 1623,
      "டவே": 1624,
      "ேற்ப": 1625,
      "மாகக்": 1626,
      "தொடர்": 1627,
      "▁தொழில்": 1628,
      "தால": 1629,
      "டியிரு": 1630,
      "▁பிரதி": 1631,
      "ழ்க": 1632,
      "ளைச்": 1633,
      "▁கவு": 1634,
      "ியைப்": 1635,
      "▁பேசி": 1636,
      "ன்ட": 1637,
      "▁ஆன": 1638,
      "ிற்குள்": 1639,
      "லால்": 1640,
      "மாகவே": 1641,
      "பிரி": 1642,
      "ானை": 1643,
      "கண": 1644,
      "சய": 1645,
      "ழ்வு": 1646,
      "தென": 1647,
      "▁வல": 1648,
      "இல்": 1649,
      "ராஜ்": 1650,
      "தாகவே": 1651,
      "▁நிய": 1652,
      "பாட": 1653,
      "மாகிய": 1654,
      "பிய": 1655,
      "▁கலா": 1656,
      "ண்ணி": 1657,
      "ீன்": 1658,
      "கிய": 1659,
      "▁மைய": 1660,
      "▁பாக": 1661,
      "பெற": 1662,
      "ுடி": 1663,
      "ரான்": 1664,
      "மூர்": 1665,
      "ுகொள்": 1666,
      "சாமி": 1667,
      "▁முத": 1668,
      "▁விளையா": 1669,
      "▁கிரி": 1670,
      "ுவதற்கு": 1671,
      "ிற்குப்": 1672,
      "▁எம்": 1673,
      "▁பெய": 1674,
      "▁மாண": 1675,
      "்னி": 1676,
      "▁தய": 1677,
      "புற": 1678,
      "கலை": 1679,
      "▁குற": 1680,
      "▁பெற": 1681,
      "ரைக்": 1682,
      "்ர": 1683,
      "பான்": 1684,
      "ற்படு": 1685,
      "ிகளு": 1686,
      "▁கிரு": 1687,
      "லிரு": 1688,
      "▁முர": 1689,
      "ினரு": 1690,
      "ிகை": 1691,
      "தாலும்": 1692,
      "▁மெய்": 1693,
      "யிட": 1694,
      "▁கான்": 1695,
      "மானி": 1696,
      "ிண": 1697,
      "யுத": 1698,
      "▁விளை": 1699,
      "▁ரசி": 1700,
      "கிறோம்": 1701,
      "னிடம்": 1702,
      "▁காரண": 1703,
      "ினம்": 1704,
      "ியெ": 1705,
      "▁அபி": 1706,
      "ோன்": 1707,
      "பன்": 1708,
      "ஸ்திர": 1709,
      "இர": 1710,
      "ையொ": 1711,
      "ேரி": 1712,
      "▁ஆக": 1713,
      "ிகளை": 1714,
      "▁கௌ": 1715,
      "பக்": 1716,
      "ாளி": 1717,
      "ோரா": 1718,
      "னார்": 1719,
      "பான": 1720,
      "லர்": 1721,
      "▁தள": 1722,
      "▁தேவ": 1723,
      "களாய்": 1724,
      "▁கணி": 1725,
      "ாரம்": 1726,
      "▁ஊர்": 1727,
      "▁உறுதி": 1728,
      "▁தல": 1729,
      "மையாக": 1730,
      "்வு": 1731,
      "தள": 1732,
      "▁இந்": 1733,
      "▁ஹே": 1734,
      "ஸ்ரீ": 1735,
      "ினான்": 1736,
      "▁நினைவு": 1737,
      "மிழ்": 1738,
      "தானா": 1739,
      "வடை": 1740,
      "்தா": 1741,
      "▁கற்": 1742,
      "ன்ட்": 1743,
      "▁ஹோ": 1744,
      "சல": 1745,
      "▁கிடை": 1746,
      "மாகப்": 1747,
      "திப": 1748,
      "▁கற்ப": 1749,
      "வசா": 1750,
      "தியான": 1751,
      "▁ஷா": 1752,
      "பெயர்": 1753,
      "மாற": 1754,
      "ெதிர": 1755,
      "ளிலிரு": 1756,
      "▁சுர": 1757,
      "▁பெர்": 1758,
      "களெ": 1759,
      "▁கத": 1760,
      "லாமா": 1761,
      "னூ": 1762,
      "்டை": 1763,
      "▁கிழ": 1764,
      "திக": 1765,
      "ிடை": 1766,
      "மையால்": 1767,
      "ளாய்": 1768,
      "▁தயாரி": 1769,
      "▁மட": 1770,
      "ரவ": 1771,
      "ெண்": 1772,
      "மூலம்": 1773,
      "ாரன்": 1774,
      "ாதது": 1775,
      "ியைக்": 1776,
      "▁பரா": 1777,
      "▁நல": 1778,
      "னைக்": 1779,
      "ர்ர்": 1780,
      "்டன": 1781,
      "ோமா": 1782,
      "ாலு": 1783,
      "▁குல": 1784,
      "▁கழ": 1785,
      "ியைச்": 1786,
      "ாதை": 1787,
      "ினதும்": 1788,
      "ொல்": 1789,
      "ழிவு": 1790,
      "ேச": 1791,
      "▁புகை": 1792,
      "கிழ": 1793,
      "▁ரொ": 1794,
      "▁பக்": 1795,
      "ூடும்": 1796,
      "லய": 1797,
      "▁வன்": 1798,
      "ளது": 1799,
      "ரஸ்": 1800,
      "▁வரலா": 1801,
      "ிரன்": 1802,
      "தனால்": 1803,
      "எல்": 1804,
      "ொலி": 1805,
      "ையைப்": 1806,
      "▁அமு": 1807,
      "ஊராட்சி": 1808,
      "ினுள்": 1809,
      "திற": 1810,
      "ிப": 1811,
      "நல": 1812,
      "உலக": 1813,
      "ையிலிரு": 1814,
      "ல்ப": 1815,
      "ரோனா": 1816,
      "திலிரு": 1817,
      "மூல": 1818,
      "டியில்": 1819,
      "ுறு": 1820,
      "யிடு": 1821,
      "▁நிறைவே": 1822,
      "ரொ": 1823,
      "ளோடு": 1824,
      "ையாவது": 1825,
      "▁வேத": 1826,
      "ாராம்": 1827,
      "நாள்": 1828,
      "வகை": 1829,
      "▁ஆக்": 1830,
      "ட்ரா": 1831,
      "்டோ": 1832,
      "ினிமா": 1833,
      "▁சம்": 1834,
      "தலு": 1835,
      "ினுடைய": 1836,
      "ிரிய": 1837,
      "றியா": 1838,
      "்லா": 1839,
      "▁தின": 1840,
      "ப்ட": 1841,
      "குட": 1842,
      "ுந": 1843,
      "ுபவ": 1844,
      "வதற்காக": 1845,
      "▁தடை": 1846,
      "கத்": 1847,
      "▁கன்": 1848,
      "வெடு": 1849,
      "ருக்": 1850,
      "தேர்": 1851,
      "__": 1852,
      "ையைக்": 1853,
      "▁இணைய": 1854,
      "யல": 1855,
      "துறை": 1856,
      "ுவீ": 1857,
      "ுவதை": 1858,
      "ிற்சி": 1859,
      "▁மாக": 1860,
      "ட்ரி": 1861,
      "சாலை": 1862,
      "ுமி": 1863,
      "ிடைய": 1864,
      "ல்வி": 1865,
      "டுத்": 1866,
      "னுடன்": 1867,
      "ம்மை": 1868,
      "ஸ்தான": 1869,
      "வண்ண": 1870,
      "▁பெயர்": 1871,
      "குழ": 1872,
      "்டர்": 1873,
      "ியுடன்": 1874,
      "வனும்": 1875,
      "கையில்": 1876,
      "▁சிறை": 1877,
      "ஸ்லி": 1878,
      "▁சும": 1879,
      "்யா": 1880,
      "ுட்": 1881,
      "▁யோசி": 1882,
      "ோகிற": 1883,
      "லாமே": 1884,
      "▁பொய்": 1885,
      "ுகளில்": 1886,
      "ஸீ": 1887,
      "ொழு": 1888,
      "ணிக": 1889,
      "யீ": 1890,
      "▁கம்": 1891,
      "வளி": 1892,
      "குரு": 1893,
      "தியில்": 1894,
      "வமை": 1895,
      "ஹோ": 1896,
      "வதால்": 1897,
      "ாவில்": 1898,
      "ுண": 1899,
      "தியின்": 1900,
      "சாத": 1901,
      "ினைப்": 1902,
      "வதில்": 1903,
      "▁மாற": 1904,
      "▁வலு": 1905,
      "மியா": 1906,
      "மானால்": 1907,
      "நிக": 1908,
      "▁கீழ": 1909,
      "்ய": 1910,
      "▁பரு": 1911,
      "காக": 1912,
      "ிறாள்": 1913,
      "ம்ம்": 1914,
      "▁வீழ்": 1915,
      "மாதிரி": 1916,
      "மிர்": 1917,
      "▁நியூ": 1918,
      "▁வண": 1919,
      "தவ": 1920,
      "ிவரு": 1921,
      "கிரா": 1922,
      "ஜு": 1923,
      "▁கோப": 1924,
      "முனை": 1925,
      "ரசு": 1926,
      "நேர": 1927,
      "▁பண்ணி": 1928,
      "▁வெடி": 1929,
      "▁முழ": 1930,
      "ராஜா": 1931,
      "ட்பா": 1932,
      "ொருள்": 1933,
      "ாளர்": 1934,
      "ல்க": 1935,
      "▁புரோ": 1936,
      "▁சப்": 1937,
      "வட": 1938,
      "ம்ச": 1939,
      "▁கழு": 1940,
      "▁குளி": 1941,
      "ஷே": 1942,
      "▁பூர்": 1943,
      "▁முட": 1944,
      "▁தரி": 1945,
      "▁மூட": 1946,
      "▁ரை": 1947,
      "▁லு": 1948,
      "▁நெடு": 1949,
      "ியடி": 1950,
      "ெர்": 1951,
      "ாப்": 1952,
      "கவே": 1953,
      "தப்": 1954,
      "▁ஆதர": 1955,
      "ினேன்": 1956,
      "▁பிள": 1957,
      "▁ஜூ": 1958,
      "பில்": 1959,
      "▁தேச": 1960,
      "கதை": 1961,
      "ொழ": 1962,
      "▁தீவிர": 1963,
      "▁உரை": 1964,
      "▁நர": 1965,
      "ஸ்டு": 1966,
      "▁சாக": 1967,
      "மாகத்": 1968,
      "த்யா": 1969,
      "ினிய": 1970,
      "▁கரை": 1971,
      "▁தென்": 1972,
      "▁இடி": 1973,
      "்லி": 1974,
      "▁தட": 1975,
      "ஹீ": 1976,
      "தாகச்": 1977,
      "ுதல": 1978,
      "▁பெரி": 1979,
      "▁வகை": 1980,
      "▁சக": 1981,
      "ைகள": 1982,
      "ரைச்": 1983,
      "நுட்ப": 1984,
      "▁தொகு": 1985,
      "ண்க": 1986,
      "ஸ்டி": 1987,
      "ண்மை": 1988,
      "▁எதிர": 1989,
      "▁பதிவு": 1990,
      "தாப": 1991,
      "▁வன": 1992,
      "பாய": 1993,
      "ையைச்": 1994,
      "சுக": 1995,
      "▁நாடு": 1996,
      "வனே": 1997,
      "ுவம்": 1998,
      "நாக": 1999,
      "ரைத்": 2000,
      "விலும்": 2001,
      "ஷீ": 2002,
      "ாரண": 2003,
      "▁உயிர": 2004,
      "▁எக்ஸ்": 2005,
      "▁பகு": 2006,
      "▁பசு": 2007,
      "▁நோய்": 2008,
      "வென": 2009,
      "மட": 2010,
      "▁பனி": 2011,
      "தொட": 2012,
      "▁அசை": 2013,
      "ுவோ": 2014,
      "ருடைய": 2015,
      "ுடன": 2016,
      "ூற": 2017,
      "ஜே": 2018,
      "ிகள": 2019,
      "ாரின்": 2020,
      "வளாக": 2021,
      "▁கூறிய": 2022,
      "தில": 2023,
      "▁ஈழ": 2024,
      "▁துர": 2025,
      "▁உடல்": 2026,
      "▁ராம": 2027,
      "வரே": 2028,
      "▁நிலைய": 2029,
      "▁கரி": 2030,
      "▁ண": 2031,
      "ாரிய": 2032,
      "ட்படு": 2033,
      "னாய்": 2034,
      "ெண்ண": 2035,
      "்பா": 2036,
      "படியே": 2037,
      "▁நுழை": 2038,
      "▁வரவே": 2039,
      "ுல்": 2040,
      "ியைத்": 2041,
      "ாகச்": 2042,
      "▁மேல": 2043,
      "ழா": 2044,
      "வளை": 2045,
      "டல": 2046,
      "ஆஆ": 2047,
      "▁இளை": 2048,
      "▁மேற்க": 2049,
      "ினைக்": 2050,
      "டுவதை": 2051,
      "கிறான்": 2052,
      "ஜன்": 2053,
      "னால": 2054,
      "▁உழை": 2055,
      "▁டொ": 2056,
      "ினது": 2057,
      "யாள": 2058,
      "சிங்": 2059,
      "னுடைய": 2060,
      "வதே": 2061,
      "▁உணவு": 2062,
      "்சன": 2063,
      "▁அஸ்": 2064,
      "வொரு": 2065,
      "செப்": 2066,
      "கிரி": 2067,
      "ாரர்": 2068,
      "▁தாழ்": 2069,
      "சிஸ்": 2070,
      "ியடை": 2071,
      "▁லீ": 2072,
      "▁பிரே": 2073,
      "குல": 2074,
      "பெண்": 2075,
      "அக்": 2076,
      "▁சீர": 2077,
      "பிள்": 2078,
      "சமா": 2079,
      "விக்": 2080,
      "▁ஒழி": 2081,
      "ஆம்": 2082,
      "ராத": 2083,
      "ிள": 2084,
      "்ணா": 2085,
      "ுமு": 2086,
      "்டீ": 2087,
      "ொடி": 2088,
      "ையால்": 2089,
      "ுபவி": 2090,
      "▁மாவ": 2091,
      "▁நாய": 2092,
      "ற்பு": 2093,
      "▁விப": 2094,
      "▁கஷ்ட": 2095,
      "ல்களு": 2096,
      "சும்": 2097,
      "▁மிர": 2098,
      "▁தொடர்பு": 2099,
      "ிகி": 2100,
      "ெக்": 2101,
      "ொழி": 2102,
      "ரர்": 2103,
      "▁ளை": 2104,
      "பழ": 2105,
      "▁அம்மா": 2106,
      "ாயி": 2107,
      "வுகளை": 2108,
      "மாவ": 2109,
      "ல்களை": 2110,
      "▁காம": 2111,
      "களாகவே": 2112,
      "ஜக": 2113,
      "▁ஹீ": 2114,
      "▁காட்சி": 2115,
      "டின்": 2116,
      "ுகோ": 2117,
      "மொழ": 2118,
      "கக்": 2119,
      "ிள்": 2120,
      "▁குர": 2121,
      "வனின்": 2122,
      "▁துணி": 2123,
      "ுகளும்": 2124,
      "விரி": 2125,
      "▁சௌ": 2126,
      "்கோ": 2127,
      "ாலம்": 2128,
      "▁பாய்": 2129,
      "ல்ஸ்": 2130,
      "ஞர்": 2131,
      "▁பகிர்": 2132,
      "▁ஆறு": 2133,
      "▁ஆண்": 2134,
      "ியதாக": 2135,
      "தொரு": 2136,
      "ையென": 2137,
      "▁பிழை": 2138,
      "ராண": 2139,
      "▁சீர்": 2140,
      "ிச": 2141,
      "ேயான": 2142,
      "ுகிறார்": 2143,
      "▁கெடு": 2144,
      "▁சமய": 2145,
      "ினூடாக": 2146,
      "▁சல": 2147,
      "ியாய்": 2148,
      "▁நல்": 2149,
      "ெற": 2150,
      "▁அழக": 2151,
      "னித": 2152,
      "▁நை": 2153,
      "ுச": 2154,
      "ஸ்ப": 2155,
      "▁புலி": 2156,
      "ோஷ": 2157,
      "டியை": 2158,
      "▁லூ": 2159,
      "ோமே": 2160,
      "▁நிறுவன": 2161,
      "ையாய்": 2162,
      "ுவத": 2163,
      "▁ஆய்வு": 2164,
      "ுவதாக": 2165,
      "ேனா": 2166,
      "ஸ்டா": 2167,
      "▁சத": 2168,
      "ுவதற்காக": 2169,
      "ிகா": 2170,
      "டில்": 2171,
      "▁உடன்": 2172,
      "ியமை": 2173,
      "வதா": 2174,
      "றிவு": 2175,
      "▁எல்": 2176,
      "ையைத்": 2177,
      "மில்": 2178,
      "வதற்": 2179,
      "▁கொழு": 2180,
      "யண": 2181,
      "▁தான": 2182,
      "ஹு": 2183,
      "பாளைய": 2184,
      "ிவி": 2185,
      "குடி": 2186,
      "ரச": 2187,
      "வுமே": 2188,
      "▁முது": 2189,
      "ிடையில்": 2190,
      "ூறு": 2191,
      "▁பேரா": 2192,
      "ஸ்கோ": 2193,
      "▁ஒடு": 2194,
      "கிறீ": 2195,
      "ரவி": 2196,
      "▁வண்ண": 2197,
      "▁அந்": 2198,
      "களையே": 2199,
      "▁நியாய": 2200,
      "\\\\\\\\": 2201,
      "ிற்குரிய": 2202,
      "திபதி": 2203,
      "திவு": 2204,
      "செய": 2205,
      "▁சுவ": 2206,
      "▁களை": 2207,
      "னல்": 2208,
      "்ட்": 2209,
      "ையுடைய": 2210,
      "ிமா": 2211,
      "பண": 2212,
      "▁தற்": 2213,
      "ஜை": 2214,
      "ையடி": 2215,
      "ண்ணே": 2216,
      "▁ஆளு": 2217,
      "யன": 2218,
      "மையின்": 2219,
      "▁சுத": 2220,
      "▁ஆய்": 2221,
      "▁பத்": 2222,
      "ன்பு": 2223,
      "ிற்குச்": 2224,
      "மாகச்": 2225,
      "லாய்": 2226,
      "▁வின": 2227,
      "ாற்": 2228,
      "ஆன்": 2229,
      "▁துற": 2230,
      "▁பழி": 2231,
      "▁ஆழ்": 2232,
      "▁அமெரி": 2233,
      "தீர்": 2234,
      "▁கிராம": 2235,
      "மால்": 2236,
      "நோய்": 2237,
      "▁சூழ்": 2238,
      "ுமை": 2239,
      "ன்பதை": 2240,
      "ரிக்": 2241,
      "▁தேசிய": 2242,
      "▁சாய்": 2243,
      "திரா": 2244,
      "▁நம": 2245,
      "ரியில்": 2246,
      "ரவு": 2247,
      "லக்": 2248,
      "மேன்": 2249,
      "ேனே": 2250,
      "தெரி": 2251,
      "ீர": 2252,
      "பவ": 2253,
      "ிரம": 2254,
      "ேர": 2255,
      "ஸ்கி": 2256,
      "பெய": 2257,
      "்டேன்": 2258,
      "ஷ்ய": 2259,
      "அமெரி": 2260,
      "ல்ட்": 2261,
      "ோர": 2262,
      "சிக": 2263,
      "ாளைய": 2264,
      "வகு": 2265,
      "ளுடைய": 2266,
      "லைப்": 2267,
      "டாது": 2268,
      "மாத": 2269,
      "ையுமே": 2270,
      "ஸ்டர்": 2271,
      "ைபெ": 2272,
      "ோத": 2273,
      "னைத்": 2274,
      "ாராக": 2275,
      "லைக்": 2276,
      "ஃபெ": 2277,
      "களாலும்": 2278,
      "▁ஜே": 2279,
      "ியால்": 2280,
      "ியிலிரு": 2281,
      "ஃபா": 2282,
      "▁_": 2283,
      "▁மஹ": 2284,
      "நிறு": 2285,
      "ஜூன்": 2286,
      "ுகளின்": 2287,
      "ுகளாக": 2288,
      "▁நன்": 2289,
      "்தி": 2290,
      "▁நிதி": 2291,
      "ொருட்": 2292,
      "▁பாவ": 2293,
      "▁பயண": 2294,
      "களிடமிரு": 2295,
      "▁துறை": 2296,
      "▁ஷி": 2297,
      "ியமான": 2298,
      "’’": 2299,
      "ிற்கே": 2300,
      "ாமை": 2301,
      "▁ஃபெ": 2302,
      "ஸ்வரர்": 2303,
      "▁ஃபி": 2304,
      "▁சவு": 2305,
      "திற்கு": 2306,
      "டுகிறா": 2307,
      "்வி": 2308,
      "▁ஓர": 2309,
      "டியான": 2310,
      "ராம": 2311,
      "▁நிரு": 2312,
      "ூடு": 2313,
      "▁மிரு": 2314,
      "திகளு": 2315,
      "ரியை": 2316,
      "தரு": 2317,
      "▁தலைய": 2318,
      "லேயே": 2319,
      "▁விலை": 2320,
      "நவ": 2321,
      "▁வு": 2322,
      "▁மௌ": 2323,
      "கவி": 2324,
      "▁ஆசை": 2325,
      "ாஹ்": 2326,
      "யோகி": 2327,
      "▁நகை": 2328,
      "டிச": 2329,
      "பன": 2330,
      "நிலையில்": 2331,
      "▁மழை": 2332,
      "▁முய": 2333,
      "பொது": 2334,
      "ளிட": 2335,
      "▁குவி": 2336,
      "்டதாக": 2337,
      "களிட": 2338,
      "▁வித": 2339,
      "ாட்சிய": 2340,
      "▁மாய": 2341,
      "புல": 2342,
      "குறை": 2343,
      "▁ராக": 2344,
      "▁கவன": 2345,
      "▁நவ": 2346,
      "▁ஆராய்": 2347,
      "▁பிளா": 2348,
      "▁ஆப்": 2349,
      "மையில்": 2350,
      "பியா": 2351,
      "▁பொன்": 2352,
      "ெரிய": 2353,
      "யொ": 2354,
      "றவ": 2355,
      "▁வளை": 2356,
      "ரோடு": 2357,
      "சிவ": 2358,
      "ையாட": 2359,
      "▁சென்": 2360,
      "ாடல்": 2361,
      "ண்ணிய": 2362,
      "▁திக": 2363,
      "▁பொருள்": 2364,
      "ாச": 2365,
      "யினும்": 2366,
      "ிலெ": 2367,
      "▁ஆள": 2368,
      "▁சமு": 2369,
      "ஷ்க": 2370,
      "▁பொருள": 2371,
      "்டமை": 2372,
      "ினீ": 2373,
      "மீன்": 2374,
      "ரது": 2375,
      "யோக": 2376,
      "▁இடு": 2377,
      "ஜூலை": 2378,
      "▁பப்": 2379,
      "▁நண்ப": 2380,
      "டுவதற்கு": 2381,
      "ம்ஸ்": 2382,
      "படை": 2383,
      "றோம்": 2384,
      "▁செயற்": 2385,
      "ோகி": 2386,
      "தொழ": 2387,
      "தியு": 2388,
      "▁விஜய": 2389,
      "த்க": 2390,
      "▁முனை": 2391,
      "▁மாறி": 2392,
      "ற்கை": 2393,
      "்றி": 2394,
      "டன": 2395,
      "ஹெ": 2396,
      "▁டூ": 2397,
      "்டாலும்": 2398,
      "நினை": 2399,
      "ினாள்": 2400,
      "டிரு": 2401,
      "ிற்குத்": 2402,
      "குடு": 2403,
      "திரை": 2404,
      "நூல்": 2405,
      "ிதா": 2406,
      "▁கிழி": 2407,
      "ஸ்து": 2408,
      "திகளை": 2409,
      "்ரீ": 2410,
      "▁ஆய": 2411,
      "▁மஹா": 2412,
      "யாண": 2413,
      "▁தெரு": 2414,
      "▁ஊடக": 2415,
      "▁எவ்": 2416,
      "ிறை": 2417,
      "தையே": 2418,
      "ணீ": 2419,
      "ிடா": 2420,
      "▁பன்": 2421,
      "ிது": 2422,
      "ாரெ": 2423,
      "னமா": 2424,
      "▁தொழிற்": 2425,
      "ஜெய": 2426,
      "்டிய": 2427,
      "ிடும்": 2428,
      "▁புகழ்": 2429,
      "ொடர்": 2430,
      "கக": 2431,
      "ாயிரு": 2432,
      "தனி": 2433,
      "▁பவு": 2434,
      "டுவதாக": 2435,
      "▁மீள்": 2436,
      "▁ஈர": 2437,
      "▁நிரூ": 2438,
      "ஸ்தா": 2439,
      "▁சார": 2440,
      "▁யோக": 2441,
      "▁மாநில": 2442,
      "▁வேக": 2443,
      "▁அலுவ": 2444,
      "▁சுட": 2445,
      "▁நம்": 2446,
      "ளையே": 2447,
      "ூரில்": 2448,
      "ூம்": 2449,
      "ேட்": 2450,
      "்னா": 2451,
      "மானு": 2452,
      "தாகி": 2453,
      "▁ளு": 2454,
      "▁உற்": 2455,
      "கால்": 2456,
      "ொழுது": 2457,
      "ருவி": 2458,
      "நாட்": 2459,
      "குள": 2460,
      "▁இண": 2461,
      "▁கிளி": 2462,
      "மார": 2463,
      "ிறதா": 2464,
      "ியாகி": 2465,
      "ான்ஸ்": 2466,
      "▁பௌ": 2467,
      "பத்": 2468,
      "▁விசாரி": 2469,
      "களாகி": 2470,
      "ராக்": 2471,
      "பப்": 2472,
      "சென்": 2473,
      "ாகவோ": 2474,
      "ுறைய": 2475,
      "ுகா": 2476,
      "யுறு": 2477,
      "▁ப்ரா": 2478,
      "▁புதிய": 2479,
      "ெயர்": 2480,
      "ொற்": 2481,
      "காச": 2482,
      "▁எக்": 2483,
      "▁செவ்": 2484,
      "ரக்": 2485,
      "ஹே": 2486,
      "டமா": 2487,
      "▁ஒவ்": 2488,
      "▁தெய்வ": 2489,
      "ினைத்": 2490,
      "▁கூறி": 2491,
      "▁கவலை": 2492,
      "யிர்": 2493,
      "▁உடு": 2494,
      "ளாலும்": 2495,
      "▁பன": 2496,
      "▁காண்": 2497,
      "▁புதை": 2498,
      "ஸ்வ": 2499,
      "▁ஆல்": 2500,
      "▁கதா": 2501,
      "ர்ப": 2502,
      "டக்": 2503,
      "ியோக": 2504,
      "கத": 2505,
      "ஹை": 2506,
      "▁திரா": 2507,
      "ளிடமிரு": 2508,
      "எடு": 2509,
      "▁புரிய": 2510,
      "னன்": 2511,
      "எதிர்": 2512,
      "▁விதை": 2513,
      "▁ஷ்": 2514,
      "ாதெ": 2515,
      "சம": 2516,
      "▁ஆண": 2517,
      "▁மாறு": 2518,
      "▁தவற": 2519,
      "வதற்கான": 2520,
      "வுகளு": 2521,
      "பிக்": 2522,
      "▁சிதை": 2523,
      "▁பயி": 2524,
      "ழும்": 2525,
      "▁கச": 2526,
      "்ம": 2527,
      "மையே": 2528,
      "▁ஆகி": 2529,
      "தீன்": 2530,
      "இஸ்": 2531,
      "▁புரு": 2532,
      "ையாம்": 2533,
      "▁பெறு": 2534,
      "ுவின்": 2535,
      "ரத்": 2536,
      "விஜ": 2537,
      "மெடு": 2538,
      "▁ஒள": 2539,
      "▁சுழ": 2540,
      "▁பேசிய": 2541,
      "▁தர்ம": 2542,
      "▁உத": 2543,
      "ையில": 2544,
      "வரான": 2545,
      "ிரோ": 2546,
      "ொறு": 2547,
      "▁///": 2548,
      "▁வெண்": 2549,
      "்காணி": 2550,
      "பாத்": 2551,
      "▁வீடு": 2552,
      "ுரா": 2553,
      "உரு": 2554,
      "ட்ல": 2555,
      "முத": 2556,
      "▁கெள": 2557,
      "ியமா": 2558,
      "்டல": 2559,
      "டையில்": 2560,
      "டலாம்": 2561,
      "ாகிய": 2562,
      "▁செல்வ": 2563,
      "▁மென்": 2564,
      "ஜென்": 2565,
      "மெட்": 2566,
      "குமார்": 2567,
      "ெறி": 2568,
      "ண்ணை": 2569,
      "▁́": 2570,
      "மில": 2571,
      "▁அந்ந": 2572,
      "வடிவ": 2573,
      "தத": 2574,
      "▁புனை": 2575,
      "ாா்": 2576,
      "பிப்": 2577,
      "கூற": 2578,
      "களுடைய": 2579,
      "▁நாடக": 2580,
      "ராயண": 2581,
      "்கலை": 2582,
      "▁‘‘": 2583,
      "▁உடைய": 2584,
      "▁சம்ம": 2585,
      "ிற்குக்": 2586,
      "▁கிளை": 2587,
      "ியிடம்": 2588,
      "ோமோ": 2589,
      "மையு": 2590,
      "ஷன": 2591,
      "▁தொடு": 2592,
      "▁நாட்": 2593,
      "பொழுது": 2594,
      "நிறை": 2595,
      "படும்": 2596,
      "்ஸ": 2597,
      "ாளா": 2598,
      "பூர்வ": 2599,
      "▁மோச": 2600,
      "அக": 2601,
      "▁ஆயுத": 2602,
      "வுறு": 2603,
      "வரலா": 2604,
      "ப்ஸ்": 2605,
      "னர": 2606,
      "்சு": 2607,
      "ேடு": 2608,
      "ைக": 2609,
      "ியதை": 2610,
      "▁யி": 2611,
      "▁களி": 2612,
      "▁தண்ண": 2613,
      "ிரஸ்": 2614,
      "மையாள": 2615,
      "▁குளிர்": 2616,
      "வுடைய": 2617,
      "▁வேற": 2618,
      "திகார": 2619,
      "▁தோல்": 2620,
      "▁விற்ப": 2621,
      "விலு": 2622,
      "னாலும்": 2623,
      "▁கிருஷ்ண": 2624,
      "ழைய": 2625,
      "்டாய": 2626,
      "ார்ட்": 2627,
      "ரிடமிரு": 2628,
      "னமான": 2629,
      "▁சூரிய": 2630,
      "னா்": 2631,
      "▁ப்ரோ": 2632,
      "▁பிரச": 2633,
      "▁மடி": 2634,
      "்டான்": 2635,
      "ியல": 2636,
      "▁பதில": 2637,
      "ோஸ்": 2638,
      "ய்க": 2639,
      "சான": 2640,
      "முதல": 2641,
      "வோர்": 2642,
      "்டனர்": 2643,
      "▁எது": 2644,
      "▁கோர்": 2645,
      "▁ஈடுப": 2646,
      "▁ஆலோ": 2647,
      "▁கிறி": 2648,
      "ுதா": 2649,
      "ளீ": 2650,
      "ாகரி": 2651,
      "▁ஶ": 2652,
      "▁எளி": 2653,
      "▁விரை": 2654,
      "முகம்": 2655,
      "சனம்": 2656,
      "சக்": 2657,
      "யிலிரு": 2658,
      "ேஷ": 2659,
      "▁ஆழ": 2660,
      "▁பேரு": 2661,
      "▁பொலி": 2662,
      "வதெ": 2663,
      "ுவோம்": 2664,
      "▁திட": 2665,
      "▁விசு": 2666,
      "ுமென": 2667,
      "▁துன்ப": 2668,
      "காரி": 2669,
      "யவி": 2670,
      "▁துரு": 2671,
      "▁இறுதி": 2672,
      "▁ஆல": 2673,
      "ட்ர": 2674,
      "வேக": 2675,
      "▁தொழில": 2676,
      "▁திருப்": 2677,
      "ரிமை": 2678,
      "யாம்": 2679,
      "தரா": 2680,
      "காத": 2681,
      "▁துடி": 2682,
      "வுள்": 2683,
      "▁உரிமை": 2684,
      "▁எழ": 2685,
      "டப்": 2686,
      "▁கூர்": 2687,
      "பாஸ்": 2688,
      "டுதல்": 2689,
      "ோரை": 2690,
      "▁இராஜ": 2691,
      "ிசை": 2692,
      "னவே": 2693,
      "▁வசி": 2694,
      "▁எண்ணி": 2695,
      "ுலி": 2696,
      "▁கனி": 2697,
      "்ளி": 2698,
      "னவ": 2699,
      "்களு": 2700,
      "்றா": 2701,
      "விதி": 2702,
      "ளின": 2703,
      "ுவு": 2704,
      "நிர்": 2705,
      "▁மீன்": 2706,
      "▁தவி": 2707,
      "சியை": 2708,
      "வதற்க": 2709,
      "யமா": 2710,
      "ரியின்": 2711,
      "யிலு": 2712,
      "தினால்": 2713,
      "▁சினிமா": 2714,
      "கான்": 2715,
      "▁மகி": 2716,
      "][": 2717,
      "பிரா": 2718,
      "்வெ": 2719,
      "ுவர": 2720,
      "டனும்": 2721,
      "ஜ்ஜ": 2722,
      "த்ரி": 2723,
      "சப": 2724,
      "லாத": 2725,
      "▁றி": 2726,
      "இட": 2727,
      "யிலும்": 2728,
      "தொழில்": 2729,
      "லோக": 2730,
      "▁விவசா": 2731,
      "▁நெறி": 2732,
      "டுவோம்": 2733,
      "ைவி": 2734,
      "▁படைய": 2735,
      "வுபடு": 2736,
      "▁சக்": 2737,
      "னிக்": 2738,
      "ாலான": 2739,
      "ோதும்": 2740,
      "த்மா": 2741,
      "ிறே": 2742,
      "மின": 2743,
      "▁ழ": 2744,
      "▁கலி": 2745,
      "தமா": 2746,
      "▁ஆச": 2747,
      "தாரி": 2748,
      "ஞ்ஞான": 2749,
      "ிவ": 2750,
      "▁விசார": 2751,
      "னமாக": 2752,
      "ுறது": 2753,
      "ளாகி": 2754,
      "ியவ": 2755,
      "றான்": 2756,
      "ஷ்ண": 2757,
      "்ரு": 2758,
      "ஸ்லிம்": 2759,
      "▁ஆப": 2760,
      "அல": 2761,
      "▁முரு": 2762,
      "ிலீ": 2763,
      "கூடிய": 2764,
      "▁கவிதை": 2765,
      "பது": 2766,
      "▁ஹரி": 2767,
      "ூரு": 2768,
      "▁சமை": 2769,
      "ர்ய": 2770,
      "மிர": 2771,
      "▁அழகு": 2772,
      "▁குடிய": 2773,
      "▁அந": 2774,
      "ாகு": 2775,
      "▁சிகி": 2776,
      "▁உயி": 2777,
      "▁பது": 2778,
      "ஸும்": 2779,
      "பெர்": 2780,
      "ாளே": 2781,
      "மொழிய": 2782,
      "ையெழு": 2783,
      "▁சது": 2784,
      "நெறி": 2785,
      "ஷம்": 2786,
      "றத": 2787,
      "யப்": 2788,
      "ியின": 2789,
      "கவு": 2790,
      "▁ஆவண": 2791,
      "▁மீள": 2792,
      "விளை": 2793,
      "ளுக்": 2794,
      "்ரா": 2795,
      "▁புகு": 2796,
      "ியாத": 2797,
      "▁பாடு": 2798,
      "வோடு": 2799,
      "▁புனித": 2800,
      "▁ஆரோ": 2801,
      "லாமிய": 2802,
      "சிக்": 2803,
      "▁உரையா": 2804,
      "ுகிறேன்": 2805,
      "▁மூடி": 2806,
      "ோடி": 2807,
      "▁மோக": 2808,
      "▁உறை": 2809,
      "ஷ்டி": 2810,
      "ிமுக": 2811,
      "சக்தி": 2812,
      "▁சக்தி": 2813,
      "லுடன்": 2814,
      "▁கறு": 2815,
      "▁உற்ப": 2816,
      "ாப": 2817,
      "றார்": 2818,
      "▁அசி": 2819,
      "ூடே": 2820,
      "ஸோ": 2821,
      "ையுடன்": 2822,
      "களுள்": 2823,
      "தைச்": 2824,
      "▁வெகு": 2825,
      "▁வணிக": 2826,
      "ரியது": 2827,
      "லிதா": 2828,
      "அப்": 2829,
      "சின": 2830,
      "▁இயல்": 2831,
      "்டே": 2832,
      "ிறகு": 2833,
      "வினால்": 2834,
      "▁செரு": 2835,
      "///": 2836,
      "ஷிய": 2837,
      "திக்": 2838,
      "பணி": 2839,
      "——": 2840,
      "ஏப்": 2841,
      "▁நிறுவ": 2842,
      "▁கொடி": 2843,
      "ானும்": 2844,
      "யக": 2845,
      "▁உயிரி": 2846,
      "▁பயணி": 2847,
      "▁உருவ": 2848,
      "▁மால": 2849,
      "களினால்": 2850,
      "தேசிய": 2851,
      "▁பாஸ்": 2852,
      "ாவி": 2853,
      "▁யே": 2854,
      "ஜினி": 2855,
      "ையன்": 2856,
      "▁யாழ்": 2857,
      "தாஸ்": 2858,
      "ரிஸ்": 2859,
      "▁யெ": 2860,
      "வத்": 2861,
      "ுடனே": 2862,
      "▁ஆதார": 2863,
      "▁|": 2864,
      "புக": 2865,
      "கண்": 2866,
      "▁குட": 2867,
      "ிசி": 2868,
      "ருந்": 2869,
      "ளினால்": 2870,
      "கையை": 2871,
      "▁பென்": 2872,
      "பாவ": 2873,
      "கித": 2874,
      "▁இழி": 2875,
      "▁செவி": 2876,
      "▁ஓய்": 2877,
      "ூடியது": 2878,
      "்றம்": 2879,
      "▁டிரா": 2880,
      "▁நாள்": 2881,
      "ோவில்": 2882,
      "ுடா": 2883,
      "▁விமான": 2884,
      "னிட": 2885,
      "▁சூழ": 2886,
      "ண்பா": 2887,
      "ெய்து": 2888,
      "ுளி": 2889,
      "சப்": 2890,
      "ாமா": 2891,
      "▁உபய": 2892,
      "▁கேர": 2893,
      "▁சட": 2894,
      "கீழ்": 2895,
      "ுழ": 2896,
      "ஜர்": 2897,
      "▁தூர": 2898,
      "வரம்": 2899,
      "ஸ்டோ": 2900,
      "▁ஈடுபடு": 2901,
      "களாகக்": 2902,
      "▁பெண்ண": 2903,
      "ேயு": 2904,
      "▁திசை": 2905,
      "துக்": 2906,
      "தாரா": 2907,
      "டிஸ்": 2908,
      "ளன": 2909,
      "▁­": 2910,
      "▁பட்": 2911,
      "சமூக": 2912,
      "யூனி": 2913,
      "▁கிளா": 2914,
      "ஸ்ர": 2915,
      "ர்டு": 2916,
      "▁பணியா": 2917,
      "மகா": 2918,
      "நிறுவன": 2919,
      "▁உழ": 2920,
      "லாளி": 2921,
      "ரியம்": 2922,
      "▁தகவல்": 2923,
      "பெரிய": 2924,
      "▁சிரம": 2925,
      "▁ஆதரி": 2926,
      "ேற": 2927,
      "மடி": 2928,
      "▁காத": 2929,
      "ாற": 2930,
      "▁ஐய": 2931,
      "ினோம்": 2932,
      "கலா": 2933,
      "▁உறவு": 2934,
      "▁லக்": 2935,
      "▁சால": 2936,
      "னைச்": 2937,
      "மடைய": 2938,
      "லைத்": 2939,
      "்ள": 2940,
      "▁பொருட்": 2941,
      "▁நிராகரி": 2942,
      "ாதவ": 2943,
      "ட்சுமி": 2944,
      "ானாம்": 2945,
      "▁பரிசு": 2946,
      "ிறதே": 2947,
      "தவி": 2948,
      "ேசிய": 2949,
      "வீடு": 2950,
      "▁வருட": 2951,
      "ையிலும்": 2952,
      "ரிக": 2953,
      "▁மான்": 2954,
      "▁தளர்": 2955,
      "▁நூல்": 2956,
      "▁குர்": 2957,
      "ஸூ": 2958,
      "▁வறு": 2959,
      "▁விஷய": 2960,
      "ியாச": 2961,
      "லொ": 2962,
      "ிட்": 2963,
      "நிர": 2964,
      "ம்மு": 2965,
      "சனு": 2966,
      "▁பயன": 2967,
      "▁அலு": 2968,
      "ேஷ்": 2969,
      "ையிட": 2970,
      "▁கற்பி": 2971,
      "▁தேர்வு": 2972,
      "தியளி": 2973,
      "வேல": 2974,
      "மாறி": 2975,
      "சீர்": 2976,
      "ிகளில்": 2977,
      "மைக்": 2978,
      "டூ": 2979,
      "யுடன்": 2980,
      "▁ஆர்வ": 2981,
      "தென்": 2982,
      "தாயிரு": 2983,
      "வனாய்": 2984,
      "மாவது": 2985,
      "நர்": 2986,
      "ாக்ஸ்": 2987,
      "பாதி": 2988,
      "▁பெருமை": 2989,
      "ட்சை": 2990,
      "டான": 2991,
      "மானதாக": 2992,
      "ஷு": 2993,
      "ியிட": 2994,
      "வருமான": 2995,
      "▁தீர்மானி": 2996,
      "மாகியிரு": 2997,
      "தேவி": 2998,
      "பேசி": 2999,
      "ாத்": 3000,
      "▁புடி": 3001,
      "ெடி": 3002,
      "தானி": 3003,
      "▁ச்": 3004,
      "மாநில": 3005,
      "▁சன்": 3006,
      "▁ஸ்டே": 3007,
      "ுலா": 3008,
      "ிறாய்": 3009,
      "இற": 3010,
      "ொள்வது": 3011,
      "▁வில்": 3012,
      "மாயி": 3013,
      "▁மும்": 3014,
      "▁கோர": 3015,
      "▁நவீன": 3016,
      "கிறாள்": 3017,
      "▁காவல்": 3018,
      "மஸ்": 3019,
      "▁கூறியதாவது": 3020,
      "▁துர்": 3021,
      "▁கோரி": 3022,
      "ிலாவது": 3023,
      "ுறா": 3024,
      "▁உட்கார்": 3025,
      "▁பிரிய": 3026,
      "முழு": 3027,
      "வுமி": 3028,
      "நாடக": 3029,
      "▁விக்": 3030,
      "ஃபீ": 3031,
      "▁சன": 3032,
      "நிகழ்": 3033,
      "ரூப": 3034,
      "▁வோ": 3035,
      "ஸம்": 3036,
      "ொன்": 3037,
      "▁இராணுவ": 3038,
      "ோயிரு": 3039,
      "▁வடிவமை": 3040,
      "▁சித": 3041,
      "தலும்": 3042,
      "▁ராஜா": 3043,
      "பரா": 3044,
      "▁மைக்": 3045,
      "▁அய்": 3046,
      "▁கூறு": 3047,
      "ருள்": 3048,
      "டத்": 3049,
      "ோரும்": 3050,
      "தேன்": 3051,
      "ெய்ய": 3052,
      "ாகா": 3053,
      "ஸன்": 3054,
      "▁வினை": 3055,
      "ுவதி": 3056,
      "ாததால்": 3057,
      "▁ஃபே": 3058,
      "உறு": 3059,
      "ஸ்பெ": 3060,
      "ிரிவு": 3061,
      "▁மித": 3062,
      "▁குடியே": 3063,
      "ிரே": 3064,
      "வராய்": 3065,
      "▁மேன்": 3066,
      "காண": 3067,
      "யால்": 3068,
      "▁ஆரா": 3069,
      "விளையா": 3070,
      "▁காரிய": 3071,
      "ினில்": 3072,
      "▁துடை": 3073,
      "▁இல்": 3074,
      "ரியன்": 3075,
      "▁ஆள்": 3076,
      "முர": 3077,
      "பாடி": 3078,
      "▁ஆயிர": 3079,
      "ருகே": 3080,
      "வேல்": 3081,
      "▁சீன": 3082,
      "ாடிய": 3083,
      "ூழ": 3084,
      "கிரு": 3085,
      "ணர்வு": 3086,
      "ுவதும்": 3087,
      "▁கண்காணி": 3088,
      "ஹூ": 3089,
      "மென்ப": 3090,
      "▁நிற்க": 3091,
      "பேர": 3092,
      "விதை": 3093,
      "▁சொற்": 3094,
      "▁நக": 3095,
      "ுலே": 3096,
      "ய்ய்": 3097,
      "▁வெறி": 3098,
      "டுவதி": 3099,
      "வரிடம்": 3100,
      "▁கான": 3101,
      "▁சேர": 3102,
      "சவ": 3103,
      "▁ஸ்டா": 3104,
      "ருள": 3105,
      "லையே": 3106,
      "ினைச்": 3107,
      "யுள்": 3108,
      "ாறு": 3109,
      "▁வொ": 3110,
      "ஸ்ய": 3111,
      "▁பொறி": 3112,
      "்னு": 3113,
      "புக்": 3114,
      "ிறன்": 3115,
      "▁எறி": 3116,
      "பிட": 3117,
      "சாய்": 3118,
      "விலை": 3119,
      "▁கோடி": 3120,
      "ேன": 3121,
      "தாத": 3122,
      "▁பப்மெட்": 3123,
      "▁தாக": 3124,
      "▁வயி": 3125,
      "ாட்": 3126,
      "சோதனை": 3127,
      "▁தனிமை": 3128,
      "சியம்": 3129,
      "ியாவின்": 3130,
      "▁ஹூ": 3131,
      "▁கோவி": 3132,
      "ினாலே": 3133,
      "ாயா": 3134,
      "மாக்": 3135,
      "▁சோழ": 3136,
      "▁ஏர்": 3137,
      "▁ஜெயி": 3138,
      "▁நற்": 3139,
      "▁இடைய": 3140,
      "ெதிராக": 3141,
      "ரப்": 3142,
      "▁பாச": 3143,
      "வற": 3144,
      "புல்": 3145,
      "▁கோல": 3146,
      "▁வரா": 3147,
      "றவு": 3148,
      "மென்ட்": 3149,
      "பாதுகா": 3150,
      "▁ளி": 3151,
      "▁நாண": 3152,
      "▁வயது": 3153,
      "தமான": 3154,
      "பாரா": 3155,
      "மாலை": 3156,
      "ுமான": 3157,
      "களது": 3158,
      "▁பகை": 3159,
      "▁உட்ப": 3160,
      "ரியோ": 3161,
      "▁\\\\\\\\": 3162,
      "்நா": 3163,
      "▁நிரூபி": 3164,
      "டுள்": 3165,
      "படியால்": 3166,
      "வரிட": 3167,
      "மாணி": 3168,
      "ழுக": 3169,
      "களாகப்": 3170,
      "ஸுடன்": 3171,
      "ியான்": 3172,
      "்டோம்": 3173,
      "▁ஹார்": 3174,
      "▁சோர்": 3175,
      "ியாவு": 3176,
      "ிகளின்": 3177,
      "▁சகோ": 3178,
      "சாதி": 3179,
      "ிரிகை": 3180,
      "ிரக": 3181,
      "பாளையம்": 3182,
      "படுகி": 3183,
      "▁மெக்": 3184,
      "▁னை": 3185,
      "தலில்": 3186,
      "▁று": 3187,
      "தாகப்": 3188,
      "்திரு": 3189,
      "ொள்கி": 3190,
      "ளுள்": 3191,
      "ுடையது": 3192,
      "ப்ரா": 3193,
      "ராஜன்": 3194,
      "ைப": 3195,
      "ின்படி": 3196,
      "பொருள்": 3197,
      "லூரி": 3198,
      "தமாக": 3199,
      "▁எரு": 3200,
      "தத்": 3201,
      "பப": 3202,
      "▁இழை": 3203,
      "▁கய": 3204,
      "ோலவே": 3205,
      "எக்ஸ்": 3206,
      "▁வடிவ": 3207,
      "லியிரு": 3208,
      "ிழை": 3209,
      "ிகளும்": 3210,
      "யுமா": 3211,
      "ராள": 3212,
      "▁ஶ்ரீ": 3213,
      "▁இசைய": 3214,
      "▁தூய்": 3215,
      "▁தலைமை": 3216,
      "ஸ்க்": 3217,
      "தையடு": 3218,
      "சான்": 3219,
      "ிலேய": 3220,
      "ுடனேயே": 3221,
      "▁விந": 3222,
      "ரையா": 3223,
      "ோரின்": 3224,
      "ம்னு": 3225,
      "▁ஆத": 3226,
      "ோள்": 3227,
      "சியின்": 3228,
      "____": 3229,
      "இரா": 3230,
      "▁பாலி": 3231,
      "ீகரி": 3232,
      "▁அய": 3233,
      "▁பொற": 3234,
      "ாபார": 3235,
      "ளிடையே": 3236,
      "ுவதற்": 3237,
      "ஸர்": 3238,
      "▁ஞா": 3239,
      "மைப்": 3240,
      "ிரமி": 3241,
      "▁எலி": 3242,
      "வுன்": 3243,
      "ணியா": 3244,
      "பட்ச": 3245,
      "▁ரக": 3246,
      "்களை": 3247,
      "▁உயர": 3248,
      "மால": 3249,
      "தக்": 3250,
      "▁வீண": 3251,
      "திற்": 3252,
      "▁நாட": 3253,
      "▁ஷெ": 3254,
      "மழை": 3255,
      "வருட": 3256,
      "▁தயா": 3257,
      "வேளை": 3258,
      "▁இலை": 3259,
      "களுடனும்": 3260,
      "ெனில்": 3261,
      "உட": 3262,
      "▁பாடி": 3263,
      "தற்குக்": 3264,
      "▁சரண": 3265,
      "ண்ய": 3266,
      "ுவதற்க": 3267,
      "ியாவில்": 3268,
      "ஷை": 3269,
      "▁துரோ": 3270,
      "ுழை": 3271,
      "ோற": 3272,
      "முரு": 3273,
      "ொலை": 3274,
      "▁தேய்": 3275,
      "ுகே": 3276,
      "▁ஜு": 3277,
      "▁பிரு": 3278,
      "▁ஈர்": 3279,
      "▁குறிய": 3280,
      "பயன்": 3281,
      "கண்ண": 3282,
      "ணும்னு": 3283,
      "ுகூட": 3284,
      "்கார": 3285,
      "தென்ப": 3286,
      "▁நெய்": 3287,
      "ஸே": 3288,
      "▁உபயோக": 3289,
      "ட்ச்": 3290,
      "▁ஷே": 3291,
      "▁முளை": 3292,
      "▁தியாக": 3293,
      "வுல": 3294,
      "காரம்": 3295,
      "மிற": 3296,
      "ணே": 3297,
      "ண்பு": 3298,
      "சாலி": 3299,
      "தென்பது": 3300,
      "▁எய்": 3301,
      "கமா": 3302,
      "▁பெய்": 3303,
      "▁சின": 3304,
      "▁கிறிஸ்": 3305,
      "சேகர": 3306,
      "▁கையா": 3307,
      "▁உற்சாக": 3308,
      "விஷ": 3309,
      "▁நிழ": 3310,
      "சியில்": 3311,
      "▁ஹொ": 3312,
      "உண": 3313,
      "▁திணி": 3314,
      "▁முறி": 3315,
      "ர்ம": 3316,
      "ையாகி": 3317,
      "புரா": 3318,
      "▁நேசி": 3319,
      "ுகிறீ": 3320,
      "ருமான": 3321,
      "▁பாடல்": 3322,
      "▁ெ": 3323,
      "ாகியிரு": 3324,
      "பாரி": 3325,
      "்டப": 3326,
      "கியிரு": 3327,
      "டிப்": 3328,
      "▁பாவி": 3329,
      "▁சலி": 3330,
      "ஸ்திரே": 3331,
      "ியதும்": 3332,
      "▁ஊழிய": 3333,
      "லலிதா": 3334,
      "ோதே": 3335,
      "▁பிரத": 3336,
      "ேறி": 3337,
      "ராகி": 3338,
      "▁சேத": 3339,
      "▁பிண": 3340,
      "ோரி": 3341,
      "ம்மாள்": 3342,
      "▁டய": 3343,
      "லிட": 3344,
      "▁தரை": 3345,
      "குளம்": 3346,
      "▁லொ": 3347,
      "மாய": 3348,
      "மிடையே": 3349,
      "வேர்": 3350,
      "▁மேய்": 3351,
      "ிரீ": 3352,
      "பில": 3353,
      "▁சின்": 3354,
      "தியே": 3355,
      "▁செம்": 3356,
      "துமான": 3357,
      "ுவருகி": 3358,
      "நாத்": 3359,
      "க்ட்": 3360,
      "ாலின்": 3361,
      "▁குரோ": 3362,
      "ரசி": 3363,
      "▁பருவ": 3364,
      "▁ஏக": 3365,
      "களிடையே": 3366,
      "லாளர்": 3367,
      "▁மேற்ப": 3368,
      "குண": 3369,
      "ிராம": 3370,
      "வலு": 3371,
      "றல்": 3372,
      "▁தணி": 3373,
      "டியு": 3374,
      "▁—": 3375,
      "்நாடு": 3376,
      "▁ஆரிய": 3377,
      "▁கோல்": 3378,
      "▁பதில்": 3379,
      "முனி": 3380,
      "மாள்": 3381,
      "்ஜ": 3382,
      "▁அம": 3383,
      "லாமெ": 3384,
      "முறு": 3385,
      "னான்": 3386,
      "லடி": 3387,
      "சபை": 3388,
      "ுசெ": 3389,
      "▁கருத": 3390,
      "ுவேன்": 3391,
      "▁நிர்ண": 3392,
      "▁வசூ": 3393,
      "ழம்": 3394,
      "துமி": 3395,
      "ிகர்": 3396,
      "▁சமாளி": 3397,
      "களையெ": 3398,
      "ாவே": 3399,
      "ொளி": 3400,
      "▁ஊடு": 3401,
      "ியோட": 3402,
      "வ்வ்": 3403,
      "▁உணர": 3404,
      "▁நாடா": 3405,
      "சாம": 3406,
      "||": 3407,
      "ஷோ": 3408,
      "ää": 3409,
      "▁கேட்": 3410,
      "திட": 3411,
      "யத்": 3412,
      "தலின்": 3413,
      "▁பிணை": 3414,
      "ுவதில்": 3415,
      "பாட்": 3416,
      "▁மக்": 3417,
      "்கே": 3418,
      "▁கொள்கை": 3419,
      "ாமே": 3420,
      "ுகிறோம்": 3421,
      "களாம்": 3422,
      "▁ஹு": 3423,
      "▁பிக்": 3424,
      "ோச": 3425,
      "▁திருவ": 3426,
      "ாஸ்": 3427,
      "▁எலு": 3428,
      "▁ரவி": 3429,
      "ளேன்": 3430,
      "நாட": 3431,
      "துற": 3432,
      "தியி": 3433,
      "ியப்": 3434,
      "ம்கூட": 3435,
      "விவசா": 3436,
      "ாணி": 3437,
      "▁நார்": 3438,
      "▁பரீ": 3439,
      "களையோ": 3440,
      "களின": 3441,
      "ஷனு": 3442,
      "▁நாத": 3443,
      "▁ராஜ்": 3444,
      "▁விவ": 3445,
      "லைன்": 3446,
      "▁காண்பி": 3447,
      "ியமாக": 3448,
      "▁ஸ்பெ": 3449,
      "டிங்": 3450,
      "ிரியா": 3451,
      "காசி": 3452,
      "▁சர்வ": 3453,
      "ற்கால": 3454,
      "ொகு": 3455,
      "கம": 3456,
      "ப்ட்": 3457,
      "▁உன": 3458,
      "▁பாக்": 3459,
      "ளுடனும்": 3460,
      "களாயிரு": 3461,
      "ையளி": 3462,
      "பரு": 3463,
      "ிமே": 3464,
      "▁மார": 3465,
      "▁சேகரி": 3466,
      "ரையில்": 3467,
      "▁பழு": 3468,
      "▁உதய": 3469,
      "ஸாக": 3470,
      "ர்வ": 3471,
      "ோவதி": 3472,
      "▁தழு": 3473,
      "ுரிமை": 3474,
      "ளாகவே": 3475,
      "்ல்": 3476,
      "டுகிறார்": 3477,
      "▁புழு": 3478,
      "ாளையம்": 3479,
      "ஜித்": 3480,
      "▁தம்": 3481,
      "ுறம்": 3482,
      "ற்பா": 3483,
      "ானால்": 3484,
      "துவ": 3485,
      "▁ஸ்டெ": 3486,
      "▁ட்ர": 3487,
      "ஃபை": 3488,
      "▁கூடு": 3489,
      "ுபடு": 3490,
      "▁•": 3491,
      "புதிய": 3492,
      "ுகிறான்": 3493,
      "நெரு": 3494,
      "ளாகிய": 3495,
      "வலா": 3496,
      "ளிரு": 3497,
      "்யூ": 3498,
      "லகம்": 3499,
      "▁விண்": 3500,
      "ணமாக": 3501,
      "▁உணர்வு": 3502,
      "▁பஸ்": 3503,
      "டியின்": 3504,
      "றான": 3505,
      "▁தோழ": 3506,
      "▁சாய": 3507,
      "ஸ்டே": 3508,
      "மீக": 3509,
      "ீய": 3510,
      "▁கைது": 3511,
      "ிழு": 3512,
      "ியிலும்": 3513,
      "தானது": 3514,
      "▁ஜெய்": 3515,
      "தடு": 3516,
      "ாளோ": 3517,
      "▁தீய": 3518,
      "▁தொல்": 3519,
      "ள்வி": 3520,
      "ெயல்": 3521,
      "▁பசி": 3522,
      "ியெடு": 3523,
      "ியனு": 3524,
      "லூர்": 3525,
      "லான்": 3526,
      "▁பான": 3527,
      "டது": 3528,
      "▁சூட": 3529,
      "ற்சி": 3530,
      "▁////": 3531,
      "▁டாக": 3532,
      "னூர்": 3533,
      "பாக்": 3534,
      "பஸ்": 3535,
      "ூடியதாக": 3536,
      "றோ": 3537,
      "த்ரு": 3538,
      "ிராத": 3539,
      "▁டெக்": 3540,
      "களிலேயே": 3541,
      "▁புல்": 3542,
      "ரிலிரு": 3543,
      "சமு": 3544,
      "▁புள": 3545,
      "ரமான": 3546,
      "▁துன்பு": 3547,
      "ிலுமே": 3548,
      "ியதி": 3549,
      "ிலில்": 3550,
      "▁விஷ்": 3551,
      "ாறை": 3552,
      "மாவு": 3553,
      "▁கொதி": 3554,
      "யிற்": 3555,
      "ஞ்ஞ": 3556,
      "உயர்": 3557,
      "யிற்சி": 3558,
      "▁கொட": 3559,
      "கோடி": 3560,
      "வெறி": 3561,
      "ியோடு": 3562,
      "▁வெட்க": 3563,
      "்பி": 3564,
      "யாளி": 3565,
      "▁இளைய": 3566,
      "▁ஆஸ்": 3567,
      "▁ராம்": 3568,
      "▁லட்ச": 3569,
      "ூர்வ": 3570,
      "▁ஸி": 3571,
      "▁ஆத்": 3572,
      "▁இச": 3573,
      "ையர்": 3574,
      "ஆனால்": 3575,
      "வுட்": 3576,
      "ுதி": 3577,
      "ெதிரான": 3578,
      "ற்காக": 3579,
      "▁னு": 3580,
      "லிஸ்": 3581,
      "ைகளில்": 3582,
      "ொது": 3583,
      "னையை": 3584,
      "ர்ர்ர்ர்": 3585,
      "▁நிஜ": 3586,
      "▁காட்சிய": 3587,
      "ளையோ": 3588,
      "களாகத்": 3589,
      "தற்குப்": 3590,
      "▁வேர்": 3591,
      "ூரி": 3592,
      "▁மிதி": 3593,
      "▁தார": 3594,
      "ம்சா": 3595,
      "மதிய": 3596,
      "▁கனவு": 3597,
      "ிழமை": 3598,
      "மத்": 3599,
      "▁வகி": 3600,
      "பவன்": 3601,
      "▁மைக்ரோ": 3602,
      "யது": 3603,
      "▁விஸ்": 3604,
      "▁பயிற்சி": 3605,
      "▁மொழ": 3606,
      "்டாள்": 3607,
      "ியால": 3608,
      "தட": 3609,
      "ையடு": 3610,
      "▁சோக": 3611,
      "ுமாறு": 3612,
      "▁நய": 3613,
      "காஷ்": 3614,
      "ினரை": 3615,
      "▁செயல": 3616,
      "லாம்னு": 3617,
      "மையினால்": 3618,
      "ினால": 3619,
      "்க்": 3620,
      "▁சுப": 3621,
      "▁பிரெ": 3622,
      "▁இளைஞ": 3623,
      "கரா": 3624,
      "மானம்": 3625,
      "ேஸ்": 3626,
      "ளோட": 3627,
      "ோவதாக": 3628,
      "ணியில்": 3629,
      "ரியாக": 3630,
      "யைப்": 3631,
      "▁பிரம்ம": 3632,
      "▁ஃபிர": 3633,
      "ணன்": 3634,
      "▁வின்": 3635,
      "ிபெ": 3636,
      "ுகிட": 3637,
      "▁சைவ": 3638,
      "வோட": 3639,
      "ெல": 3640,
      "னரா": 3641,
      "ைசி": 3642,
      "மாரு": 3643,
      "▁ஹீரோ": 3644,
      "கிருஷ்ண": 3645,
      "ிரதேச": 3646,
      "நாய்": 3647,
      "ிந": 3648,
      "மெய்": 3649,
      "▁தெய்": 3650,
      "ொகை": 3651,
      "ரட": 3652,
      "ிளை": 3653,
      "▁விவர": 3654,
      "எஃப்": 3655,
      "ளாக்": 3656,
      "ளப்": 3657,
      "ழ்கி": 3658,
      "வணை": 3659,
      "ியில": 3660,
      "சஸ்": 3661,
      "இணை": 3662,
      "ெனக்": 3663,
      "சுவர": 3664,
      "னாம்": 3665,
      "▁துள": 3666,
      "ஹம்": 3667,
      "▁நறு": 3668,
      "▁வினா": 3669,
      "▁ஆற": 3670,
      "ூப": 3671,
      "▁டென்": 3672,
      "ுதானே": 3673,
      "ாமி": 3674,
      "வரிசை": 3675,
      "லையா": 3676,
      "ேசி": 3677,
      "▁குடியிரு": 3678,
      "டுமா": 3679,
      "்ரி": 3680,
      "ாசு": 3681,
      "யிட்": 3682,
      "ுணர்வு": 3683,
      "ூடாத": 3684,
      "வேத": 3685,
      "▁சமைய": 3686,
      "ிறதெ": 3687,
      "▁மேக": 3688,
      "ணியை": 3689,
      "▁சந்": 3690,
      "ுண்": 3691,
      "குது": 3692,
      "யாகி": 3693,
      "▁நுண்": 3694,
      "▁தம": 3695,
      "காலம்": 3696,
      "▁பில்": 3697,
      "காட்": 3698,
      "ுய": 3699,
      "தோர்": 3700,
      "்ரோ": 3701,
      "ினின்": 3702,
      "ண்முக": 3703,
      "ாபி": 3704,
      "▁யாரு": 3705,
      "▁பிய": 3706,
      "▁புஷ்": 3707,
      "▁முனி": 3708,
      "▁உறி": 3709,
      "▁கமி": 3710,
      "▁பச": 3711,
      "▁கொல": 3712,
      "▁பாசி": 3713,
      "▁நம்ம": 3714,
      "ளுமே": 3715,
      "தெரிவி": 3716,
      "▁புரட்சி": 3717,
      "விப": 3718,
      "ேயின்": 3719,
      "ங்ட": 3720,
      "▁பிடு": 3721,
      "தேசம்": 3722,
      "▁மகே": 3723,
      "▁கவ": 3724,
      "முமி": 3725,
      "ியபடி": 3726,
      "்கை": 3727,
      "ுவெ": 3728,
      "▁ஜாதி": 3729,
      "ானிய": 3730,
      "▁உயிரிழ": 3731,
      "▁பதவி": 3732,
      "னாவு": 3733,
      "▁கூடி": 3734,
      "▁பிரதேச": 3735,
      "▁பிரிவு": 3736,
      "ூரை": 3737,
      "வதோடு": 3738,
      "வகையில்": 3739,
      "ஜின்": 3740,
      "வித்": 3741,
      "வென்": 3742,
      "ுனா": 3743,
      "▁வௌ": 3744,
      "ோகிறது": 3745,
      "டிர": 3746,
      "▁நாய்": 3747,
      "துள்": 3748,
      "ளையெ": 3749,
      "ாடா": 3750,
      "்டதால்": 3751,
      "்ப்": 3752,
      "▁செர்": 3753,
      "ஸைப்": 3754,
      "▁கவல": 3755,
      "வேயி": 3756,
      "ரமா": 3757,
      "▁ஜனா": 3758,
      "▁துயர": 3759,
      "டென்": 3760,
      "▁பயிற்": 3761,
      "பாச": 3762,
      "▁தோற்": 3763,
      "க்ரா": 3764,
      "தலால்": 3765,
      "றாரு": 3766,
      "வீர்": 3767,
      "ாதவன்": 3768,
      "லைச்": 3769,
      "நேர்": 3770,
      "னவு": 3771,
      "ள்ல": 3772,
      "ராகிய": 3773,
      "்தாள": 3774,
      "றதி": 3775,
      "ளாகக்": 3776,
      "▁சான்": 3777,
      "ருகில்": 3778,
      "▁அம்ம": 3779,
      "▁ஜாத": 3780,
      "வகி": 3781,
      "▁ஷோ": 3782,
      "மாரி": 3783,
      "டையா": 3784,
      "விஸ்": 3785,
      "▁கொடுமை": 3786,
      "▁சமாதான": 3787,
      "மினி": 3788,
      "▁ட்ரா": 3789,
      "▁கோயில்": 3790,
      "▁கேலி": 3791,
      "வளு": 3792,
      "கமாக": 3793,
      "ையாளர்": 3794,
      "▁சாக்": 3795,
      "▁மவு": 3796,
      "்டிட": 3797,
      "மையானது": 3798,
      "ையிலே": 3799,
      "லிலும்": 3800,
      "ஹர்": 3801,
      "அல்": 3802,
      "▁உபயோகி": 3803,
      "▁முற்": 3804,
      "ுவதா": 3805,
      "▁உத்": 3806,
      "▁தொடர்ப": 3807,
      "வேலி": 3808,
      "▁முன": 3809,
      "▁மாய்": 3810,
      "ியதால்": 3811,
      "களுமே": 3812,
      "▁தலி": 3813,
      "மையி": 3814,
      "மித்": 3815,
      "ிருப்": 3816,
      "▁அசு": 3817,
      "வீடியோ": 3818,
      "முற": 3819,
      "ஃபு": 3820,
      "ிரமா": 3821,
      "▁புகழ": 3822,
      "▁அயோ": 3823,
      "ிறதோ": 3824,
      "▁ஸ்ட்": 3825,
      "ெஸ்": 3826,
      "ுடனோ": 3827,
      "கோர்": 3828,
      "வண்ணம்": 3829,
      "ுமோ": 3830,
      "தொலை": 3831,
      "▁இலா": 3832,
      "▁புளி": 3833,
      "▁விருது": 3834,
      "////": 3835,
      "பேரு": 3836,
      "▁டார்": 3837,
      "ோவது": 3838,
      "▁மொழிபெயர்": 3839,
      "தாவு": 3840,
      "▁பரம": 3841,
      "▁செயற்படு": 3842,
      "டவிரு": 3843,
      "்னை": 3844,
      "உணர்": 3845,
      "▁ஞாபக": 3846,
      "▁வற": 3847,
      "ஜிய": 3848,
      "யரு": 3849,
      "▁காணி": 3850,
      "▁ஜென": 3851,
      "▁மொழிய": 3852,
      "திகள": 3853,
      "க்ச": 3854,
      "திமுக": 3855,
      "ூசி": 3856,
      "▁உலா": 3857,
      "▁பிளே": 3858,
      "்லு": 3859,
      "▁விவரி": 3860,
      "▁ப்ரீ": 3861,
      "▁செயற்ப": 3862,
      "ரணி": 3863,
      "▁உட்படு": 3864,
      "பிள": 3865,
      "வதைப்": 3866,
      "பிஎஸ்": 3867,
      "தலி": 3868,
      "ட்பு": 3869,
      "டுவோ": 3870,
      "▁மிள": 3871,
      "னோடு": 3872,
      "▁சோதனை": 3873,
      "ுஷ": 3874,
      "ிருக்": 3875,
      "யறு": 3876,
      "▁னி": 3877,
      "▁டிஸ்": 3878,
      "▁நெகிழ்": 3879,
      "ளிலே": 3880,
      "ணுமா": 3881,
      "ையோடு": 3882,
      "ொழிய": 3883,
      "▁சகி": 3884,
      "ோலி": 3885,
      "மகிழ்": 3886,
      "கிட": 3887,
      "றிஞ": 3888,
      "▁ஆணைய": 3889,
      "▁உரிய": 3890,
      "▁அய்ய": 3891,
      "ானின்": 3892,
      "ுவில்": 3893,
      "டட": 3894,
      "▁அமைதி": 3895,
      "ற்கான": 3896,
      "▁ஆயு": 3897,
      "ுபு": 3898,
      "பாஜக": 3899,
      "்சா": 3900,
      "▁கருணா": 3901,
      "ரேட்": 3902,
      "ரமாக": 3903,
      "ளிக்": 3904,
      "னஸ்": 3905,
      "ேடி": 3906,
      "மைகளை": 3907,
      "ஆன": 3908,
      "சனின்": 3909,
      "ஃபே": 3910,
      "▁சமுதாய": 3911,
      "▁கிளர்": 3912,
      "யைக்": 3913,
      "லிங்": 3914,
      "வுக": 3915,
      "ொள": 3916,
      "பாலி": 3917,
      "▁மாசு": 3918,
      "வுரை": 3919,
      "▁வழு": 3920,
      "ாளு": 3921,
      "▁ஃபா": 3922,
      "்ஷ": 3923,
      "ளாகப்": 3924,
      "ஸ்ஸ்": 3925,
      "களாகிய": 3926,
      "ிமு": 3927,
      "▁நான": 3928,
      "ியதா": 3929,
      "▁யானை": 3930,
      "ெய்த": 3931,
      "ுதலை": 3932,
      "திப்": 3933,
      "▁தாமத": 3934,
      "நாதர்": 3935,
      "வனம்": 3936,
      "▁சல்": 3937,
      "▁விளி": 3938,
      "ேரு": 3939,
      "ியத": 3940,
      "வளா": 3941,
      "▁சூர்": 3942,
      "மேற்": 3943,
      "▁ஆலய": 3944,
      "ன்களை": 3945,
      "▁நிதிய": 3946,
      "ரிங்": 3947,
      "கில்": 3948,
      "பாலா": 3949,
      "ிவ்": 3950,
      "▁கோண": 3951,
      "டொ": 3952,
      "ருப்": 3953,
      "▁மேலா": 3954,
      "சால்": 3955,
      "ஸ்டெ": 3956,
      "▁கோட்": 3957,
      "▁நின": 3958,
      "யாய்": 3959,
      "ஈஈ": 3960,
      "▁பிலி": 3961,
      "வரெ": 3962,
      "யக்": 3963,
      "்காக": 3964,
      "▁நியா": 3965,
      "ோவு": 3966,
      "▁நாச": 3967,
      "யமாக": 3968,
      "ினரின்": 3969,
      "▁படம்": 3970,
      "்வே": 3971,
      "டெக்": 3972,
      "வகைய": 3973,
      "ிதழ்": 3974,
      "சிம்": 3975,
      "ோட்": 3976,
      "▁ஹர்": 3977,
      "சேஷ": 3978,
      "▁கையெழு": 3979,
      "ூா்": 3980,
      "▁கருது": 3981,
      "▁நனை": 3982,
      "▁சாம்": 3983,
      "▁மீன": 3984,
      "▁முஸ்": 3985,
      "கிப்": 3986,
      "▁ஒன்": 3987,
      "தற்கே": 3988,
      "▁ப்ரெ": 3989,
      "ியன": 3990,
      "▁ராணுவ": 3991,
      "ஸ்வரன்": 3992,
      "ராகப்": 3993,
      "ீன": 3994,
      "ோவின்": 3995,
      "ற்கா": 3996,
      "ொழில்": 3997,
      "ாயின்": 3998,
      "▁சுடு": 3999,
      "▁சேமி": 4000,
      "்கெ": 4001,
      "ருட": 4002,
      "ப்ள": 4003,
      "மையுடைய": 4004,
      "வுக்": 4005,
      "ஸ்ட்ரோ": 4006,
      "▁மீற": 4007,
      "ைகளின்": 4008,
      "▁கற": 4009,
      "▁பதிய": 4010,
      "வரோ": 4011,
      "▁தனிய": 4012,
      "▁கிரே": 4013,
      "ட்கு": 4014,
      "கொரோனா": 4015,
      "▁ஏழை": 4016,
      "ாரில்": 4017,
      "அம்மா": 4018,
      "▁க்ரு": 4019,
      "▁ரண": 4020,
      "▁டிரை": 4021,
      "▁பாது": 4022,
      "▁பகிர": 4023,
      "▁ஸ்டோ": 4024,
      "ுதலு": 4025,
      "ரிப்": 4026,
      "்ன்": 4027,
      "னாகிய": 4028,
      "பாள": 4029,
      "▁கூடிய": 4030,
      "ரம": 4031,
      "▁பூச": 4032,
      "▁ரவு": 4033,
      "டுவதால்": 4034,
      "ியளி": 4035,
      "▁ஜெர்": 4036,
      "வேச": 4037,
      "யாவது": 4038,
      "▁பேய்": 4039,
      "ுமிரு": 4040,
      "▁கொல்": 4041,
      "டுவதும்": 4042,
      "▁செயலா": 4043,
      "மியின்": 4044,
      "ாரும்": 4045,
      "▁நொறு": 4046,
      "▁பழைய": 4047,
      "ியொ": 4048,
      "தானாம்": 4049,
      "லாகி": 4050,
      "ாகியு": 4051,
      "நத": 4052,
      "▁செக்": 4053,
      "▁டெலி": 4054,
      "ளாதார": 4055,
      "நியூ": 4056,
      "ிரிக": 4057,
      "▁முன்ப": 4058,
      "டுக": 4059,
      "டின": 4060,
      "ஸ்ல": 4061,
      "ிபு": 4062,
      "னையே": 4063,
      "ராயிரு": 4064,
      "▁மதுரை": 4065,
      "▁கொளு": 4066,
      "▁பிரார்": 4067,
      "ுமாக": 4068,
      "மியை": 4069,
      "▁அலி": 4070,
      "ோனா": 4071,
      "பொறு": 4072,
      "ோழ": 4073,
      "பாடல்": 4074,
      "கச்": 4075,
      "▁குமார": 4076,
      "ியரு": 4077,
      "▁பிரான்": 4078,
      "▁ஜொ": 4079,
      "ிம": 4080,
      "▁தொழில்நுட்ப": 4081,
      "நாம": 4082,
      "வனி": 4083,
      "டுக்": 4084,
      "ோயில்": 4085,
      "சத": 4086,
      "ிலாள": 4087,
      "்குமார்": 4088,
      "ேல்": 4089,
      "குள்": 4090,
      "▁உதை": 4091,
      "▁முரண்": 4092,
      "பீட": 4093,
      "ேனோ": 4094,
      "▁சொற்ப": 4095,
      "▁துரை": 4096,
      "▁கோபி": 4097,
      "ளிலேயே": 4098,
      "▁கிறு": 4099,
      "மிடையில்": 4100,
      "▁நசு": 4101,
      "▁பொழுது": 4102,
      "னையா": 4103,
      "தாகவோ": 4104,
      "கோயில்": 4105,
      "சினிமா": 4106,
      "கமான": 4107,
      "▁சிதற": 4108,
      "நம்": 4109,
      "ுகால": 4110,
      "ியாகவே": 4111,
      "▁சாலை": 4112,
      "▁சாமி": 4113,
      "▁இப்": 4114,
      "▁பான்": 4115,
      "மாகவோ": 4116,
      "கொண்": 4117,
      "சரா": 4118,
      "ஸால்": 4119,
      "கரை": 4120,
      "ுவதற்கான": 4121,
      "களிலே": 4122,
      "றிவி": 4123,
      "▁கெட": 4124,
      "ுகூ": 4125,
      "சூர்": 4126,
      "▁வேல": 4127,
      "ரசிய": 4128,
      "முது": 4129,
      "ைகளும்": 4130,
      "திகளின்": 4131,
      "ளவில்": 4132,
      "▁மேக்": 4133,
      "▁துன்புறு": 4134,
      "தனு": 4135,
      "ுவதே": 4136,
      "ட்ஜ்": 4137,
      "ரடி": 4138,
      "▁திண": 4139,
      "பென்": 4140,
      "வேலு": 4141,
      "▁கொண்": 4142,
      "செல": 4143,
      "▁நென": 4144,
      "ையின": 4145,
      "வீத": 4146,
      "துறைய": 4147,
      "▁குளோ": 4148,
      "சனா": 4149,
      "ீட": 4150,
      "கோவில்": 4151,
      "க்ஷீ": 4152,
      "▁எரிய": 4153,
      "ளா்": 4154,
      "▁நால": 4155,
      "தியாகி": 4156,
      "தீன": 4157,
      "ாழ": 4158,
      "▁காணா": 4159,
      "ிசு": 4160,
      "▁காட்": 4161,
      "▁புட": 4162,
      "▁ப்ரி": 4163,
      "வ்ய": 4164,
      "குற": 4165,
      "▁வேளா": 4166,
      "ளில": 4167,
      "பாபு": 4168,
      "ெனத்": 4169,
      "வெடி": 4170,
      "▁மழ": 4171,
      "ைபெற": 4172,
      "▁முழி": 4173,
      "யாவு": 4174,
      "ுனு": 4175,
      "ன்மையை": 4176,
      "▁செள": 4177,
      "ாரியா": 4178,
      "ளிலு": 4179,
      "▁ஜென்": 4180,
      "்ச்": 4181,
      "▁பணிய": 4182,
      "பிரே": 4183,
      "றன": 4184,
      "த்வ": 4185,
      "▁மாலை": 4186,
      "▁கோழி": 4187,
      "ையடை": 4188,
      "▁சிக்": 4189,
      "ரியல்": 4190,
      "ியோகி": 4191,
      "ிற்கோ": 4192,
      "ுநிலை": 4193,
      "▁ஸா": 4194,
      "▁தொடர": 4195,
      "▁தனு": 4196,
      "ருதி": 4197,
      "தெய்வ": 4198,
      "ஷியா": 4199,
      "எண்ண": 4200,
      "▁வெள": 4201,
      "▁ஸ்டீ": 4202,
      "நாராயண": 4203,
      "▁தேர்தல்": 4204,
      "▁பிரச்": 4205,
      "▁பாரு": 4206,
      "▁கலக": 4207,
      "க்ஞ": 4208,
      "சேன": 4209,
      "▁வெர்": 4210,
      "றதை": 4211,
      "▁குரல்": 4212,
      "வெல்": 4213,
      "ுகளைப்": 4214,
      "ாசி": 4215,
      "ுணி": 4216,
      "ிகொடு": 4217,
      "துல்": 4218,
      "ாரனு": 4219,
      "ஷின்": 4220,
      "நிலையை": 4221,
      "ோயி": 4222,
      "கூடாது": 4223,
      "யீடு": 4224,
      "▁மேற்கு": 4225,
      "▁மிருக": 4226,
      "ராவு": 4227,
      "வதைக்": 4228,
      "எழு": 4229,
      "பொருட்": 4230,
      "▁முருக": 4231,
      "ெய்தி": 4232,
      "படாத": 4233,
      "லோடு": 4234,
      "▁சதி": 4235,
      "ுகளுடன்": 4236,
      "▁குலை": 4237,
      "▁விசாரணை": 4238,
      "தையா": 4239,
      "ரிடமும்": 4240,
      "காடு": 4241,
      "ப்ல": 4242,
      "▁எர்": 4243,
      "மையின": 4244,
      "ரிசு": 4245,
      "▁சப": 4246,
      "ஃபர்": 4247,
      "▁ஜய": 4248,
      "▁பொருளாதார": 4249,
      "▁காலி": 4250,
      "நை": 4251,
      "▁பிரதிநிதி": 4252,
      "▁ஃபு": 4253,
      "▁விச": 4254,
      "▁முறு": 4255,
      "ுநோ": 4256,
      "லாய": 4257,
      "பிரத": 4258,
      "▁மூர்": 4259,
      "ொள்கிற": 4260,
      "▁ஊரு": 4261,
      "▁ஃபை": 4262,
      "ன்களு": 4263,
      "ாங்": 4264,
      "லைஞ": 4265,
      "▁நிமி": 4266,
      "வனான": 4267,
      "ம்மி": 4268,
      "லமா": 4269,
      "ீவு": 4270,
      "▁வ்": 4271,
      "ட்லி": 4272,
      "தியடை": 4273,
      "▁புண்": 4274,
      "ழகு": 4275,
      "▁உதார": 4276,
      "ீரு": 4277,
      "ொல": 4278,
      "ஜியா": 4279,
      "தியோ": 4280,
      "தூர்": 4281,
      "▁ஆளா": 4282,
      "பிளா": 4283,
      "▁தியான": 4284,
      "ரையே": 4285,
      "மையைக்": 4286,
      "▁ப்ள": 4287,
      "ஆயிர": 4288,
      "வதுடன்": 4289,
      "▁எம": 4290,
      "ோகிரா": 4291,
      "ஆஆஆஆ": 4292,
      "படா": 4293,
      "வழை": 4294,
      "ுழு": 4295,
      "▁சால்": 4296,
      "ராகவே": 4297,
      "▁விஞ்ஞான": 4298,
      "ொள்ப": 4299,
      "பும்": 4300,
      "ஜரா": 4301,
      "▁இக": 4302,
      "▁முஸ்லிம்": 4303,
      "இள": 4304,
      "சவு": 4305,
      "▁கம்யூனி": 4306,
      "ரார்": 4307,
      "▁ஏழ": 4308,
      "வினர்": 4309,
      "▁சீரழி": 4310,
      "▁காலை": 4311,
      "▁குழி": 4312,
      "ஷ்மி": 4313,
      "காது": 4314,
      "துமே": 4315,
      "்தியா": 4316,
      "ிறி": 4317,
      "ப்த": 4318,
      "ஏஏ": 4319,
      "மாய்ப்": 4320,
      "வருகி": 4321,
      "ப்ரோ": 4322,
      "களாகவோ": 4323,
      "களிடமும்": 4324,
      "ெழ": 4325,
      "▁தவறி": 4326,
      "ப்ரி": 4327,
      "▁ஒவ்வொரு": 4328,
      "ொறி": 4329,
      "▁தாய": 4330,
      "யாவின்": 4331,
      "ிளி": 4332,
      "இறை": 4333,
      "▁பண்பா": 4334,
      "▁அலுவலக": 4335,
      "களில": 4336,
      "▁வேட": 4337,
      "களிலு": 4338,
      "▁காக": 4339,
      "ுர்": 4340,
      "ிதன": 4341,
      "▁கூலி": 4342,
      "எச்": 4343,
      "ேயோ": 4344,
      "டுவீ": 4345,
      "அம்": 4346,
      "துரை": 4347,
      "▁தெரியா": 4348,
      "்னொரு": 4349,
      "▁றை": 4350,
      "னவோ": 4351,
      "▁பொழி": 4352,
      "▁புழ": 4353,
      "▁மோடி": 4354,
      "▁தொழு": 4355,
      "▁உவ": 4356,
      "▁தில": 4357,
      "வனிடம்": 4358,
      "குர்": 4359,
      "கோண": 4360,
      "ுவன்": 4361,
      "▁விண்ண": 4362,
      "பதிவு": 4363,
      "ினரும்": 4364,
      "▁ஏழு": 4365,
      "மேல": 4366,
      "ிருத": 4367,
      "இணைய": 4368,
      "▁மழு": 4369,
      "னாவின்": 4370,
      "▁மாட": 4371,
      "சோழ": 4372,
      "▁சிம்": 4373,
      "▁ஆன்டி": 4374,
      "னரே": 4375,
      "வதைத்": 4376,
      "▁ே": 4377,
      "▁பரபர": 4378,
      "ீழ": 4379,
      "தியிரு": 4380,
      "▁ப்ரொ": 4381,
      "ிருஷ்ணா": 4382,
      "▁ஒடி": 4383,
      "ுகளைக்": 4384,
      "▁கழக": 4385,
      "குமார": 4386,
      "ிறத": 4387,
      "ேயானால்": 4388,
      "ப்டு": 4389,
      "சீல": 4390,
      "நான": 4391,
      "சியாக": 4392,
      "ுபா": 4393,
      "வயது": 4394,
      "▁புதி": 4395,
      "நேய": 4396,
      "ுவதால்": 4397,
      "ீஸ": 4398,
      "ியக்": 4399,
      "லாவு": 4400,
      "வனோ": 4401,
      "▁பிளவு": 4402,
      "ஷர்": 4403,
      "மடு": 4404,
      "▁முதிர்": 4405,
      "▁அந்நிய": 4406,
      "ிழ்": 4407,
      "▁ஜான்": 4408,
      "ரையை": 4409,
      "துரு": 4410,
      "ல்கார": 4411,
      "▁இந்ந": 4412,
      "மாய்க்": 4413,
      "லாகாது": 4414,
      "ுலை": 4415,
      "▁தாள": 4416,
      "▁நாம": 4417,
      "டையே": 4418,
      "ாதல்": 4419,
      "ஜின": 4420,
      "சாத்": 4421,
      "``": 4422,
      "ஸ்கா": 4423,
      "▁விலகி": 4424,
      "லிக்": 4425,
      "சாரம்": 4426,
      "▁கேவல": 4427,
      "ிடலாம்": 4428,
      "▁ஆம்": 4429,
      "▁பதிலளி": 4430,
      "ாதுகா": 4431,
      "தாலேயே": 4432,
      "ஊஊ": 4433,
      "ாண்": 4434,
      "றதா": 4435,
      "யானால்": 4436,
      "ுடம்": 4437,
      "வுடனான": 4438,
      "லயே": 4439,
      "ெய்க": 4440,
      "காட்சி": 4441,
      "கரிய": 4442,
      "▁அமைய": 4443,
      "▁தேன்": 4444,
      "க்த": 4445,
      "ராவின்": 4446,
      "▁பாரி": 4447,
      "▁சத்ய": 4448,
      "▁வேதனை": 4449,
      "▁ட்ரெ": 4450,
      "▁வகைய": 4451,
      "ீல்": 4452,
      "டையை": 4453,
      "ானதாக": 4454,
      "ஆக்": 4455,
      "முமே": 4456,
      "▁செலவழி": 4457,
      "திகா": 4458,
      "மாட": 4459,
      "▁கேட்ப": 4460,
      "▁குடை": 4461,
      "▁காள": 4462,
      "ையாது": 4463,
      "▁யாக": 4464,
      "▁சத்": 4465,
      "னையாள": 4466,
      "றம்": 4467,
      "▁கூறியிரு": 4468,
      "▁கோவில்": 4469,
      "▁இரவு": 4470,
      "பிட்": 4471,
      "▁ஒளிபர": 4472,
      "ோகிறா": 4473,
      "▁நிறைவு": 4474,
      "▁பிட": 4475,
      "▁நுட்ப": 4476,
      "▁வசன": 4477,
      "மிடைய": 4478,
      "லெக்": 4479,
      "▁ஆணை": 4480,
      "▁தெரிவு": 4481,
      "ுகொ": 4482,
      "ெயின்": 4483,
      "மயம்": 4484,
      "ய்க்": 4485,
      "நய": 4486,
      "மீர்": 4487,
      "▁தகர்": 4488,
      "ய்ப்": 4489,
      "டார்": 4490,
      "வெறிய": 4491,
      "▁திறன்": 4492,
      "▁நிர்ணயி": 4493,
      "▁பிரப": 4494,
      "▁ஜனநாயக": 4495,
      "▁கதி": 4496,
      "தீவிர": 4497,
      "நேரம்": 4498,
      "கின": 4499,
      "தேசி": 4500,
      "▁லாப": 4501,
      "மோகன்": 4502,
      "▁கிண": 4503,
      "ாதபடி": 4504,
      "்னிய": 4505,
      "ியாதை": 4506,
      "ென்ப": 4507,
      "களோடும்": 4508,
      "புரு": 4509,
      "▁இராம": 4510,
      "▁ஆனால்": 4511,
      "மாதிர": 4512,
      "ுரையா": 4513,
      "ையினை": 4514,
      "சீன": 4515,
      "▁தடி": 4516,
      "▁ா": 4517,
      "▁அஷ்ட": 4518,
      "▁சிக": 4519,
      "ையாயிரு": 4520,
      "ிடையிலான": 4521,
      "யிலை": 4522,
      "பெரி": 4523,
      "ைவ": 4524,
      "ளென": 4525,
      "ையம்": 4526,
      "ற்புறு": 4527,
      "▁சூர": 4528,
      "டைப்": 4529,
      "ாய்வு": 4530,
      "ுகளால்": 4531,
      "பின": 4532,
      "ியார": 4533,
      "▁பெர": 4534,
      "▁விளைவி": 4535,
      "கிராம": 4536,
      "ஸெ": 4537,
      "பிசி": 4538,
      "ருத": 4539,
      "்டதை": 4540,
      "▁பாகி": 4541,
      "ஃப்ட்": 4542,
      "மாறும்": 4543,
      "ுறவு": 4544,
      "ுகையில்": 4545,
      "ரித": 4546,
      "பதிய": 4547,
      "யினை": 4548,
      "லமை": 4549,
      "▁விவசாய": 4550,
      "ாதோ": 4551,
      "▁நப": 4552,
      "மாளி": 4553,
      "ாளராக": 4554,
      "▁ரசிக": 4555,
      "▁ஏகா": 4556,
      "ையர": 4557,
      "யவே": 4558,
      "மித": 4559,
      "▁இழிவு": 4560,
      "விச்": 4561,
      "மழ": 4562,
      "ாி": 4563,
      "களிற்கு": 4564,
      "ூன்": 4565,
      "▁முதற்": 4566,
      "டையாக": 4567,
      "ுறையில்": 4568,
      "விலே": 4569,
      "சரு": 4570,
      "▁விசி": 4571,
      "ராளி": 4572,
      "காம": 4573,
      "வனைப்": 4574,
      "முன": 4575,
      "லீம்": 4576,
      "ள்ப": 4577,
      "ிரதி": 4578,
      "▁மின": 4579,
      "னிஸ்": 4580,
      "▁இசு": 4581,
      "டித்": 4582,
      "ராட": 4583,
      "மதுரை": 4584,
      "ிகே": 4585,
      "▁மெய்ய": 4586,
      "▁அபூ": 4587,
      "▁இடது": 4588,
      "▁திய": 4589,
      "ாழ்": 4590,
      "சிகி": 4591,
      "▁வீடியோ": 4592,
      "ணுமு": 4593,
      "டிவ்": 4594,
      "ிரெ": 4595,
      "▁வத": 4596,
      "சியோ": 4597,
      "றாக": 4598,
      "ிறவ": 4599,
      "▁காது": 4600,
      "ுதே": 4601,
      "ீத": 4602,
      "▁வதை": 4603,
      "▁பூத": 4604,
      "கற": 4605,
      "▁விளா": 4606,
      "▁·": 4607,
      "மானதா": 4608,
      "ுஸ்": 4609,
      "▁திமுக": 4610,
      "ுன்": 4611,
      "மின்மை": 4612,
      "▁எல": 4613,
      "▁துதி": 4614,
      "ிகளாக": 4615,
      "ஒளி": 4616,
      "னோட": 4617,
      "பாரதி": 4618,
      "்பாடு": 4619,
      "▁உடன": 4620,
      "ோனது": 4621,
      "▁ஜல": 4622,
      "▁விற": 4623,
      "▁சிற்ப": 4624,
      "▁ஆயி": 4625,
      "டுவதற்காக": 4626,
      "ுரோ": 4627,
      "மானிய": 4628,
      "▁சபை": 4629,
      "தலா": 4630,
      "▁பெல்": 4631,
      "கேர": 4632,
      "▁களமிற": 4633,
      "▁அமிர்": 4634,
      "▁மாதிரி": 4635,
      "வினா": 4636,
      "ெறு": 4637,
      "யன்படு": 4638,
      "▁சாதாரண": 4639,
      "கியு": 4640,
      "ளையில்": 4641,
      "சலி": 4642,
      "ோவ்": 4643,
      "▁ரத்": 4644,
      "▁சுரே": 4645,
      "நொ": 4646,
      "மாகியு": 4647,
      "▁லோக": 4648,
      "▁கையாள": 4649,
      "ஹார": 4650,
      "மாகிறது": 4651,
      "ஸிஸ்": 4652,
      "ேட": 4653,
      "ியவன்": 4654,
      "ூறி": 4655,
      "ளோடும்": 4656,
      "▁கற்க": 4657,
      "ததை": 4658,
      "▁வசதி": 4659,
      "▁பக்தி": 4660,
      "ியதே": 4661,
      "சலா": 4662,
      "▁பாலை": 4663,
      "ங்ஸ்": 4664,
      "▁கவ்": 4665,
      "ம்ம்ம்ம்": 4666,
      "▁ஆசி": 4667,
      "▁சனி": 4668,
      "வோரு": 4669,
      "ரில": 4670,
      "்த்": 4671,
      "ிகரி": 4672,
      "ருகி": 4673,
      "ிதம்": 4674,
      "வற்": 4675,
      "ர்ட": 4676,
      "▁புராண": 4677,
      "யாகவே": 4678,
      "▁மால்": 4679,
      "ிகு": 4680,
      "துர": 4681,
      "ையானது": 4682,
      "▁குலு": 4683,
      "▁மதிய": 4684,
      "களிரு": 4685,
      "▁முதலாளி": 4686,
      "▁ராசி": 4687,
      "ொள்கை": 4688,
      "லிலிரு": 4689,
      "ுங்": 4690,
      "காம்": 4691,
      "நெல்": 4692,
      "ல்டு": 4693,
      "ல்படு": 4694,
      "யான்": 4695,
      "▁கலைஞ": 4696,
      "தியாள": 4697,
      "இசை": 4698,
      "கிர்": 4699,
      "ியாம்": 4700,
      "▁சீர்திரு": 4701,
      "விற": 4702,
      "லாமோ": 4703,
      "்சியா": 4704,
      "▁ணி": 4705,
      "தெரிய": 4706,
      "ுறி": 4707,
      "ாயிர": 4708,
      "ளிடமும்": 4709,
      "▁பியூ": 4710,
      "ியாயிரு": 4711,
      "ுஆ": 4712,
      "▁செரி": 4713,
      "ரோட": 4714,
      "▁நர்": 4715,
      "▁பயோ": 4716,
      "▁சிறிய": 4717,
      "ெனப்": 4718,
      "னுமா": 4719,
      "வுரு": 4720,
      "யைச்": 4721,
      "்குமா": 4722,
      "▁செழி": 4723,
      "மதா": 4724,
      "றியது": 4725,
      "யைத்": 4726,
      "டிச்": 4727,
      "ாகிப்": 4728,
      "ையூ": 4729,
      "▁தவறு": 4730,
      "ானெ": 4731,
      "புரிய": 4732,
      "▁ரயில்": 4733,
      "▁வரிசை": 4734,
      "விலா": 4735,
      "டுகளை": 4736,
      "ிஷ": 4737,
      "ஹார்": 4738,
      "▁ய்": 4739,
      "▁இரை": 4740,
      "▁எதிரி": 4741,
      "▁மானுட": 4742,
      "ுமிட": 4743,
      "நாடா": 4744,
      "▁இக்": 4745,
      "வரால்": 4746,
      "மையுடன்": 4747,
      "ட்பாள": 4748,
      "ாதலால்": 4749,
      "▁சரு": 4750,
      "ையிலு": 4751,
      "▁உதி": 4752,
      "ுகளா": 4753,
      "ுணா": 4754,
      "ஹரி": 4755,
      "ர்ண": 4756,
      "▁பாலா": 4757,
      "தடை": 4758,
      "ிலம்": 4759,
      "ையிரு": 4760,
      "தோட": 4761,
      "▁நார": 4762,
      "▁செது": 4763,
      "▁வெல்": 4764,
      "மார்ட்": 4765,
      "ரையோ": 4766,
      "ஸ்தி": 4767,
      "▁கியூ": 4768,
      "ுகொடு": 4769,
      "குவ": 4770,
      "▁தும்": 4771,
      "▁முற்ப": 4772,
      "தெரு": 4773,
      "▁க்ஷ": 4774,
      "▁பெயர": 4775,
      "▁ந்": 4776,
      "ரெட்": 4777,
      "ிறதை": 4778,
      "முய": 4779,
      "▁கறி": 4780,
      "ோலை": 4781,
      "ேற்க": 4782,
      "கூறு": 4783,
      "்றைய": 4784,
      "ோண": 4785,
      "▁ப்ளா": 4786,
      "▁காளி": 4787,
      "ன்ம": 4788,
      "கூடப்": 4789,
      "யேற": 4790,
      "்டம்": 4791,
      "்டட": 4792,
      "ிம்": 4793,
      "விஜய்": 4794,
      "ரீக": 4795,
      "ீரை": 4796,
      "வுடை": 4797,
      "▁எடை": 4798,
      "▁வல்": 4799,
      "தேர்தல்": 4800,
      "சுட": 4801,
      "▁நபி": 4802,
      "லையை": 4803,
      "▁நிகழ்வு": 4804,
      "மிள": 4805,
      "▁பகி": 4806,
      "▁மூழ்க": 4807,
      "எப்": 4808,
      "▁மாணி": 4809,
      "▁டான்": 4810,
      "▁வெண்ண": 4811,
      "ாலய": 4812,
      "வழிய": 4813,
      "ோப": 4814,
      "▁கோய": 4815,
      "▁பைய": 4816,
      "▁புண்ணிய": 4817,
      "▁மினி": 4818,
      "ோதி": 4819,
      "லட்ச": 4820,
      "சிர": 4821,
      "ையாகவே": 4822,
      "▁ஐரோ": 4823,
      "▁திருட": 4824,
      "லின": 4825,
      "காரன்": 4826,
      "▁ஜியோ": 4827,
      "▁எட்": 4828,
      "ஆர": 4829,
      "ீடியா": 4830,
      "ஸ்ட்ரா": 4831,
      "ளாகத்": 4832,
      "ழகம்": 4833,
      "ஸிலிரு": 4834,
      "ாளை": 4835,
      "ஸிய": 4836,
      "னைகளை": 4837,
      "▁நஷ்ட": 4838,
      "ரென்": 4839,
      "புண": 4840,
      "னையோ": 4841,
      "▁ஷீ": 4842,
      "ுஉ": 4843,
      "டுது": 4844,
      "▁வசூலி": 4845,
      "ாரரு": 4846,
      "▁அகல": 4847,
      "▁கதிர": 4848,
      "ரிலும்": 4849,
      "ிரத": 4850,
      "▁குரூ": 4851,
      "▁சமூ": 4852,
      "ஸ்திரேலியா": 4853,
      "ாவல": 4854,
      "ளன்": 4855,
      "▁வூ": 4856,
      "ளையி": 4857,
      "றுதி": 4858,
      "▁விஜய்": 4859,
      "யானது": 4860,
      "▁கஜ": 4861,
      "யிடம்": 4862,
      "கொட": 4863,
      "மென்பது": 4864,
      "▁ஜெக": 4865,
      "ொடிய": 4866,
      "ின்ப": 4867,
      "▁டிரி": 4868,
      "னியை": 4869,
      "்டதா": 4870,
      "மூடி": 4871,
      "ளானால்": 4872,
      "▁இம்மா": 4873,
      "ுகிறாள்": 4874,
      "க்ஷி": 4875,
      "ும்மா": 4876,
      "ல்களும்": 4877,
      "லாமென": 4878,
      "▁பழனி": 4879,
      "னேன்": 4880,
      "நப": 4881,
      "ுசு": 4882,
      "▁திகை": 4883,
      "ஆதி": 4884,
      "ுளம்": 4885,
      "ளாமே": 4886,
      "ராசா": 4887,
      "ையிலேயே": 4888,
      "றியே": 4889,
      "்கான": 4890,
      "லப்": 4891,
      "சைக்": 4892,
      "சுரி": 4893,
      "தானோ": 4894,
      "கிறி": 4895,
      "▁துளை": 4896,
      "▁தொழிலாள": 4897,
      "▁சகோதர": 4898,
      "▁துல": 4899,
      "மானவ": 4900,
      "தனர்": 4901,
      "▁வற்புறு": 4902,
      "▁சாதிய": 4903,
      "ியாகப்": 4904,
      "கோரி": 4905,
      "▁நுண்ண": 4906,
      "தயாரி": 4907,
      "ஒது": 4908,
      "▁சமீ": 4909,
      "ராணி": 4910,
      "ியாகக்": 4911,
      "ஸ்டீ": 4912,
      "▁அஜ": 4913,
      "▁இஸ்லாமிய": 4914,
      "விகளு": 4915,
      "▁ட்ரை": 4916,
      "▁கீர்": 4917,
      "▁அநு": 4918,
      "னிடமிரு": 4919,
      "▁கொடிய": 4920,
      "மேய": 4921,
      "▁தைரிய": 4922,
      "▁மஸ்": 4923,
      "விசார": 4924,
      "ியத்": 4925,
      "கரன்": 4926,
      "ாக்ஷ": 4927,
      "லையில்": 4928,
      "ேம்": 4929,
      "முடன்": 4930,
      "▁சிறி": 4931,
      "ர்மா": 4932,
      "▁விசய": 4933,
      "ிடமே": 4934,
      "குர": 4935,
      "▁படிய": 4936,
      "சுரு": 4937,
      "தமும்": 4938,
      "னும்னு": 4939,
      "குப்": 4940,
      "வதோ": 4941,
      "நண்ப": 4942,
      "▁பில": 4943,
      "▁மூளை": 4944,
      "மாய்த்": 4945,
      "▁சாப": 4946,
      "காவு": 4947,
      "▁நதி": 4948,
      "▁த்ரி": 4949,
      "▁பழகி": 4950,
      "துல": 4951,
      "ிடையேயான": 4952,
      "ஷ்யா": 4953,
      "ளிற்கு": 4954,
      "நாளை": 4955,
      "▁பூரண": 4956,
      "ாதன": 4957,
      "கஸ்": 4958,
      "ஆப்": 4959,
      "பேச": 4960,
      "படுகிறது": 4961,
      "கலாம்": 4962,
      "ாடும்": 4963,
      "▁அஷ்": 4964,
      "▁வரலாறு": 4965,
      "▁திருப்தி": 4966,
      "வுடனும்": 4967,
      "்வளவு": 4968,
      "மாடி": 4969,
      "்குப்": 4970,
      "மேடு": 4971,
      "▁கப்": 4972,
      "ிற்கெ": 4973,
      "ைவு": 4974,
      "நாயகி": 4975,
      "சுவரர்": 4976,
      "லப": 4977,
      "தானு": 4978,
      "யாரு": 4979,
      "கலி": 4980,
      "ுமைய": 4981,
      "பெறு": 4982,
      "ளால": 4983,
      "▁இசையமை": 4984,
      "புலி": 4985,
      "க்ய": 4986,
      "ேரிய": 4987,
      "சூரிய": 4988,
      "றியடி": 4989,
      "நதி": 4990,
      "சிசி": 4991,
      "▁புவி": 4992,
      "▁ஆசீர்": 4993,
      "ைல": 4994,
      "▁சுகாதார": 4995,
      "▁திரும": 4996,
      "ையாகக்": 4997,
      "ட்சா": 4998,
      "▁மாச": 4999,
      "ினாலோ": 5000,
      "சையில்": 5001,
      "▁தால": 5002,
      "மிடம்": 5003,
      "▁பேரி": 5004,
      "கிரீ": 5005,
      "ஸிடம்": 5006,
      "ோதெ": 5007,
      "▁யுக": 5008,
      "ணிகளு": 5009,
      "படம்": 5010,
      "▁இம்ம": 5011,
      "▁கிறிஸ்த": 5012,
      "▁தூது": 5013,
      "னிங்": 5014,
      "ியானது": 5015,
      "தேய": 5016,
      "பாசி": 5017,
      "தகவல்": 5018,
      "ணமா": 5019,
      "னொ": 5020,
      "லகை": 5021,
      "னியன்": 5022,
      "வருடன்": 5023,
      "தர்ம": 5024,
      "்டில்": 5025,
      "▁சேது": 5026,
      "மோர்": 5027,
      "▁வருகி": 5028,
      "ஹன்": 5029,
      "்டெ": 5030,
      "▁உக": 5031,
      "▁காசு": 5032,
      "யிலே": 5033,
      "▁சிங்": 5034,
      "▁நேச": 5035,
      "ராஷ்ட": 5036,
      "ட்களை": 5037,
      "ளியா": 5038,
      "ராகக்": 5039,
      "▁வித்": 5040,
      "்ணு": 5041,
      "நெடு": 5042,
      "ுரம்": 5043,
      "னத்": 5044,
      "அலை": 5045,
      "ியதில்": 5046,
      "▁ஐஸ்": 5047,
      "மாவின்": 5048,
      "▁மெர்": 5049,
      "உற": 5050,
      "▁கலவர": 5051,
      "▁வழிபா": 5052,
      "ஒவ்": 5053,
      "▁பொறா": 5054,
      "க்ரோ": 5055,
      "்டளை": 5056,
      "வெழு": 5057,
      "▁முடு": 5058,
      "பாணி": 5059,
      "நுழை": 5060,
      "ஹான்": 5061,
      "ஞ்ஜ": 5062,
      "▁புரொ": 5063,
      "ிலின்": 5064,
      "சிகளு": 5065,
      "▁கதைய": 5066,
      "▁வேதா": 5067,
      "▁கில்": 5068,
      "▁தீர்மான": 5069,
      "▁பேண": 5070,
      "ாஜ": 5071,
      "▁பதின": 5072,
      "்சனம்": 5073,
      "▁குறைய": 5074,
      "▁கதிர்": 5075,
      "▁தொழி": 5076,
      "தாவின்": 5077,
      "வதிலும்": 5078,
      "கிறதா": 5079,
      "ுறீ": 5080,
      "▁தீப": 5081,
      "மேற்ப": 5082,
      "▁டர்": 5083,
      "சுகி": 5084,
      "▁யூனி": 5085,
      "▁துண": 5086,
      "இடை": 5087,
      "ிவர": 5088,
      "உம்": 5089,
      "▁எட": 5090,
      "காவின்": 5091,
      "டுற": 5092,
      "பாடுகளை": 5093,
      "▁சியா": 5094,
      "வடைய": 5095,
      "▁பள": 5096,
      "▁டாக்": 5097,
      "னாகி": 5098,
      "▁யிரு": 5099,
      "்சே": 5100,
      "ரேஷன்": 5101,
      "▁மாகாண": 5102,
      "▁ரிய": 5103,
      "்புத": 5104,
      "லியோ": 5105,
      "முஸ்லிம்": 5106,
      "▁உய்": 5107,
      "▁எப்": 5108,
      "▁கண்க": 5109,
      "▁டியூ": 5110,
      "▁நாராயண": 5111,
      "▁மென": 5112,
      "வறு": 5113,
      "பாகி": 5114,
      "விவசாயி": 5115,
      "தானம்": 5116,
      "▁ஜ்": 5117,
      "டைக்": 5118,
      "▁இயற்கை": 5119,
      "சினி": 5120,
      "▁சம்மதி": 5121,
      "மானா": 5122,
      "லெழு": 5123,
      "காரு": 5124,
      "▁அஹ": 5125,
      "மைத்": 5126,
      "ராலும்": 5127,
      "ிராய": 5128,
      "திகளும்": 5129,
      "▁உதிர்": 5130,
      "வீக": 5131,
      "பிலி": 5132,
      "▁லாக": 5133,
      "▁ற்": 5134,
      "ஸைக்": 5135,
      "▁திணை": 5136,
      "ுமென்ப": 5137,
      "மோக": 5138,
      "▁அலைய": 5139,
      "▁ஷூ": 5140,
      "▁கொன்": 5141,
      "▁யான": 5142,
      "ாகிறது": 5143,
      "▁இயற்க": 5144,
      "▁வளைய": 5145,
      "▁சண்முக": 5146,
      "தேவ": 5147,
      "▁பிரம்": 5148,
      "ரின": 5149,
      "▁சாட்சிய": 5150,
      "முழ": 5151,
      "ண்ணன்": 5152,
      "▁காசி": 5153,
      "உடல்": 5154,
      "வுணர்": 5155,
      "▁ஃபீ": 5156,
      "ரத": 5157,
      "ிகோ": 5158,
      "அழி": 5159,
      "▁சுயநல": 5160,
      "▁நெட்": 5161,
      "ஆண்": 5162,
      "லைட்": 5163,
      "டியன்": 5164,
      "கணி": 5165,
      "உள்": 5166,
      "மையடை": 5167,
      "விலேயே": 5168,
      "்டண": 5169,
      "▁அம்ச": 5170,
      "ைன்": 5171,
      "▁வீணா": 5172,
      "அலுவ": 5173,
      "▁புடு": 5174,
      "▁நிற்": 5175,
      "ாயம்": 5176,
      "▁உசு": 5177,
      "கேட்": 5178,
      "ஸ்மா": 5179,
      "▁மென்ப": 5180,
      "▁கெய்": 5181,
      "▁வேல்": 5182,
      "▁மத்": 5183,
      "ராச": 5184,
      "▁கனக": 5185,
      "பேசிய": 5186,
      "சீனா": 5187,
      "விஷ்": 5188,
      "ெனி": 5189,
      "▁சிய": 5190,
      "டாக்": 5191,
      "தித்": 5192,
      "▁அசோ": 5193,
      "▁செலவு": 5194,
      "தியுடன்": 5195,
      "பேஸ்": 5196,
      "பைல்": 5197,
      "▁நன்மை": 5198,
      "▁முயல்": 5199,
      "▁பொடி": 5200,
      "▁நிப": 5201,
      "▁ஸு": 5202,
      "யாழ்": 5203,
      "▁காடு": 5204,
      "்கள": 5205,
      "▁டைய": 5206,
      "ண்கு": 5207,
      "▁வசை": 5208,
      "எரி": 5209,
      "ுஇ": 5210,
      "மைகளு": 5211,
      "▁இறைய": 5212,
      "ுகளைத்": 5213,
      "▁காவல": 5214,
      "தனம்": 5215,
      "ுணை": 5216,
      "ணிகளை": 5217,
      "திலே": 5218,
      "தையோ": 5219,
      "நர": 5220,
      "ளர": 5221,
      "▁கருண": 5222,
      "முட": 5223,
      "ூடப்": 5224,
      "டய": 5225,
      "ளக்": 5226,
      "▁வரவழை": 5227,
      "▁பாப": 5228,
      "▁செறி": 5229,
      "சத்": 5230,
      "▁யாத": 5231,
      "ிறாரா": 5232,
      "▁அலட்சிய": 5233,
      "டாய்": 5234,
      "மக்": 5235,
      "▁மூலம்": 5236,
      "ுகளிலும்": 5237,
      "ுலக": 5238,
      "னரு": 5239,
      "▁தெலு": 5240,
      "தையை": 5241,
      "துணை": 5242,
      "▁நிறைய": 5243,
      "▁தென்ப": 5244,
      "னாயிரு": 5245,
      "வராயிரு": 5246,
      "தொழில்நுட்ப": 5247,
      "ுநா": 5248,
      "யுடைய": 5249,
      "▁கவிஞ": 5250,
      "பேக்": 5251,
      "றையில்": 5252,
      "சியன்": 5253,
      "▁»": 5254,
      "ூழல்": 5255,
      "தாபி": 5256,
      "ஜான்": 5257,
      "▁சீனா": 5258,
      "ஙக": 5259,
      "ஸ்டை": 5260,
      "ஸ்வரி": 5261,
      "வுடனே": 5262,
      "ானாலும்": 5263,
      "▁ஸ்வ": 5264,
      "ஒலி": 5265,
      "வளவு": 5266,
      "ிசய": 5267,
      "கீழ": 5268,
      "சுத": 5269,
      "களென": 5270,
      "னத": 5271,
      "▁பத்ம": 5272,
      "வராகவே": 5273,
      "ிரும்": 5274,
      "வரலாறு": 5275,
      "்றை": 5276,
      "்தை": 5277,
      "ரென": 5278,
      "▁கருவி": 5279,
      "லானது": 5280,
      "ல்களில்": 5281,
      "ானிரு": 5282,
      "▁காவ": 5283,
      "ியலை": 5284,
      "பதில்": 5285,
      "▁பீடி": 5286,
      "ரன": 5287,
      "விரோத": 5288,
      "சூழ்": 5289,
      "▁பூசி": 5290,
      "▁பெறுவ": 5291,
      "அழக": 5292,
      "▁கழுவ": 5293,
      "குறு": 5294,
      "மோச": 5295,
      "மேற்க": 5296,
      "▁வீரா": 5297,
      "▁]": 5298,
      "ியலில்": 5299,
      "▁ஆராய": 5300,
      "னராம்": 5301,
      "▁குருதி": 5302,
      "▁பயமுறு": 5303,
      "▁பனை": 5304,
      "ஆல்": 5305,
      "▁சவ": 5306,
      "வனெ": 5307,
      "ஸ்ஸா": 5308,
      "தீவு": 5309,
      "▁ஆவ": 5310,
      "பெக்": 5311,
      "▁விலா": 5312,
      "தமி": 5313,
      "தினை": 5314,
      "ேனு": 5315,
      "கூடத்": 5316,
      "ஷேக": 5317,
      "டுகிறான்": 5318,
      "ாலெ": 5319,
      "வெர்": 5320,
      "சியே": 5321,
      "▁கற்பனை": 5322,
      "உலகம்": 5323,
      "▁சபா": 5324,
      "லாது": 5325,
      "உய": 5326,
      "ஓஓ": 5327,
      "▁முக்": 5328,
      "னியின்": 5329,
      "ராடி": 5330,
      "▁தெறி": 5331,
      "ஷூ": 5332,
      "டிவி": 5333,
      "▁ஓய்வு": 5334,
      "ாயை": 5335,
      "▁உலர்": 5336,
      "தேயி": 5337,
      "ீரா": 5338,
      "▁வெளு": 5339,
      "உணவு": 5340,
      "▁கோட": 5341,
      "▁அபு": 5342,
      "▁ரன்": 5343,
      "மாயின்": 5344,
      "▁கொள": 5345,
      "ழாய்": 5346,
      "ிரமாக": 5347,
      "▁படமா": 5348,
      "ேர்வு": 5349,
      "ஷெ": 5350,
      "வீதி": 5351,
      "▁விவசாயி": 5352,
      "▁மாக்": 5353,
      "▁நன": 5354,
      "திலேயே": 5355,
      "ளாயிரு": 5356,
      "▁காவி": 5357,
      "ையும": 5358,
      "கவிதை": 5359,
      "ுவதெ": 5360,
      "செட்": 5361,
      "பண்ண": 5362,
      "▁ஜமா": 5363,
      "▁சோம": 5364,
      "னில": 5365,
      "எதி": 5366,
      "கனி": 5367,
      "▁கவுன்": 5368,
      "▁சபி": 5369,
      "▁நிம்ம": 5370,
      "▁சாம": 5371,
      "ிணி": 5372,
      "ன்யா": 5373,
      "டலை": 5374,
      "▁ஆன்மீக": 5375,
      "▁சட்": 5376,
      "▁கேப்": 5377,
      "பகு": 5378,
      "▁நிர்ப": 5379,
      "▁மாரி": 5380,
      "ரங்": 5381,
      "முமாக": 5382,
      "னாளி": 5383,
      "ராஸ்": 5384,
      "▁பணிபுரி": 5385,
      "▁காலா": 5386,
      "சேனா": 5387,
      "பொருளாதார": 5388,
      "▁நாடி": 5389,
      "▁நிற்ப": 5390,
      "▁தேதி": 5391,
      "ானாக": 5392,
      "▁யூத": 5393,
      "ன்மா": 5394,
      "▁நிகழ": 5395,
      "ீஸ்வர": 5396,
      "ுளை": 5397,
      "ஆதர": 5398,
      "ுமாம்": 5399,
      "▁சீனி": 5400,
      "ூடத்": 5401,
      "ையாகப்": 5402,
      "ாதேவி": 5403,
      "ளிற்": 5404,
      "களாகச்": 5405,
      "▁விக்ர": 5406,
      "▁தீவு": 5407,
      "முகமாக": 5408,
      "▁கலாய்": 5409,
      "பள": 5410,
      "பிஸ்": 5411,
      "▁ஜக": 5412,
      "வுற": 5413,
      "ுார்": 5414,
      "ிரமான": 5415,
      "▁ழி": 5416,
      "▁தீர": 5417,
      "பொழு": 5418,
      "ாதீர்": 5419,
      "▁உமா": 5420,
      "▁பிஸ்": 5421,
      "னிலிரு": 5422,
      "▁பெரியா": 5423,
      "ுபடி": 5424,
      "லாவின்": 5425,
      "மையைப்": 5426,
      "▁சிநே": 5427,
      "ொள்கிறா": 5428,
      "▁பரிச": 5429,
      "கௌ": 5430,
      "மோடி": 5431,
      "▁உதா": 5432,
      "யினர்": 5433,
      "ஆளு": 5434,
      "▁பாறை": 5435,
      "தானிரு": 5436,
      "ேஸ்வர": 5437,
      "வுஸ்": 5438,
      "சிறி": 5439,
      "▁ஏல": 5440,
      "ாவுடன்": 5441,
      "ோமெ": 5442,
      "மிங்": 5443,
      "▁க்ரோ": 5444,
      "லார்": 5445,
      "சும": 5446,
      "ியாகத்": 5447,
      "லஸ்": 5448,
      "ச்வர": 5449,
      "ினாலேயே": 5450,
      "▁கற்பழி": 5451,
      "▁தாவர": 5452,
      "டங்": 5453,
      "▁கஸ்": 5454,
      "▁மாயா": 5455,
      "தற்காகவே": 5456,
      "மிடு": 5457,
      "வேண்": 5458,
      "ாகித": 5459,
      "ஷண": 5460,
      "சிபி": 5461,
      "▁நெனை": 5462,
      "▁ராஜபக்": 5463,
      "▁ஸூ": 5464,
      "▁நரக": 5465,
      "▁காரை": 5466,
      "▁ளில்": 5467,
      "னக": 5468,
      "▁நிமிட": 5469,
      "▁ஸ்திர": 5470,
      "கிள": 5471,
      "தற்குத்": 5472,
      "தாலோ": 5473,
      "நிகழ்வு": 5474,
      "▁அசா": 5475,
      "▁பரிதாப": 5476,
      "▁நியமி": 5477,
      "யா்": 5478,
      "வருடைய": 5479,
      "நம": 5480,
      "்கரை": 5481,
      "▁முதலா": 5482,
      "▁ஜீவ": 5483,
      "▁நிமிர்": 5484,
      "▁துா": 5485,
      "யோடு": 5486,
      "▁ஹெல்": 5487,
      "வசிய": 5488,
      "டான்": 5489,
      "▁சரவண": 5490,
      "ஒழு": 5491,
      "தூர": 5492,
      "னைகளு": 5493,
      "▁தீர்வு": 5494,
      "▁வீதி": 5495,
      "பாடுகளு": 5496,
      "▁பண்பு": 5497,
      "▁உலு": 5498,
      "▁ஹெர்": 5499,
      "்தே": 5500,
      "டிகளு": 5501,
      "▁குளு": 5502,
      "எது": 5503,
      "பசு": 5504,
      "▁கோவ": 5505,
      "▁புணர்": 5506,
      "ூடாதெ": 5507,
      "பேட்": 5508,
      "ஜெயலலிதா": 5509,
      "ியாவது": 5510,
      "சையை": 5511,
      "ிற்கேற்ப": 5512,
      "▁குக": 5513,
      "னியில்": 5514,
      "▁தயார": 5515,
      "னாய்வு": 5516,
      "சித": 5517,
      "▁எச்": 5518,
      "▁ஏது": 5519,
      "▁பயன்ப": 5520,
      "ாவிலிரு": 5521,
      "▁பூரி": 5522,
      "காரண": 5523,
      "லியை": 5524,
      "▁புரா": 5525,
      "ட்ஸ": 5526,
      "கையா": 5527,
      "யிலில்": 5528,
      "ராகத்": 5529,
      "தாள்": 5530,
      "▁பூமி": 5531,
      "▁எஃப்": 5532,
      "▁நெரி": 5533,
      "▁கிரக": 5534,
      "▁செயலி": 5535,
      "▁புவ": 5536,
      "னடை": 5537,
      "ிநா": 5538,
      "க்ஷ்": 5539,
      "மீதான": 5540,
      "▁நரி": 5541,
      "▁ரகு": 5542,
      "▁ஊன": 5543,
      "▁கரிய": 5544,
      "பாவு": 5545,
      "ேஜ்": 5546,
      "▁தோள்": 5547,
      "கவோ": 5548,
      "▁ருசி": 5549,
      "▁தெரியாத": 5550,
      "▁அபிவிரு": 5551,
      "விதமாக": 5552,
      "மூட": 5553,
      "▁கசி": 5554,
      "▁துடு": 5555,
      "்ம்": 5556,
      "னமும்": 5557,
      "ஜாத": 5558,
      "விமான": 5559,
      "்டதே": 5560,
      "▁நாள": 5561,
      "கூர்": 5562,
      "▁அபாய": 5563,
      "தம": 5564,
      "மோன்": 5565,
      "▁அபகரி": 5566,
      "▁பரிமா": 5567,
      "▁தைய": 5568,
      "கேஷன்": 5569,
      "ஷனை": 5570,
      "▁டிவி": 5571,
      "தற்குரிய": 5572,
      "ேயில்": 5573,
      "வறை": 5574,
      "ரமை": 5575,
      "▁காமெ": 5576,
      "▁தூய": 5577,
      "சனி": 5578,
      "ேதி": 5579,
      "சரை": 5580,
      "▁ஊட": 5581,
      "▁உடலு": 5582,
      "▁“”": 5583,
      "▁விற்பனை": 5584,
      "படியிரு": 5585,
      "ரீதியாக": 5586,
      "லரு": 5587,
      "▁ஆஜ": 5588,
      "ணியின்": 5589,
      "்விரு": 5590,
      "்பட": 5591,
      "▁குமா": 5592,
      "▁பதிவே": 5593,
      "்தகைய": 5594,
      "▁முஹ": 5595,
      "லெட்": 5596,
      "▁நாயக": 5597,
      "ையிடு": 5598,
      "நிய": 5599,
      "ிராம்": 5600,
      "▁நலி": 5601,
      "ளுடனான": 5602,
      "▁ரஜினி": 5603,
      "திறன்": 5604,
      "களிற்": 5605,
      "சுய": 5606,
      "ிரனு": 5607,
      "▁கிரீ": 5608,
      "சீலி": 5609,
      "னியம்": 5610,
      "▁மேடை": 5611,
      "▁மோதி": 5612,
      "▁தரிசி": 5613,
      "▁யை": 5614,
      "ராவில்": 5615,
      "ம்இ": 5616,
      "▁பரவச": 5617,
      "தோறும்": 5618,
      "ியலாள": 5619,
      "▁னா": 5620,
      "பிரதேச": 5621,
      "றியு": 5622,
      "ியாகிய": 5623,
      "ாவோ": 5624,
      "ிடல்": 5625,
      "னல": 5626,
      "சலு": 5627,
      "வுத்": 5628,
      "காவல்": 5629,
      "▁செழு": 5630,
      "உடன்": 5631,
      "ரித்": 5632,
      "ானம்": 5633,
      "ிக்ஸ்": 5634,
      "னப்": 5635,
      "ணவ": 5636,
      "ம்ஆ": 5637,
      "▁துளி": 5638,
      "தாசன்": 5639,
      "▁நிலா": 5640,
      "▁பெள": 5641,
      "பேரா": 5642,
      "▁மீட்க": 5643,
      "▁தில்": 5644,
      "தண்ண": 5645,
      "ாயே": 5646,
      "ுகழ்": 5647,
      "▁எடி": 5648,
      "▁ஆதரவு": 5649,
      "்கறி": 5650,
      "ணாதி": 5651,
      "ளூர்": 5652,
      "ழுவு": 5653,
      "▁முழுவ": 5654,
      "ேரா": 5655,
      "தடி": 5656,
      "▁டெர்": 5657,
      "ெய்ன்": 5658,
      "கூடக்": 5659,
      "கோல்": 5660,
      "மேக": 5661,
      "————": 5662,
      "ாலஜி": 5663,
      "ினையே": 5664,
      "ூத": 5665,
      "சாரா": 5666,
      "முருகன்": 5667,
      "▁‍": 5668,
      "ணுமே": 5669,
      "தாயி": 5670,
      "▁ஆஃப்": 5671,
      "­­": 5672,
      "▁புன்": 5673,
      "ர்த்": 5674,
      "▁மேய": 5675,
      "▁ஒளிய": 5676,
      "ேசன்": 5677,
      "ணியாள": 5678,
      "யென": 5679,
      "நிதிய": 5680,
      "கா்": 5681,
      "லாக்": 5682,
      "டியெ": 5683,
      "▁விசை": 5684,
      "றன்": 5685,
      "லியே": 5686,
      "விக": 5687,
      "்தனை": 5688,
      "ினாய்": 5689,
      "ழுவி": 5690,
      "▁பாட்": 5691,
      "▁சிரு": 5692,
      "▁அஃ": 5693,
      "மேற்கு": 5694,
      "னையாக": 5695,
      "ிராய்": 5696,
      "▁ளும்": 5697,
      "செல்வ": 5698,
      "ியலு": 5699,
      "காப்": 5700,
      "ரெஸ்": 5701,
      "▁எலக்": 5702,
      "ண்ணும்": 5703,
      "▁கோபால": 5704,
      "விர்": 5705,
      "களுடனான": 5706,
      "களோட": 5707,
      "▁பிரீ": 5708,
      "▁சாதனை": 5709,
      "மாகவு": 5710,
      "▁சூடு": 5711,
      "▁பிழ": 5712,
      "ஜனா": 5713,
      "டையின்": 5714,
      "காஸ்": 5715,
      "▁ஸ்க்": 5716,
      "னுக": 5717,
      "▁மியூ": 5718,
      "▁புளிய": 5719,
      "▁தலைமைய": 5720,
      "நாயகம்": 5721,
      "▁விளையாட": 5722,
      "ானில்": 5723,
      "ாடை": 5724,
      "▁வருகை": 5725,
      "லாமு": 5726,
      "ிரடி": 5727,
      "▁திருந": 5728,
      "▁கணினி": 5729,
      "ெலு": 5730,
      "▁ஆலோசனை": 5731,
      "▁தழை": 5732,
      "சிப்": 5733,
      "னாலே": 5734,
      "ோறா": 5735,
      "▁முதலீ": 5736,
      "ம்க": 5737,
      "வுடன": 5738,
      "▁இளம்": 5739,
      "ேற்": 5740,
      "▁பாரதி": 5741,
      "▁டிரான்ஸ்": 5742,
      "சாட்": 5743,
      "[[": 5744,
      "டுவதற்கான": 5745,
      "துர்": 5746,
      "▁ரூப": 5747,
      "▁ளின்": 5748,
      "வனாயிரு": 5749,
      "▁நேரம்": 5750,
      "லகு": 5751,
      "கோட்": 5752,
      "எவ்": 5753,
      "▁க்யூ": 5754,
      "மையாகி": 5755,
      "ளிப்": 5756,
      "விஜய": 5757,
      "▁வெப்": 5758,
      "▁கதற": 5759,
      "▁தானிய": 5760,
      "டாதிரு": 5761,
      "▁மில்": 5762,
      "ாயினும்": 5763,
      "ரிடையே": 5764,
      "ர்ன்": 5765,
      "ுவடி": 5766,
      "ேயை": 5767,
      "▁பொரி": 5768,
      "▁விலக": 5769,
      "திகாரி": 5770,
      "▁அழிவு": 5771,
      "பொன்": 5772,
      "மேஷ்": 5773,
      "ங்ங": 5774,
      "வேற": 5775,
      "▁உறவின": 5776,
      "ேய்": 5777,
      "முடை": 5778,
      "கோப": 5779,
      "ிறதாம்": 5780,
      "க்சி": 5781,
      "▁ஏரி": 5782,
      "▁வளர": 5783,
      "▁மெலி": 5784,
      "ிரர்": 5785,
      "தேர்வு": 5786,
      "ட்ஜ": 5787,
      "▁ஷன்": 5788,
      "ேகி": 5789,
      "▁சய": 5790,
      "ொண்": 5791,
      "▁ஃப்ரீ": 5792,
      "தெளி": 5793,
      "▁அசுர": 5794,
      "கரமான": 5795,
      "றுக": 5796,
      "ுகளிலிரு": 5797,
      "▁வசீ": 5798,
      "தாக்": 5799,
      "டியூ": 5800,
      "ியிலு": 5801,
      "▁வினோ": 5802,
      "▁நண்": 5803,
      "வுலக": 5804,
      "தலே": 5805,
      "ோழி": 5806,
      "்கால": 5807,
      "டால்": 5808,
      "ோனே": 5809,
      "தரும்": 5810,
      "ளார்": 5811,
      "பயன்படு": 5812,
      "▁ளா": 5813,
      "▁கஸ்ட": 5814,
      "ிகார": 5815,
      "▁தமி": 5816,
      "டுகிறோம்": 5817,
      "▁விநியோகி": 5818,
      "சாய": 5819,
      "▁பழக": 5820,
      "▁தோல்வி": 5821,
      "சூழ": 5822,
      "நெட்": 5823,
      "▁சுறு": 5824,
      "▁மாடி": 5825,
      "ஜென": 5826,
      "ஜோதி": 5827,
      "ியடைய": 5828,
      "ேனும்": 5829,
      "வ்யா": 5830,
      "▁பெற்": 5831,
      "ியூர்": 5832,
      "▁வலுவ": 5833,
      "▁பங்": 5834,
      "ிறாராம்": 5835,
      "▁அயர்": 5836,
      "ள்தானே": 5837,
      "சைப்": 5838,
      "மைச்": 5839,
      "முருக": 5840,
      "ளினதும்": 5841,
      "ாவடி": 5842,
      "னுமே": 5843,
      "வரிய": 5844,
      "▁புத": 5845,
      "ளுக": 5846,
      "பதை": 5847,
      "வணி": 5848,
      "▁பொல": 5849,
      "ரோன்": 5850,
      "யமான": 5851,
      "▁எதை": 5852,
      "▁ஸீ": 5853,
      "வராகி": 5854,
      "தாலே": 5855,
      "▁பெல": 5856,
      "ளையா": 5857,
      "▁ற்கு": 5858,
      "▁மௌன": 5859,
      "▁விஷ்ணு": 5860,
      "அபி": 5861,
      "சுடன்": 5862,
      "ோரில்": 5863,
      "ிவருகி": 5864,
      "▁சுப்ர": 5865,
      "▁குழை": 5866,
      "ுகளே": 5867,
      "்கிற": 5868,
      "▁கிலோ": 5869,
      "ையெடு": 5870,
      "களுக்": 5871,
      "▁தசை": 5872,
      "ட்சியை": 5873,
      "ிடவே": 5874,
      "▁பாஜக": 5875,
      "மாய்ச்": 5876,
      "ஜெர்": 5877,
      "▁ப்ரூ": 5878,
      "▁மஹி": 5879,
      "களினதும்": 5880,
      "▁காம்": 5881,
      "றுக்": 5882,
      "▁இராச": 5883,
      "சிகா": 5884,
      "ுநில": 5885,
      "்லே": 5886,
      "வனைக்": 5887,
      "▁எக்ஸ": 5888,
      "னையில்": 5889,
      "மகே": 5890,
      "்தோ": 5891,
      "ுநி": 5892,
      "மேஸ்வர": 5893,
      "விற்ப": 5894,
      "னரோ": 5895,
      "்களின்": 5896,
      "▁பொதி": 5897,
      "றப்": 5898,
      "ுமானால்": 5899,
      "ளுட": 5900,
      "▁செயற்பா": 5901,
      "▁காண்ப": 5902,
      "மையினை": 5903,
      "வீழ்": 5904,
      "▁தரவு": 5905,
      "கமி": 5906,
      "▁பாய": 5907,
      "சமய": 5908,
      "▁வரவேற்க": 5909,
      "ினாற்": 5910,
      "▁கேன்": 5911,
      "▁பாண": 5912,
      "▁சேரு": 5913,
      "ிடாத": 5914,
      "ோடா": 5915,
      "கரண": 5916,
      "வ்ஸ்": 5917,
      "ரமு": 5918,
      "▁அமா": 5919,
      "ாலில்": 5920,
      "டகை": 5921,
      "▁விபர": 5922,
      "க்ள": 5923,
      "ுநோய்": 5924,
      "ிராஜ": 5925,
      "________": 5926,
      "ுவருகிறது": 5927,
      "▁நிலைநா": 5928,
      "ுவல்": 5929,
      "▁ஸ்கூ": 5930,
      "▁ஆசு": 5931,
      "▁குல்": 5932,
      "▁தெளிவுபடு": 5933,
      "ியினை": 5934,
      "கொழு": 5935,
      "ால்கூட": 5936,
      "ிரவு": 5937,
      "ாச்": 5938,
      "இளை": 5939,
      "▁பெட்": 5940,
      "வளே": 5941,
      "▁தூர்": 5942,
      "படுகிற": 5943,
      "▁வேடி": 5944,
      "▁தம்ம": 5945,
      "ிவு": 5946,
      "விலான": 5947,
      "▁தூய்மை": 5948,
      "யணம்": 5949,
      "ளாறு": 5950,
      "டுவதற்": 5951,
      "▁யுவ": 5952,
      "▁காஸ்": 5953,
      "ளூரு": 5954,
      "▁வலைய": 5955,
      "வழியாக": 5956,
      "ஷிப்": 5957,
      "க்ரு": 5958,
      "ர்ஜி": 5959,
      "▁பளி": 5960,
      "மேலே": 5961,
      "▁ஊர": 5962,
      "▁க்ரி": 5963,
      "ட்சியா": 5964,
      "ரீஸ்": 5965,
      "▁கில": 5966,
      "ோள": 5967,
      "▁கண்ணு": 5968,
      "▁பயிர்": 5969,
      "மாகாண": 5970,
      "▁கண்ணாடி": 5971,
      "லாம": 5972,
      "ணாம்": 5973,
      "▁தரா": 5974,
      "▁சிறீ": 5975,
      "▁கையளி": 5976,
      "ுந்": 5977,
      "▁நலன்": 5978,
      "▁ரச": 5979,
      "▁தொகை": 5980,
      "▁படையெடு": 5981,
      "ரியதாக": 5982,
      "யாகக்": 5983,
      "றியிரு": 5984,
      "ஒவ்வொரு": 5985,
      "தற்கெ": 5986,
      "▁முறியடி": 5987,
      "ரீம்": 5988,
      "▁காலம்": 5989,
      "▁மேலோ": 5990,
      "▁ராமா": 5991,
      "காரர்": 5992,
      "▁ஹெட்": 5993,
      "உயிர்": 5994,
      "▁இலவச": 5995,
      "கையின்": 5996,
      "▁பண்ணு": 5997,
      "்கம்": 5998,
      "ினரால்": 5999,
      "▁கம": 6000,
      "ையிற": 6001,
      "வூர்": 6002,
      "▁சங்": 6003,
      "▁பிரசுரி": 6004,
      "தலாக": 6005,
      "நவீன": 6006,
      "ல்களின்": 6007,
      "புணர்": 6008,
      "ராவது": 6009,
      "ரட்": 6010,
      "வேசி": 6011,
      "▁சொரு": 6012,
      "பயண": 6013,
      "ில்கூட": 6014,
      "ுடனிரு": 6015,
      "காரிய": 6016,
      "காரா": 6017,
      "▁குமு": 6018,
      "தானால்": 6019,
      "▁முலை": 6020,
      "▁வெறிய": 6021,
      "▁அமீ": 6022,
      "தென்பதை": 6023,
      "▁தேவி": 6024,
      "▁தாம": 6025,
      "ையெனில்": 6026,
      "▁பேய": 6027,
      "களிலோ": 6028,
      "▁வேதன": 6029,
      "்டியிரு": 6030,
      "ள்கூட": 6031,
      "▁பண்ப": 6032,
      "▁வித்யா": 6033,
      "ிடுவோம்": 6034,
      "▁மாடு": 6035,
      "ஐடி": 6036,
      "▁உடற்": 6037,
      "ெளி": 6038,
      "▁களு": 6039,
      "ையுலக": 6040,
      "▁தகு": 6041,
      "வனுடைய": 6042,
      "சுறு": 6043,
      "▁மெள": 6044,
      "ஆறு": 6045,
      "வனாகி": 6046,
      "▁புடை": 6047,
      "▁காஷ்": 6048,
      "மஹ": 6049,
      "ாதாக": 6050,
      "▁அஹ்": 6051,
      "▁சாண": 6052,
      "▁பூர்வ": 6053,
      "்தொ": 6054,
      "▁பின": 6055,
      "சலை": 6056,
      "ிகழ்": 6057,
      "▁வென்": 6058,
      "▁டாக்ட": 6059,
      "ரியே": 6060,
      "ளனர்": 6061,
      "படுப": 6062,
      "▁வருமான": 6063,
      "▁பக்த": 6064,
      "ர்ப்": 6065,
      "▁பிட்": 6066,
      "▁ஆசிய": 6067,
      "மொரு": 6068,
      "▁ஊழ": 6069,
      "ஜெட்": 6070,
      "யிஸ்": 6071,
      "ஆரோ": 6072,
      "▁எண்ணெய்": 6073,
      "ம்மது": 6074,
      "ுபி": 6075,
      "▁சமுக": 6076,
      "வசம்": 6077,
      "ியாரு": 6078,
      "ிஷ்": 6079,
      "▁டவு": 6080,
      "▁ஜான": 6081,
      "கவல்": 6082,
      "பிரான்": 6083,
      "டுப்": 6084,
      "▁நெல்": 6085,
      "ி்": 6086,
      "▁கிய": 6087,
      "மையிலிரு": 6088,
      "மிட்": 6089,
      "▁எபி": 6090,
      "▁சுவி": 6091,
      "கமும்": 6092,
      "ாயோ": 6093,
      "கிக்": 6094,
      "ிரச": 6095,
      "யறை": 6096,
      "புராண": 6097,
      "மிதா": 6098,
      "▁பொழு": 6099,
      "ாளரு": 6100,
      "ியிடு": 6101,
      "பாரு": 6102,
      "இஸ்லாமிய": 6103,
      "▁ஊழல்": 6104,
      "▁க்ர": 6105,
      "மாத்": 6106,
      "ிடே": 6107,
      "நூறு": 6108,
      "▁கிர்": 6109,
      "ியிலே": 6110,
      "▁மீனா": 6111,
      "▁கிறிஸ்து": 6112,
      "ாலும்கூட": 6113,
      "▁உயிரு": 6114,
      "▁ஓலை": 6115,
      "ஸியா": 6116,
      "▁கொடூர": 6117,
      "ரோஸ்": 6118,
      "▁தடைய": 6119,
      "▁நிர்வகி": 6120,
      "பயனர்": 6121,
      "யுமே": 6122,
      "▁திகழ்": 6123,
      "றனர்": 6124,
      "▁மிஸ்": 6125,
      "ராஜு": 6126,
      "▁லவ்": 6127,
      "மெனில்": 6128,
      "ோடிரு": 6129,
      "ேறு": 6130,
      "பபட": 6131,
      "ைசா": 6132,
      "ராசி": 6133,
      "ின்மை": 6134,
      "ிசா": 6135,
      "ஆய்வு": 6136,
      "▁பொற்க": 6137,
      "ிருஷ்டி": 6138,
      "ர்வே": 6139,
      "▁மேலே": 6140,
      "▁உம்": 6141,
      "வரில்": 6142,
      "▁கேச": 6143,
      "▁சகல": 6144,
      "▁பிரபு": 6145,
      "▁பிரம்மா": 6146,
      "நகை": 6147,
      "லாயி": 6148,
      "▁சொத": 6149,
      "ப்ரல்": 6150,
      "்குத்": 6151,
      "ேள்": 6152,
      "சுப்": 6153,
      "னதும்": 6154,
      "ராவ்": 6155,
      "▁மகிழ": 6156,
      "ியதுடன்": 6157,
      "▁நின்": 6158,
      "கரோனா": 6159,
      "பனி": 6160,
      "மேனி": 6161,
      "உடை": 6162,
      "▁அக்னி": 6163,
      "▁பொதும": 6164,
      "▁டிக்": 6165,
      "▁ஸ்டை": 6166,
      "▁பீட": 6167,
      "▁ஓது": 6168,
      "ழுகு": 6169,
      "உரிமை": 6170,
      "கோபால": 6171,
      "▁விசா": 6172,
      "்டாய்": 6173,
      "ேயாக": 6174,
      "▁ஸம்": 6175,
      "மிஸ்": 6176,
      "ிதை": 6177,
      "▁தெளிவு": 6178,
      "ாததை": 6179,
      "டுகிறேன்": 6180,
      "▁உடல": 6181,
      "▁தாலி": 6182,
      "்லை": 6183,
      "▁குதூ": 6184,
      "▁பொறிய": 6185,
      "▁ப்ரே": 6186,
      "ென்பது": 6187,
      "தமு": 6188,
      "தையெ": 6189,
      "்னர்": 6190,
      "யினால்": 6191,
      "டுவேன்": 6192,
      "▁நிலைநிறு": 6193,
      "▁சான": 6194,
      "்கொ": 6195,
      "ல்கா": 6196,
      "▁நேய": 6197,
      "தற்குச்": 6198,
      "▁யார": 6199,
      "▁அயல்": 6200,
      "▁அலெக்": 6201,
      "னாரு": 6202,
      "டனு": 6203,
      "▁முதிய": 6204,
      "தோல்": 6205,
      "ஷ்டம்": 6206,
      "▁மாளி": 6207,
      "▁சாப்": 6208,
      "▁வேதி": 6209,
      "சர்வ": 6210,
      "▁காச": 6211,
      "சாம்": 6212,
      "வ்ஸ்கி": 6213,
      "ராமா": 6214,
      "ிடன்": 6215,
      "ிவெ": 6216,
      "▁நாற்ப": 6217,
      "ஈழ": 6218,
      "டுவதா": 6219,
      "▁மொய்": 6220,
      "னாகவே": 6221,
      "பாபா": 6222,
      "▁ஆனை": 6223,
      "லிகை": 6224,
      "கழி": 6225,
      "▁வலது": 6226,
      "ேயா": 6227,
      "சாமிய": 6228,
      "சாலா": 6229,
      "மேயா": 6230,
      "டுவதில்": 6231,
      "வுள": 6232,
      "▁சர்வதேச": 6233,
      "▁இளவர": 6234,
      "லிச": 6235,
      "▁காட": 6236,
      "டிகளை": 6237,
      "பிரதி": 6238,
      "சாரிய": 6239,
      "ுளா": 6240,
      "எதிர": 6241,
      "▁தெர்": 6242,
      "்ஸ்ட": 6243,
      "▁விரோத": 6244,
      "▁சீரிய": 6245,
      "ிலிய": 6246,
      "▁காரி": 6247,
      "ைவரு": 6248,
      "▁திர்": 6249,
      "களாவது": 6250,
      "▁நூலக": 6251,
      "▁விவகார": 6252,
      "▁ஆபீ": 6253,
      "▁சதா": 6254,
      "ென்ஸ்": 6255,
      "மாஸ்": 6256,
      "வதாகக்": 6257,
      "மிச": 6258,
      "▁நற்க": 6259,
      "ோகு": 6260,
      "திகளாக": 6261,
      "ிலாளி": 6262,
      "மையாலும்": 6263,
      "▁ங": 6264,
      "டுகிறீ": 6265,
      "▁ஒய்": 6266,
      "தரன்": 6267,
      "▁உலோக": 6268,
      "ையென்ப": 6269,
      "▁றா": 6270,
      "ைத": 6271,
      "▁ஜெப": 6272,
      "ூரா": 6273,
      "ட்ரிக்": 6274,
      "▁உடற்ப": 6275,
      "▁கொடை": 6276,
      "டியி": 6277,
      "தேயா": 6278,
      "ிமை": 6279,
      "▁ஸ்ட்ரா": 6280,
      "பிழை": 6281,
      "▁விஸ்வ": 6282,
      "ஜியின்": 6283,
      "யுடு": 6284,
      "▁தண்ணீர்": 6285,
      "▁சஹ": 6286,
      "▁தாரா": 6287,
      "ரூபா": 6288,
      "▁ரிஷ": 6289,
      "▁இயே": 6290,
      "▁வீணடி": 6291,
      "▁ண்": 6292,
      "தேவன்": 6293,
      "ஸ்திரி": 6294,
      "▁உபா": 6295,
      "▁முள்": 6296,
      "▁நாவல்": 6297,
      "▁தௌ": 6298,
      "டமும்": 6299,
      "▁மடை": 6300,
      "ூரைச்": 6301,
      "▁சரீ": 6302,
      "▁வருஷ": 6303,
      "ெரியா": 6304,
      "உயிர": 6305,
      "▁கதாபா": 6306,
      "▁யுனி": 6307,
      "யிலான": 6308,
      "பிழ": 6309,
      "கங்": 6310,
      "▁ரெய்": 6311,
      "்ஹ": 6312,
      "▁கௌரவ": 6313,
      "▁நாடாளு": 6314,
      "றதால": 6315,
      "கோல": 6316,
      "▁கர்ம": 6317,
      "வதிலிரு": 6318,
      "றியை": 6319,
      "ையுமா": 6320,
      "▁அகழ்": 6321,
      "யாதிரு": 6322,
      "சொற்": 6323,
      "தொடர்பு": 6324,
      "றையா": 6325,
      "▁கமெ": 6326,
      "▁திளை": 6327,
      "▁நற்ப": 6328,
      "சமான": 6329,
      "நினைவு": 6330,
      "▁முகா": 6331,
      "ன்க": 6332,
      "்றிய": 6333,
      "▁விவே": 6334,
      "▁ஜோதி": 6335,
      "புகை": 6336,
      "ாபாரி": 6337,
      "றிக்": 6338,
      "னடி": 6339,
      "▁ஃப்ரெ": 6340,
      "▁விசே": 6341,
      "ெறுவ": 6342,
      "▁கையே": 6343,
      "மோதி": 6344,
      "ிருந்": 6345,
      "லிப": 6346,
      "லவி": 6347,
      "▁அஸ": 6348,
      "ினராக": 6349,
      "ாதர": 6350,
      "யவ": 6351,
      "▁க்ள": 6352,
      "ூழ்": 6353,
      "சுக்": 6354,
      "கிறதே": 6355,
      "கிறாய்": 6356,
      "▁ரகசிய": 6357,
      "▁டால": 6358,
      "ப்ரே": 6359,
      "விதம்": 6360,
      "கையாக": 6361,
      "▁பொழ": 6362,
      "▁ஸ்டார்": 6363,
      "சுப": 6364,
      "விரை": 6365,
      "▁வழங்": 6366,
      "டைகளை": 6367,
      "▁சப்த": 6368,
      "▁ழு": 6369,
      "வளாய்": 6370,
      "▁ட்ரி": 6371,
      "▁ப்ளூ": 6372,
      "யார": 6373,
      "டெர்": 6374,
      "▁வரத": 6375,
      "ம்ல": 6376,
      "வுர": 6377,
      "படுவது": 6378,
      "ராட்": 6379,
      "ிற்கென": 6380,
      "▁நாளை": 6381,
      "▁நேரி": 6382,
      "ட்ரே": 6383,
      "பெல்": 6384,
      "▁பாடுப": 6385,
      "ீக": 6386,
      "ுனை": 6387,
      "▁பரிசோதனை": 6388,
      "ியம்மா": 6389,
      "வினுடைய": 6390,
      "▁ஸ்வர": 6391,
      "ேத்க": 6392,
      "▁கூறியு": 6393,
      "ிறாரே": 6394,
      "▁மட்": 6395,
      "ரசன்": 6396,
      "வக்": 6397,
      "புரோ": 6398,
      "மாடு": 6399,
      "விகளை": 6400,
      "▁தியே": 6401,
      "டைத்": 6402,
      "ஸிற்கு": 6403,
      "மியோ": 6404,
      "▁பேஸ்": 6405,
      "▁எளிய": 6406,
      "ையினால்": 6407,
      "லென": 6408,
      "ியலி": 6409,
      "▁வருண": 6410,
      "சைட்": 6411,
      "▁குனி": 6412,
      "ிகளால்": 6413,
      "▁மகர": 6414,
      "▁திருமா": 6415,
      "▁சீரமை": 6416,
      "னக்": 6417,
      "ேறிய": 6418,
      "▁மோர்": 6419,
      "வேணும்": 6420,
      "ையுமி": 6421,
      "▁கப": 6422,
      "ிதர்": 6423,
      "மானை": 6424,
      "மாகவிரு": 6425,
      "ஸ்டார்": 6426,
      "ாந": 6427,
      "றதும்": 6428,
      "▁ரூபா": 6429,
      "ஃஃ": 6430,
      "▁கறை": 6431,
      "ிரகா": 6432,
      "டாப்": 6433,
      "பக்ஷ": 6434,
      "▁கோஷ": 6435,
      "கற்": 6436,
      "டர": 6437,
      "▁நிழல்": 6438,
      "ரீதிய": 6439,
      "ப்ளே": 6440,
      "ஸைத்": 6441,
      "▁ஈடுபட": 6442,
      "்ஹா": 6443,
      "▁பிரயோ": 6444,
      "ோகிறேன்": 6445,
      "வயி": 6446,
      "ேயன்": 6447,
      "ூடக்": 6448,
      "ஊடக": 6449,
      "சமை": 6450,
      "ுமையான": 6451,
      "டனான": 6452,
      "ூடாகவே": 6453,
      "செவ்": 6454,
      "வராகக்": 6455,
      "ஸல்": 6456,
      "ாய்ப்": 6457,
      "மிடையிலான": 6458,
      "ூடா": 6459,
      "ஜம்": 6460,
      "ருத்": 6461,
      "சிடி": 6462,
      "ணய": 6463,
      "ோகுது": 6464,
      "▁துறைய": 6465,
      "கருணா": 6466,
      "▁பாடிய": 6467,
      "வப்": 6468,
      "ட்சியின்": 6469,
      "சாக்": 6470,
      "தியால்": 6471,
      "மாறன்": 6472,
      "▁சேன": 6473,
      "ளாகச்": 6474,
      "சித்": 6475,
      "ானவ": 6476,
      "ளாவது": 6477,
      "டமை": 6478,
      "யங்": 6479,
      "ிபுரம்": 6480,
      "சபா": 6481,
      "▁ஜை": 6482,
      "▁ஜெயலலிதா": 6483,
      "▁மேலு": 6484,
      "ரீன்": 6485,
      "வெண்": 6486,
      "ஐபி": 6487,
      "யுமான": 6488,
      "ையாளம்": 6489,
      "▁முதலமை": 6490,
      "உட்": 6491,
      "▁திருநா": 6492,
      "விப்": 6493,
      "▁இஸ்லா": 6494,
      "▁நினைவூ": 6495,
      "▁இலகு": 6496,
      "▁தரும": 6497,
      "தானிய": 6498,
      "ளாகவோ": 6499,
      "வனால்": 6500,
      "ுயிரு": 6501,
      "தினம்": 6502,
      "▁பாழ்": 6503,
      "டியிலிரு": 6504,
      "▁மின்சார": 6505,
      "ையுணர்": 6506,
      "தற்கோ": 6507,
      "ஜியோ": 6508,
      "மாகா": 6509,
      "ிதி": 6510,
      "▁னே": 6511,
      "▁பிரமி": 6512,
      "▁தியோ": 6513,
      "பெறுவ": 6514,
      "பாதை": 6515,
      "▁வெய்": 6516,
      "காலை": 6517,
      "கானிஸ்": 6518,
      "லத்": 6519,
      "ிகளைப்": 6520,
      "ினா்": 6521,
      "▁ஸ்க": 6522,
      "்செ": 6523,
      "ிராக": 6524,
      "ட்சம்": 6525,
      "▁திறமை": 6526,
      "புடைய": 6527,
      "ைய்": 6528,
      "▁இஷ்ட": 6529,
      "▁வருகிற": 6530,
      "தனா": 6531,
      "்ணை": 6532,
      "▁பணம்": 6533,
      "▁தாழ": 6534,
      "▁‘’": 6535,
      "இழ": 6536,
      "ர்ல": 6537,
      "▁ஒர": 6538,
      "மாப்": 6539,
      "▁ஊதிய": 6540,
      "ளத்": 6541,
      "வரது": 6542,
      "பாரத": 6543,
      "▁வளி": 6544,
      "▁களைய": 6545,
      "ொள்கிறேன்": 6546,
      "தரை": 6547,
      "▁வோல்": 6548,
      "ணர": 6549,
      "▁அஸ்த": 6550,
      "▁ஒட": 6551,
      "பிரிவு": 6552,
      "▁தலையா": 6553,
      "மேரி": 6554,
      "தீஸ்": 6555,
      "▁வேலு": 6556,
      "ூடி": 6557,
      "மேயி": 6558,
      "்கின்": 6559,
      "▁விநியோக": 6560,
      "▁பாராளு": 6561,
      "்லாத": 6562,
      "ையக": 6563,
      "ஸ்டின்": 6564,
      "துதானே": 6565,
      "பெய்": 6566,
      "ரஜினி": 6567,
      "ற்ச": 6568,
      "டெல்": 6569,
      "ரூபாய்": 6570,
      "ளிலோ": 6571,
      "டிப": 6572,
      "கனு": 6573,
      "▁ஆவி": 6574,
      "▁சூதா": 6575,
      "▁புருஷ": 6576,
      "▁ஆளுமை": 6577,
      "ஸ்ஸு": 6578,
      "ும்கூட": 6579,
      "▁வேட்பாள": 6580,
      "▁சுல்": 6581,
      "துவே": 6582,
      "டுவதே": 6583,
      "சாகி": 6584,
      "ிராஜ்": 6585,
      "ஹர": 6586,
      "தேதி": 6587,
      "ூண்": 6588,
      "நெறிய": 6589,
      "ட்யூ": 6590,
      "விஞ": 6591,
      "▁பசிய": 6592,
      "▁சதுர": 6593,
      "அய்": 6594,
      "▁நிபுண": 6595,
      "தவு": 6596,
      "பயிற்சி": 6597,
      "▁முஸ்லி": 6598,
      "▁வீண்": 6599,
      "▁ஸெ": 6600,
      "விஷய": 6601,
      "கிடை": 6602,
      "ுகிய": 6603,
      "▁டால்": 6604,
      "ரலி": 6605,
      "ணாம": 6606,
      "பெண்ண": 6607,
      "கற்ப": 6608,
      "▁உளவு": 6609,
      "▁டெல்": 6610,
      "▁பிரியா": 6611,
      "ூடன்": 6612,
      "நச": 6613,
      "▁கேரள": 6614,
      "திருவ": 6615,
      "ினன்": 6616,
      "றையை": 6617,
      "றெ": 6618,
      "குல்": 6619,
      "▁பரோ": 6620,
      "▁ராஜே": 6621,
      "வதார": 6622,
      "்டியெழு": 6623,
      "நாயகர்": 6624,
      "கோள்": 6625,
      "▁நாகரிக": 6626,
      "ஸ்ஸை": 6627,
      "ுவோர்": 6628,
      "சுப்ர": 6629,
      "▁பேணி": 6630,
      "▁்": 6631,
      "பிளே": 6632,
      "ூலி": 6633,
      "ொம்": 6634,
      "ாகவு": 6635,
      "▁தால்": 6636,
      "ளாஸ்": 6637,
      "னிலை": 6638,
      "ப்டோ": 6639,
      "வணிக": 6640,
      "▁கூடாது": 6641,
      "தாழ்": 6642,
      "▁இரட்சி": 6643,
      "▁இலட்சிய": 6644,
      "யிற": 6645,
      "லியின்": 6646,
      "▁எம்ம": 6647,
      "▁பயன்பா": 6648,
      "ிற்குட்ப": 6649,
      "ானார்": 6650,
      "ட்ரு": 6651,
      "ுபவம்": 6652,
      "▁புண்படு": 6653,
      "விலி": 6654,
      "▁பெட்ரோ": 6655,
      "▁இர்": 6656,
      "▁நாணய": 6657,
      "▁சசி": 6658,
      "▁ஆக்ஸ": 6659,
      "▁பிரயோகி": 6660,
      "▁ஒலிய": 6661,
      "தீக": 6662,
      "றுப": 6663,
      "▁கரா": 6664,
      "ோம்னு": 6665,
      "்டன்": 6666,
      "▁காழ்": 6667,
      "▁தின்": 6668,
      "ங்டன்": 6669,
      "▁பயிற்சிய": 6670,
      "ட்மெ": 6671,
      "▁லாம்": 6672,
      "▁சித்ர": 6673,
      "ஸ்டன்": 6674,
      "▁அமில": 6675,
      "▁நேரு": 6676,
      "▁பாரத": 6677,
      "ாஹ": 6678,
      "▁மிட": 6679,
      "அழ": 6680,
      "ுகளைச்": 6681,
      "▁எற": 6682,
      "▁ழ்": 6683,
      "ேஷன்": 6684,
      "▁பண்ணியிரு": 6685,
      "ன்ய": 6686,
      "கிளி": 6687,
      "மானதும்": 6688,
      "▁ை": 6689,
      "▁சரா": 6690,
      "▁எஜ": 6691,
      "ரியர்": 6692,
      "ததால்": 6693,
      "▁கையக": 6694,
      "▁மெல்": 6695,
      "ுவதுடன்": 6696,
      "ிலெடு": 6697,
      "டுகிறாள்": 6698,
      "ிநேர": 6699,
      "லேர்": 6700,
      "▁இயல்பு": 6701,
      "▁தயாராக": 6702,
      "▁ஸ்வீ": 6703,
      "ுவழி": 6704,
      "▁தாராள": 6705,
      "கொடி": 6706,
      "காலி": 6707,
      "யடு": 6708,
      "▁லட்சு": 6709,
      "கூடும்": 6710,
      "ோகிறோம்": 6711,
      "▁சீரா": 6712,
      "க்யூ": 6713,
      "தையொ": 6714,
      "ிய்": 6715,
      "கிற்கு": 6716,
      "ஆள்": 6717,
      "ிற்குமான": 6718,
      "ிகளா": 6719,
      "▁அகி": 6720,
      "ராகவோ": 6721,
      "▁க்ளோ": 6722,
      "▁ஜின்": 6723,
      "பௌ": 6724,
      "▁முகம்": 6725,
      "்கிறது": 6726,
      "துமா": 6727,
      "▁ஹன்": 6728,
      "▁கரோ": 6729,
      "நாவல்": 6730,
      "கில": 6731,
      "▁ரம்": 6732,
      "தியெ": 6733,
      "தாச": 6734,
      "ானதா": 6735,
      "டியம்": 6736,
      "தோஷ": 6737,
      "லோன்": 6738,
      "▁கொரோனா": 6739,
      "▁சாதன": 6740,
      "முமா": 6741,
      "ஐரோ": 6742,
      "ுதார": 6743,
      "றள்": 6744,
      "ிடுவேன்": 6745,
      "கிலோ": 6746,
      "ைகளாக": 6747,
      "▁சிபி": 6748,
      "ஸ்லா": 6749,
      "டாவில்": 6750,
      "ிரச்": 6751,
      "களாலேயே": 6752,
      "ென்ட்": 6753,
      "படவி": 6754,
      "ள்தாம்": 6755,
      "மையோ": 6756,
      "▁ஸ்த": 6757,
      "▁ங்": 6758,
      "▁மூழ்கி": 6759,
      "ொள்வதற்கு": 6760,
      "▁கணித": 6761,
      "தொழிற்": 6762,
      "▁கருணை": 6763,
      "பூரில்": 6764,
      "பிரியா": 6765,
      "ாயாக": 6766,
      "நன்": 6767,
      "▁ஜார்": 6768,
      "மையெ": 6769,
      "ியதற்காக": 6770,
      "ூடம்": 6771,
      "னுபவ": 6772,
      "▁குரை": 6773,
      "றதே": 6774,
      "ூறிய": 6775,
      "▁சுவீ": 6776,
      "▁சரணடை": 6777,
      "லறை": 6778,
      "▁சாது": 6779,
      "நம்ம": 6780,
      "▁நெளி": 6781,
      "▁லட்சிய": 6782,
      "▁பிரதான": 6783,
      "கிராம்": 6784,
      "ுறையின்": 6785,
      "வோமா": 6786,
      "குளோ": 6787,
      "னியர்": 6788,
      "▁மெது": 6789,
      "பனை": 6790,
      "பிமான": 6791,
      "ூரிலிரு": 6792,
      "ஜார்": 6793,
      "▁சறு": 6794,
      "▁நியு": 6795,
      "ய்த்": 6796,
      "பூரண": 6797,
      "▁அபா": 6798,
      "▁ஆக்சி": 6799,
      "வளின்": 6800,
      "▁கொர": 6801,
      "▁அச்": 6802,
      "▁ஸ்பீ": 6803,
      "ேசியா": 6804,
      "▁குட்": 6805,
      "ீழ்": 6806,
      "பவரு": 6807,
      "ிலாக": 6808,
      "▁விசுவ": 6809,
      "பேரில்": 6810,
      "▁துய": 6811,
      "▁ம்ம்": 6812,
      "ையோட": 6813,
      "சேரி": 6814,
      "நிறுவ": 6815,
      "▁திடு": 6816,
      "ிதான": 6817,
      "▁கழிவு": 6818,
      "புறம்": 6819,
      "வ்வு": 6820,
      "ிடுகி": 6821,
      "ெறிய": 6822,
      "ேயெ": 6823,
      "யப": 6824,
      "ாற்ப": 6825,
      "▁பொய்ய": 6826,
      "வதையே": 6827,
      "▁டிஜி": 6828,
      "பூஜை": 6829,
      "ிதிர": 6830,
      "ஷ்டா": 6831,
      "ினரா": 6832,
      "ைகு": 6833,
      "▁முற்படு": 6834,
      "லட்சுமி": 6835,
      "சலே": 6836,
      "▁மாது": 6837,
      "ஹெச்": 6838,
      "்ர்": 6839,
      "▁எறிய": 6840,
      "▁பூனை": 6841,
      "டோபர்": 6842,
      "▁பிரை": 6843,
      "ரிசி": 6844,
      "▁அலெ": 6845,
      "▁பாப்": 6846,
      "களுமான": 6847,
      "ஹாம்": 6848,
      "ுதலி": 6849,
      "[/": 6850,
      "▁உதாரண": 6851,
      "▁ஸோ": 6852,
      "ரேன்": 6853,
      "வமா": 6854,
      "▁ரூபாய்": 6855,
      "ய்ய்ய்ய்": 6856,
      "ியதோடு": 6857,
      "▁ஹெலி": 6858,
      "வழிபா": 6859,
      "ாதாரண": 6860,
      "வனுமான": 6861,
      "ொடை": 6862,
      "லயா": 6863,
      "ிசெ": 6864,
      "சாவின்": 6865,
      "▁நிலவு": 6866,
      "சௌ": 6867,
      "ிருஷ்ணன்": 6868,
      "▁இடர்": 6869,
      "ிற்காகவே": 6870,
      "்மா": 6871,
      "ாய்க்": 6872,
      "ுளு": 6873,
      "ுவழ": 6874,
      "ரைன்": 6875,
      "▁பயனு": 6876,
      "ஜித": 6877,
      "▁ஆளாக": 6878,
      "ஸ்தீ": 6879,
      "ியதற்கு": 6880,
      "ிபி": 6881,
      "ூள்": 6882,
      "ணமடை": 6883,
      "டிபி": 6884,
      "ஆதார": 6885,
      "▁அமிழ்": 6886,
      "▁நால்": 6887,
      "சாயன": 6888,
      "ுவோரு": 6889,
      "வருகிறது": 6890,
      "▁உருவக": 6891,
      "▁வழிய": 6892,
      "▁இலாப": 6893,
      "▁சிருஷ்டி": 6894,
      "மினா": 6895,
      "யுக": 6896,
      "ஸிங்": 6897,
      "▁புரூ": 6898,
      "லிம்": 6899,
      "▁ரஜ": 6900,
      "வரவே": 6901,
      "▁ஆத்ம": 6902,
      "▁மூழ்": 6903,
      "ம்மாவு": 6904,
      "▁பேட்": 6905,
      "▁சுழி": 6906,
      "▁கலைய": 6907,
      "்மை": 6908,
      "துப்": 6909,
      "ியெழு": 6910,
      "▁செடி": 6911,
      "மானாலும்": 6912,
      "டாதீ": 6913,
      "புர்": 6914,
      "லாகவே": 6915,
      "▁ஜாக்": 6916,
      "னிகா": 6917,
      "்களும்": 6918,
      "▁லியோ": 6919,
      "சமாக": 6920,
      "ிரபு": 6921,
      "வேளா": 6922,
      "ிறதி": 6923,
      "▁விகார": 6924,
      "டுவதுடன்": 6925,
      "ுழி": 6926,
      "ியினால்": 6927,
      "▁ஒண்ணு": 6928,
      "ைமா": 6929,
      "ிசாலி": 6930,
      "ற்கரை": 6931,
      "▁தசா": 6932,
      "டுகளு": 6933,
      "ையுங்": 6934,
      "▁குளிர": 6935,
      "களுட": 6936,
      "பரண": 6937,
      "▁ஞாய": 6938,
      "தியைப்": 6939,
      "மிமீ": 6940,
      "▁க்ரூ": 6941,
      "நாளில்": 6942,
      "ியுடைய": 6943,
      "▁தேய": 6944,
      "ையாகத்": 6945,
      "ருண": 6946,
      "பூன்": 6947,
      "ராதி": 6948,
      "ிவச": 6949,
      "ஷன்ஸ்": 6950,
      "யானை": 6951,
      "▁மீறி": 6952,
      "▁வேறெ": 6953,
      "செர்": 6954,
      "சியான": 6955,
      "ஆல": 6956,
      "▁விசால": 6957,
      "ேயொழிய": 6958,
      "தலைப்": 6959,
      "▁சோதன": 6960,
      "விசாரணை": 6961,
      "▁வெரு": 6962,
      "விருது": 6963,
      "ியாயி": 6964,
      "ுசா": 6965,
      "▁பரவ": 6966,
      "ஸ்டிர": 6967,
      "றுத்": 6968,
      "▁சாரு": 6969,
      "ணூ": 6970,
      "மாதா": 6971,
      "▁நிரா": 6972,
      "▁நிர்மாணி": 6973,
      "ாரனை": 6974,
      "்கூ": 6975,
      "▁காமா": 6976,
      "துடி": 6977,
      "விதமான": 6978,
      "தொடு": 6979,
      "ிகளைக்": 6980,
      "மானார்": 6981,
      "ூடான": 6982,
      "ினியா": 6983,
      "▁முர்": 6984,
      "கைப்": 6985,
      "▁கோட்பா": 6986,
      "மிரா": 6987,
      "ஸ்டிக்": 6988,
      "▁புன": 6989,
      "ுவதோடு": 6990,
      "டுவதைக்": 6991,
      "உள": 6992,
      "▁சிவன": 6993,
      "▁ப்ரு": 6994,
      "▁இரக": 6995,
      "ினர": 6996,
      "ெம்": 6997,
      "ெட": 6998,
      "உன": 6999,
      "▁குத": 7000,
      "ாசன": 7001,
      "▁பசுமை": 7002,
      "▁பாழ": 7003,
      "ஸ்கிருத": 7004,
      "வெய்": 7005,
      "▁அழிய": 7006,
      "ளமாக": 7007,
      "▁வழிவகு": 7008,
      "லால": 7009,
      "ையிடம்": 7010,
      "சிடம்": 7011,
      "▁உயிரின": 7012,
      "▁தக்": 7013,
      "▁ஊகி": 7014,
      "ட்ன": 7015,
      "ாமு": 7016,
      "▁எதிர்நோ": 7017,
      "கைகளை": 7018,
      "ாததாக": 7019,
      "ிருகி": 7020,
      "▁சக்திய": 7021,
      "▁கொழ": 7022,
      "ியெறி": 7023,
      "சூர": 7024,
      "▁பெயரி": 7025,
      "ப்தி": 7026,
      "▁ஊசி": 7027,
      "▁ஜாக": 7028,
      "ுசீ": 7029,
      "ெறும்": 7030,
      "▁வெண்க": 7031,
      "▁சாரா": 7032,
      "ோதோ": 7033,
      "▁க்ரா": 7034,
      "வராகத்": 7035,
      "காள": 7036,
      "ொள்வதை": 7037,
      "சிரு": 7038,
      "ிவே": 7039,
      "ையான்": 7040,
      "▁ரிலீ": 7041,
      "்யு": 7042,
      "▁வேலி": 7043,
      "ிரத்": 7044,
      "ையோர": 7045,
      "மார்ச்": 7046,
      "▁நுண்ணு": 7047,
      "னாவது": 7048,
      "▁ஆதரவளி": 7049,
      "மௌ": 7050,
      "்குக்": 7051,
      "களுமாக": 7052,
      "▁சிவரா": 7053,
      "ுவதிலும்": 7054,
      "ரிமா": 7055,
      "தாது": 7056,
      "தேவ்": 7057,
      "யிரம்": 7058,
      "நாடி": 7059,
      "லெஸ்": 7060,
      "சட": 7061,
      "ினூடே": 7062,
      "டியது": 7063,
      "▁தனியா": 7064,
      "▁யொ": 7065,
      "லுக": 7066,
      "▁ஏய்": 7067,
      "பாண": 7068,
      "▁ருத்ர": 7069,
      "ானுக": 7070,
      "▁ஒலிபர": 7071,
      "▁பொருளா": 7072,
      "▁மீட்": 7073,
      "▁செந்": 7074,
      "ரேல்": 7075,
      "ோகிறார்": 7076,
      "ஜீவி": 7077,
      "ரியான": 7078,
      "▁உயர்வு": 7079,
      "ரிச": 7080,
      "▁ரிக்": 7081,
      "பவு": 7082,
      "றடி": 7083,
      "மிது": 7084,
      "ேயர்": 7085,
      "▁குறியீ": 7086,
      "▁பிரசி": 7087,
      "ோரே": 7088,
      "▁டாப்": 7089,
      "▁எறு": 7090,
      "ாலுமே": 7091,
      "▁மாவோ": 7092,
      "நல்": 7093,
      "ற்கே": 7094,
      "மயமான": 7095,
      "▁நொடி": 7096,
      "▁ஸ்கே": 7097,
      "ொள்கிறது": 7098,
      "லுக்": 7099,
      "டோஸ்": 7100,
      "▁பித": 7101,
      "ாம்மா": 7102,
      "▁பினா": 7103,
      "▁ண்ண": 7104,
      "▁கவர": 7105,
      "▁உலை": 7106,
      "்வர": 7107,
      "ிபுர": 7108,
      "முதலாளி": 7109,
      "ாதிய": 7110,
      "வதனால்": 7111,
      "ரீதியான": 7112,
      "▁கோலி": 7113,
      "▁டிரான்": 7114,
      "▁பேத": 7115,
      "்காட்சி": 7116,
      "▁பரிசீலி": 7117,
      "ிடோ": 7118,
      "விசை": 7119,
      "்டின்": 7120,
      "▁மொழியா": 7121,
      "வனாகவே": 7122,
      "கிறதோ": 7123,
      "க்ள்": 7124,
      "தாமே": 7125,
      "▁ராய": 7126,
      "▁தத்": 7127,
      "டாவின்": 7128,
      "▁அய்யா": 7129,
      "▁காகித": 7130,
      "னியாக": 7131,
      "▁துரோக": 7132,
      "ோடே": 7133,
      "ாளாம்": 7134,
      "▁கையொ": 7135,
      "பூமி": 7136,
      "ன்ச": 7137,
      "▁மாற்": 7138,
      "மேட்": 7139,
      "▁பிலா": 7140,
      "ரூபவ்": 7141,
      "விசு": 7142,
      "்களில்": 7143,
      "▁வம்ச": 7144,
      "▁ரிஷி": 7145,
      "றதுல": 7146,
      "டஸ்": 7147,
      "துகொள்": 7148,
      "அச": 7149,
      "▁அமுத": 7150,
      "ைச": 7151,
      "ீசு": 7152,
      "ளரு": 7153,
      "▁ரௌ": 7154,
      "▁முழுமை": 7155,
      "ப்ரியா": 7156,
      "வுமான": 7157,
      "ைகளா": 7158,
      "▁ஜோடி": 7159,
      "மூகம்": 7160,
      "தயா": 7161,
      "ளினாலும்": 7162,
      "்திய": 7163,
      "ொடர்பு": 7164,
      "்ள்": 7165,
      "▁ஆகு": 7166,
      "ினுடையது": 7167,
      "ுமொழி": 7168,
      "▁சுபா": 7169,
      "▁கௌரவி": 7170,
      "ளியல்": 7171,
      "ிறவன்": 7172,
      "▁அமுல்படு": 7173,
      "▁நினைவுபடு": 7174,
      "பான்மைய": 7175,
      "மேயானால்": 7176,
      "மஹா": 7177,
      "க்ல": 7178,
      "ிரியை": 7179,
      "ியவள்": 7180,
      "▁ராய்": 7181,
      "ாரென": 7182,
      "▁அப்து": 7183,
      "டீஸ்": 7184,
      "ுடிய": 7185,
      "▁ஈன": 7186,
      "ின்ஸ்": 7187,
      "▁உரிமையாள": 7188,
      "▁ஃபர்": 7189,
      "டட்": 7190,
      "ண்பாடு": 7191,
      "ிறீர்": 7192,
      "ுரிய": 7193,
      "்தில்": 7194,
      "கொடை": 7195,
      "பெருமாள்": 7196,
      "யனு": 7197,
      "ல்கள": 7198,
      "ளிர்": 7199,
      "ஸார்": 7200,
      "▁ஸ்பை": 7201,
      "▁மோசடி": 7202,
      "ிகளுடன்": 7203,
      "லவே": 7204,
      "சன்ஸ்": 7205,
      "▁கைலா": 7206,
      "யொழிய": 7207,
      "ுகார": 7208,
      "ெய்வ": 7209,
      "▁மெகா": 7210,
      "▁ஷை": 7211,
      "▁ஸர்": 7212,
      "▁தரிசன": 7213,
      "தளம்": 7214,
      "ம்னா": 7215,
      "மாதம்": 7216,
      "மையோடு": 7217,
      "▁தொடரு": 7218,
      "விரா": 7219,
      "ுமுக": 7220,
      "▁மோகன்": 7221,
      "விவர": 7222,
      "வேளையில்": 7223,
      "▁உறுதியளி": 7224,
      "வூதிய": 7225,
      "▁ஊற": 7226,
      "வசதி": 7227,
      "▁படர்": 7228,
      "்ரே": 7229,
      "▁தோய்": 7230,
      "▁மேலை": 7231,
      "ானியா": 7232,
      "வும": 7233,
      "▁கண்ணோ": 7234,
      "தெய்": 7235,
      "▁துருவ": 7236,
      "வதாலும்": 7237,
      "றிரு": 7238,
      "▁அபே": 7239,
      "வினரு": 7240,
      "ியாகு": 7241,
      "▁விர்": 7242,
      "படியாக": 7243,
      "ன்படி": 7244,
      "▁பூஜை": 7245,
      "▁தேர": 7246,
      "▁பணியாள": 7247,
      "பாலான": 7248,
      "யிறு": 7249,
      "பாறை": 7250,
      "▁பொறாமை": 7251,
      "தியைக்": 7252,
      "வ்வ்வ்வ்": 7253,
      "ுமொ": 7254,
      "கிழமை": 7255,
      "விவ": 7256,
      "▁மிர்": 7257,
      "வுப்": 7258,
      "▁சூழல்": 7259,
      "பான்மை": 7260,
      "▁ரில": 7261,
      "▁பாகு": 7262,
      "▁சிம்ம": 7263,
      "த்ம": 7264,
      "▁ப்ளே": 7265,
      "பதா": 7266,
      "▁கோபுர": 7267,
      "ாததும்": 7268,
      "பாகம்": 7269,
      "▁ராச": 7270,
      "நலம்": 7271,
      "▁பாளைய": 7272,
      "▁பேசியிரு": 7273,
      "ெல்வ": 7274,
      "ஊர்": 7275,
      "்தீ": 7276,
      "உற்ப": 7277,
      "▁ஐயா": 7278,
      "▁முன்மொழி": 7279,
      "▁துஷ்": 7280,
      "லியன்": 7281,
      "மீற": 7282,
      "நலன்": 7283,
      "▁நிதான": 7284,
      "தியிலிரு": 7285,
      "மையைத்": 7286,
      "ாரப்": 7287,
      "▁வந்": 7288,
      "குறிய": 7289,
      "்மி": 7290,
      "▁தற்கால": 7291,
      "ேசு": 7292,
      "ாரனாக": 7293,
      "▁முதற்ப": 7294,
      "▁சிற்": 7295,
      "ுறையை": 7296,
      "▁பொம்": 7297,
      "▁பழுது": 7298,
      "டைன்": 7299,
      "▁தேக": 7300,
      "பாவின்": 7301,
      "நோயாளி": 7302,
      "▁மிட்": 7303,
      "டாம்": 7304,
      "பிரபு": 7305,
      "ியள்": 7306,
      "▁சாஸ்திர": 7307,
      "ோலா": 7308,
      "டோர்": 7309,
      "▁தாளி": 7310,
      "ஸ்ஸின்": 7311,
      "}}": 7312,
      "லாமி": 7313,
      "▁நிலையில்": 7314,
      "வலர்": 7315,
      "வுடனேயே": 7316,
      "▁ஸ்மார்ட்": 7317,
      "ஸஸ்": 7318,
      "வேதா": 7319,
      "▁நேரடி": 7320,
      "▁தண்ணீ": 7321,
      "▁சோள": 7322,
      "னிலும்": 7323,
      "▁ஐபி": 7324,
      "▁வரமா": 7325,
      "▁ஒப்": 7326,
      "தோழ": 7327,
      "வசன": 7328,
      "சைன்": 7329,
      "▁மூடு": 7330,
      "பதால்": 7331,
      "்றாட": 7332,
      "வீதம்": 7333,
      "கதி": 7334,
      "▁சதை": 7335,
      "▁கோரிய": 7336,
      "ரால": 7337,
      "▁ளே": 7338,
      "▁பிரசுர": 7339,
      "▁பயில": 7340,
      "விஷ்ணு": 7341,
      "ாரைப்": 7342,
      "▁இழிவுபடு": 7343,
      "▁வஜ்": 7344,
      "லாப": 7345,
      "க்ஷே": 7346,
      "ார்னு": 7347,
      "ஸ்ஸில்": 7348,
      "மிழை": 7349,
      "ஆய்": 7350,
      "ாயின": 7351,
      "டாதது": 7352,
      "கறி": 7353,
      "மகி": 7354,
      "னரும்": 7355,
      "▁ஸ்ரீர": 7356,
      "வரிடமிரு": 7357,
      "த்ரோ": 7358,
      "புட": 7359,
      "புள்": 7360,
      "▁படா": 7361,
      "நிற்க": 7362,
      "நிலம்": 7363,
      "்புடைய": 7364,
      "ூக": 7365,
      "சர்வதேச": 7366,
      "▁பெண்ணு": 7367,
      "வளைய": 7368,
      "ஜஸ்": 7369,
      "ஜியை": 7370,
      "▁ஊதி": 7371,
      "ுகளி": 7372,
      "ரன்ஸ்": 7373,
      "▁நுழைய": 7374,
      "இயல்": 7375,
      "கரம்": 7376,
      "ையையே": 7377,
      "▁பிரம": 7378,
      "▁தொழிற்ச": 7379,
      "ணிக்": 7380,
      "▁கலீ": 7381,
      "தொழிலாள": 7382,
      "களின்படி": 7383,
      "▁பேசியதாவது": 7384,
      "▁வளாக": 7385,
      "சைடு": 7386,
      "குலே": 7387,
      "கூறி": 7388,
      "மாகிப்": 7389,
      "▁இளி": 7390,
      "▁சமீப": 7391,
      "்கில்": 7392,
      "ிடுவது": 7393,
      "யாச": 7394,
      "தியாய்": 7395,
      "▁மையம்": 7396,
      "காண்": 7397,
      "மிதி": 7398,
      "ைவே": 7399,
      "▁விளையாடி": 7400,
      "மப்": 7401,
      "ிதே": 7402,
      "▁சினி": 7403,
      "▁சூழ்நிலை": 7404,
      "▁கைக": 7405,
      "▁இயல்ப": 7406,
      "லிப்": 7407,
      "ன்கோ": 7408,
      "▁தெர": 7409,
      "கைக்": 7410,
      "▁முணுமு": 7411,
      "வெல": 7412,
      "▁சக்ர": 7413,
      "▁தருண": 7414,
      "▁எதிரொலி": 7415,
      "▁உளு": 7416,
      "சுரம்": 7417,
      "ூடாதா": 7418,
      "ாவூர்": 7419,
      "பதே": 7420,
      "ஜய": 7421,
      "றியாத": 7422,
      "▁வேணு": 7423,
      "▁விகி": 7424,
      "▁படகு": 7425,
      "டுவதைப்": 7426,
      "▁மஹ்": 7427,
      "ுதலும்": 7428,
      "மேடை": 7429,
      "▁சலன": 7430,
      "டற": 7431,
      "யலாம்": 7432,
      "ம்தானே": 7433,
      "னேஷ்": 7434,
      "பியூ": 7435,
      "▁கம்ம": 7436,
      "ஆவது": 7437,
      "▁மசூ": 7438,
      "▁சாஸ்": 7439,
      "முனு": 7440,
      "ோகம்": 7441,
      "பிள்யூ": 7442,
      "▁ரக்": 7443,
      "ுடும்": 7444,
      "ரனு": 7445,
      "ையாகிய": 7446,
      "▁காரணம்": 7447,
      "மட்": 7448,
      "▁ஆபி": 7449,
      "▁வெட்": 7450,
      "▁பொருட்படு": 7451,
      "மீன": 7452,
      "▁தண்": 7453,
      "லட்சு": 7454,
      "▁கிறீ": 7455,
      "▁பாதை": 7456,
      "▁உரையாட": 7457,
      "ளினை": 7458,
      "▁பிது": 7459,
      "ஸ்ஸி": 7460,
      "▁ஆசிர்": 7461,
      "▁பயில்": 7462,
      "▁றோ": 7463,
      "லியு": 7464,
      "▁கோரு": 7465,
      "தாயினும்": 7466,
      "சோர்": 7467,
      "ஷனில்": 7468,
      "▁ரியா": 7469,
      "▁பேன்": 7470,
      "ழகி": 7471,
      "ுதிய": 7472,
      "வனைத்": 7473,
      "▁குறள்": 7474,
      "▁செயலாள": 7475,
      "விங்": 7476,
      "செக்": 7477,
      "மைன்": 7478,
      "▁சகு": 7479,
      "▁டிச": 7480,
      "▁ஜொலி": 7481,
      "▁கருதி": 7482,
      "▁திரிய": 7483,
      "வினி": 7484,
      "இலவச": 7485,
      "பக்தி": 7486,
      "படியான": 7487,
      "▁தெற்கு": 7488,
      "யலை": 7489,
      "ஸ்தல": 7490,
      "சோதா": 7491,
      "ுகில்": 7492,
      "ோனால்": 7493,
      "▁ஆசீர்வதி": 7494,
      "▁பெருமா": 7495,
      "ெனச்": 7496,
      "ியமி": 7497,
      "்றோ": 7498,
      "டாக்டர்": 7499,
      "▁கேடு": 7500,
      "ீஸ்வரர்": 7501,
      "▁இடமா": 7502,
      "ரினால்": 7503,
      "பூர்வமான": 7504,
      "▁விரிவுபடு": 7505,
      "லாவ": 7506,
      "ோக்": 7507,
      "ரெக்": 7508,
      "ுமாய்": 7509,
      "ிலன்": 7510,
      "இந்": 7511,
      "ல்கலை": 7512,
      "யராக": 7513,
      "சுழ": 7514,
      "படைய": 7515,
      "யரை": 7516,
      "ொய்": 7517,
      "உப": 7518,
      "தையி": 7519,
      "▁டிரெ": 7520,
      "▁மடு": 7521,
      "ிறோமா": 7522,
      "▁வேள்வி": 7523,
      "▁நரசி": 7524,
      "பவராக": 7525,
      "▁ஊடுரு": 7526,
      "தெடு": 7527,
      "ஸ்தை": 7528,
      "ஙகள": 7529,
      "செல்வம்": 7530,
      "▁தீபா": 7531,
      "▁தேவத": 7532,
      "டுகிறதா": 7533,
      "டர்ஸ்": 7534,
      "▁பேக்": 7535,
      "▁பிரசார": 7536,
      "ிற்காகப்": 7537,
      "டுத": 7538,
      "ளித": 7539,
      "ாணம்": 7540,
      "▁வேட்": 7541,
      "கோன்": 7542,
      "வேரி": 7543,
      "▁நியோ": 7544,
      "பிரயோக": 7545,
      "டைந்": 7546,
      "▁ஏரோ": 7547,
      "விகித": 7548,
      "வறி": 7549,
      "▁நோய": 7550,
      "▁உழு": 7551,
      "களைய": 7552,
      "▁பரிமாற": 7553,
      "ஹான": 7554,
      "மெனும்": 7555,
      "புரட்சி": 7556,
      "ஆலோ": 7557,
      "படவே": 7558,
      "மானின்": 7559,
      "▁காவிரி": 7560,
      "▁ஒழுக": 7561,
      "▁கூட்": 7562,
      "ிலிட": 7563,
      "ளமா": 7564,
      "▁மதுர": 7565,
      "▁பன்முக": 7566,
      "நெய்": 7567,
      "டாமை": 7568,
      "ளுமாக": 7569,
      "மமா": 7570,
      "னியல்": 7571,
      "▁துணைய": 7572,
      "ப்ரவரி": 7573,
      "தலைமை": 7574,
      "குடியே": 7575,
      "சுகாதார": 7576,
      "சாலையில்": 7577,
      "▁ஸ்டாலின்": 7578,
      "கோர": 7579,
      "▁தவ்": 7580,
      "▁காமி": 7581,
      "ுதான": 7582,
      "ளாதே": 7583,
      "▁சென": 7584,
      "▁யூகி": 7585,
      "யனா": 7586,
      "▁கஷ்": 7587,
      "ஜிக்": 7588,
      "ீசார்": 7589,
      "சுவின்": 7590,
      "சியஸ்": 7591,
      "சாட்சி": 7592,
      "▁லின்": 7593,
      "இளைஞ": 7594,
      "ஹாரி": 7595,
      "▁இகழ்": 7596,
      "ழுவின்": 7597,
      "பாகு": 7598,
      "்ஃ": 7599,
      "்சியை": 7600,
      "▁ட்யூ": 7601,
      "ோவ": 7602,
      "மெழு": 7603,
      "▁கைத": 7604,
      "றாய்": 7605,
      "▁பவி": 7606,
      "நாடாளு": 7607,
      "▁பண்ணை": 7608,
      "கழக": 7609,
      "ேணி": 7610,
      "▁பிதா": 7611,
      "த்ரிய": 7612,
      "▁நம்மை": 7613,
      "▁புனர்": 7614,
      "சியலமை": 7615,
      "▁உஷ": 7616,
      "▁பிரபாக": 7617,
      "▁டெய்": 7618,
      "பீர்": 7619,
      "ிடையிலும்": 7620,
      "வீன்": 7621,
      "▁மகள": 7622,
      "ரணம்": 7623,
      "ிகம்": 7624,
      "வராம்": 7625,
      "ியாகவோ": 7626,
      "தீப்": 7627,
      "▁உருமா": 7628,
      "ாலாம்": 7629,
      "ுமத": 7630,
      "விரத": 7631,
      "ளியை": 7632,
      "▁சாட்சி": 7633,
      "▁ஓய்வெடு": 7634,
      "முறி": 7635,
      "▁மம்": 7636,
      "றானு": 7637,
      "்பை": 7638,
      "ுனர்": 7639,
      "ுபெ": 7640,
      "▁பொருளு": 7641,
      "தொகை": 7642,
      "ராது": 7643,
      "சனில்": 7644,
      "ொருளை": 7645,
      "ொள்வ": 7646,
      "ிறதால": 7647,
      "▁பவள": 7648,
      "ளய": 7649,
      "▁லென": 7650,
      "தமை": 7651,
      "▁ஜால": 7652,
      "▁தாது": 7653,
      "▁சொல": 7654,
      "▁ஹம்": 7655,
      "இராணுவ": 7656,
      "னிச": 7657,
      "ுதோ": 7658,
      "சிகளை": 7659,
      "▁முகாம்": 7660,
      "யேறி": 7661,
      "வேதி": 7662,
      "ையிழ": 7663,
      "ணையை": 7664,
      "▁ஜெபி": 7665,
      "▁பிராண": 7666,
      "▁குற்": 7667,
      "றுகி": 7668,
      "▁யூரோ": 7669,
      "்கிறா": 7670,
      "▁மானிட": 7671,
      "▁ஆறுமுக": 7672,
      "வந்": 7673,
      "▁துரித": 7674,
      "▁கோடை": 7675,
      "▁லால்": 7676,
      "▁பொண்ணு": 7677,
      "லைகளை": 7678,
      "டில": 7679,
      "வயல்": 7680,
      "மொழிபெயர்": 7681,
      "ிரான்": 7682,
      "ஷ்ஷ": 7683,
      "▁நோயாளி": 7684,
      "▁மாறிய": 7685,
      "சியு": 7686,
      "▁மோனோ": 7687,
      "லினால்": 7688,
      "ஞா": 7689,
      "லாவது": 7690,
      "நது": 7691,
      "▁பதை": 7692,
      "▁ரெஸ்": 7693,
      "▁சகா": 7694,
      "ிரனை": 7695,
      "ுஅ": 7696,
      "ரேஷ்": 7697,
      "ிடுவ": 7698,
      "பர்ட்": 7699,
      "்னன்": 7700,
      "▁டோர்": 7701,
      "டாஸ்": 7702,
      "▁கொசு": 7703,
      "றிஞர்": 7704,
      "கதா": 7705,
      "முக்": 7706,
      "ப்டி": 7707,
      "▁வயல்": 7708,
      "ியாகச்": 7709,
      "▁ஆமா": 7710,
      "▁தொடை": 7711,
      "லேட்": 7712,
      "ீகார": 7713,
      "யாணம்": 7714,
      "ாவன": 7715,
      "திலு": 7716,
      "▁விரத": 7717,
      "▁துறைமுக": 7718,
      "▁கொய்": 7719,
      "▁வழிபாடு": 7720,
      "ாரத்": 7721,
      "ராயன்": 7722,
      "▁உட்கார": 7723,
      "்வள": 7724,
      "▁குகை": 7725,
      "ரயில்": 7726,
      "▁கின்": 7727,
      "▁எதிர்பா": 7728,
      "பூச": 7729,
      "ிடமா": 7730,
      "ிபா": 7731,
      "்வோ": 7732,
      "காரை": 7733,
      "ிடக்": 7734,
      "▁நன்மைய": 7735,
      "ஸன": 7736,
      "பாலு": 7737,
      "ளராக": 7738,
      "யெடு": 7739,
      "ாளும்": 7740,
      "யாவில்": 7741,
      "ள்இ": 7742,
      "ைம": 7743,
      "ர்ர்ர்ர்ர்ர்ர்ர்": 7744,
      "டிம": 7745,
      "ளித்": 7746,
      "உரி": 7747,
      "▁உலகம்": 7748,
      "னாகப்": 7749,
      "வம்ச": 7750,
      "▁பதற": 7751,
      "ிடப்": 7752,
      "வசி": 7753,
      "ஊரட": 7754,
      "ஹ்ஹ்": 7755,
      "▁கேர்": 7756,
      "காவில்": 7757,
      "ெனவே": 7758,
      "லமாக": 7759,
      "▁மயி": 7760,
      "்தின்": 7761,
      "ஜாதி": 7762,
      "▁மாவு": 7763,
      "ொள்வோம்": 7764,
      "லையோ": 7765,
      "ுவதைப்": 7766,
      "களினாலும்": 7767,
      "▁புர்": 7768,
      "▁இலட்ச": 7769,
      "▁முணுமுணு": 7770,
      "▁தரையிற": 7771,
      "ூச": 7772,
      "▁க்ளா": 7773,
      "ியுள்": 7774,
      "முன்பு": 7775,
      "ல்ட": 7776,
      "▁இமை": 7777,
      "கசி": 7778,
      "▁முதுகு": 7779,
      "ேக்": 7780,
      "▁மாதிர": 7781,
      "ன்ஸ": 7782,
      "▁விசேஷ": 7783,
      "திகளா": 7784,
      "ிகர": 7785,
      "்தால": 7786,
      "ியாளர்": 7787,
      "ீம்": 7788,
      "ட்களு": 7789,
      "களையுடைய": 7790,
      "ேத": 7791,
      "▁ஆலோசி": 7792,
      "ுசி": 7793,
      "▁பாா்": 7794,
      "கோஸ்": 7795,
      "ஆராய்": 7796,
      "▁ஊறு": 7797,
      "ஜெக்": 7798,
      "▁வருப": 7799,
      "னாத": 7800,
      "வனவ": 7801,
      "▁சொறி": 7802,
      "லாவில்": 7803,
      "ிநி": 7804,
      "ுகிறதா": 7805,
      "▁தாம்": 7806,
      "▁ராணி": 7807,
      "ட்சியாள": 7808,
      "நாதபுரம்": 7809,
      "▁சீட": 7810,
      "▁ராமக": 7811,
      "்னோ": 7812,
      "சனும்": 7813,
      "ஸ்கார": 7814,
      "நார்": 7815,
      "சிட்": 7816,
      "ப்ரெ": 7817,
      "ியமும்": 7818,
      "னிரு": 7819,
      "▁படமெடு": 7820,
      "▁ரஹ்": 7821,
      "டமிரு": 7822,
      "ாய்த்": 7823,
      "▁ஓல": 7824,
      "▁ஆணி": 7825,
      "▁ஆறா": 7826,
      "▁மயில": 7827,
      "▁ஜீவி": 7828,
      "▁முயற்": 7829,
      "மெர்": 7830,
      "தைகளை": 7831,
      "டிமை": 7832,
      "▁சதுர்": 7833,
      "▁உறுதிய": 7834,
      "ஷல்": 7835,
      "நின்": 7836,
      "▁துய்": 7837,
      "ரூர்": 7838,
      "ணப்": 7839,
      "ட்சியில்": 7840,
      "ியானா": 7841,
      "▁தொடா": 7842,
      "ோறும்": 7843,
      "வளும்": 7844,
      "பொய்": 7845,
      "ொழிலாள": 7846,
      "மதம்": 7847,
      "▁ஆபாச": 7848,
      "▁ஸ்டி": 7849,
      "கோவி": 7850,
      "டுமெ": 7851,
      "ரூம்": 7852,
      "▁ஒளிர்": 7853,
      "ணத்": 7854,
      "புகழ்": 7855,
      "எஸ்எஸ்": 7856,
      "பிரஸ்": 7857,
      "▁சுக்": 7858,
      "▁பயிர": 7859,
      "▁கிட்": 7860,
      "▁தடவி": 7861,
      "▁கண்ணிய": 7862,
      "ாடாக": 7863,
      "ூடச்": 7864,
      "▁தாக்": 7865,
      "▁பெருமூ": 7866,
      "்தாளர்": 7867,
      "▁உல்": 7868,
      "யாயிரு": 7869,
      "டாவு": 7870,
      "டுவதோடு": 7871,
      "ின்கீழ்": 7872,
      "▁தப்": 7873,
      "ைமு": 7874,
      "த்ஸ": 7875,
      "களும்கூட": 7876,
      "கிள்": 7877,
      "▁பஹ": 7878,
      "ிரதாய": 7879,
      "ோவில": 7880,
      "லியில்": 7881,
      "பக்த": 7882,
      "ணமி": 7883,
      "ிபர்": 7884,
      "களுக": 7885,
      "▁கவச": 7886,
      "காசு": 7887,
      "▁திவ்ய": 7888,
      "மூலமாக": 7889,
      "▁உக்": 7890,
      "துமாக": 7891,
      "▁வடு": 7892,
      "▁பட்ச": 7893,
      "▁பாடசாலை": 7894,
      "ியபடியே": 7895,
      "திசை": 7896,
      "▁ஆரு": 7897,
      "▁கூர": 7898,
      "ியையே": 7899,
      "ரமும்": 7900,
      "குர்ஆன்": 7901,
      "வதற்குப்": 7902,
      "நபி": 7903,
      "ிராணி": 7904,
      "▁சும்": 7905,
      "▁மயமா": 7906,
      "ுமையாக": 7907,
      "ேனெ": 7908,
      "த்ரீ": 7909,
      "வேற்": 7910,
      "னாவில்": 7911,
      "ராய்டு": 7912,
      "குரல்": 7913,
      "ிரவ": 7914,
      "்டவணை": 7915,
      "நிஷ": 7916,
      "எண்": 7917,
      "ள்தொகு": 7918,
      "மெனக்": 7919,
      "▁பரவி": 7920,
      "லுமே": 7921,
      "▁காரணமாக": 7922,
      "ோராக": 7923,
      "லட்": 7924,
      "ிற்கா": 7925,
      "▁பரவு": 7926,
      "▁நூல": 7927,
      "குடிய": 7928,
      "▁": 7929,
      "்": 7930,
      "ி": 7931,
      "ு": 7932,
      "ா": 7933,
      "க": 7934,
      "ர": 7935,
      "ம": 7936,
      "த": 7937,
      "ய": 7938,
      "ன": 7939,
      "ட": 7940,
      "ல": 7941,
      "ை": 7942,
      "ப": 7943,
      "வ": 7944,
      "ள": 7945,
      "ச": 7946,
      "ே": 7947,
      "ற": 7948,
      "ெ": 7949,
      "ோ": 7950,
      "ந": 7951,
      "ண": 7952,
      "ொ": 7953,
      "ூ": 7954,
      "ஸ": 7955,
      "ழ": 7956,
      "ீ": 7957,
      "­": 7958,
      "அ": 7959,
      "இ": 7960,
      "ஜ": 7961,
      "உ": 7962,
      "ஆ": 7963,
      "எ": 7964,
      "ஷ": 7965,
      "ஹ": 7966,
      "/": 7967,
      "ஒ": 7968,
      "ஃ": 7969,
      "ங": 7970,
      "[": 7971,
      "]": 7972,
      "ஏ": 7973,
      "`": 7974,
      "’": 7975,
      "ஊ": 7976,
      "_": 7977,
      "ஞ": 7978,
      "”": 7979,
      "ஐ": 7980,
      "‘": 7981,
      "ஈ": 7982,
      "“": 7983,
      "ஓ": 7984,
      "ௌ": 7985,
      "|": 7986,
      "–": 7987,
      "\\": 7988,
      "}": 7989,
      "{": 7990,
      "—": 7991,
      "‍": 7992,
      "»": 7993,
      "ஶ": 7994,
      "ä": 7995,
      "¢": 7996,
      "́": 7997,
      "·": 7998,
      "•": 7999
    },
    "merges": [
      "ன ்",
      "ி ய",
      "▁ ப",
      "ி ர",
      "▁ க",
      "ல ்",
      "ர ்",
      "▁ த",
      "▁ ச",
      "ா க",
      "த ு",
      "ை ய",
      "ட ு",
      "▁ ம",
      "ிர ு",
      "ி ரு",
      "▁ வ",
      "க ள",
      "ி ற",
      "ர ு",
      "ா ன",
      "க ்",
      "ஸ ்",
      "▁ ந",
      "ில ்",
      "ி ல்",
      "ப ்",
      "ள ்",
      "ும ்",
      "ு ம்",
      "ி ல",
      "ின ்",
      "ி ன்",
      "ி ன",
      "ம ா",
      "ட ்",
      "ட ி",
      "் க",
      "ர ி",
      "த ி",
      "த ்",
      "ர ா",
      "▁ அ",
      "வ ு",
      "▁ இ",
      "ய ்",
      "▁ உ",
      "ா ல",
      "வ ி",
      "ால ்",
      "ா ல்",
      "▁ ஆ",
      "ா ர",
      "ு க",
      "▁ எ",
      "ண ்",
      "ா த",
      "ார ்",
      "ா ர்",
      "▁க ு",
      "▁ கு",
      "ச ி",
      "ு வ",
      "ச ்",
      "ி ட",
      "ு ட",
      "் ட",
      "ல ா",
      "ம ை",
      "வ ே",
      "ல ை",
      "ான ்",
      "ா ன்",
      "ிய ா",
      "ி யா",
      "த ா",
      "க ு",
      "கள ை",
      "க ளை",
      "▁ம ு",
      "▁ மு",
      "ள ை",
      "ற ு",
      "▁வ ி",
      "▁ வி",
      "க ி",
      "ப ா",
      "்க ு",
      "் கு",
      "த ை",
      "ய ா",
      "ற ்",
      "▁ப ு",
      "▁ பு",
      "ட ை",
      "ம ு",
      "ப ு",
      "ல ி",
      "ள ி",
      "ம ி",
      "ூ ட",
      "கள ு",
      "க ளு",
      "மா க",
      "ம ாக",
      "மா ன",
      "ம ான",
      "ள ு",
      "▁ச ெ",
      "▁ செ",
      "ன ை",
      "▁ப ெ",
      "▁ பெ",
      "ற ி",
      "ழ ி",
      "ர ை",
      "▁ப ா",
      "▁ பா",
      "ம ே",
      "ச ு",
      "▁ ஜ",
      "க ா",
      "▁ ர",
      "கி ற",
      "க ிற",
      "ன ு",
      "▁ ஒ",
      "ழ ்",
      "தா க",
      "த ாக",
      "ரி ய",
      "ர ிய",
      "ண் ண",
      "ண ்ண",
      "ப ி",
      "ழ ு",
      "▁ ட",
      "ைய ா",
      "ை யா",
      "▁ப ிர",
      "▁பி ர",
      "▁ பிர",
      "▁க ா",
      "▁ கா",
      "▁ம ா",
      "▁ மா",
      "▁ச ு",
      "▁ சு",
      "▁ச ி",
      "▁ சி",
      "ன ி",
      "ன ா",
      "ேன ்",
      "ே ன்",
      "▁ப ொ",
      "▁ பொ",
      "▁க ொ",
      "▁ கொ",
      "ண ி",
      "மை ய",
      "ம ைய",
      "▁ ஹ",
      "ள ா",
      "▁த ு",
      "▁ து",
      "▁த ொ",
      "▁ தொ",
      "தி ய",
      "த ிய",
      "வ ர",
      "ச ா",
      "சி ய",
      "ச ிய",
      "டி ய",
      "ட ிய",
      "த ே",
      "த ற",
      "ில ிரு",
      "ிலி ரு",
      "ி லிரு",
      "ம ெ",
      "ய ி",
      "ிர ்",
      "ி ர்",
      "ந ா",
      "▁வ ெ",
      "▁ வெ",
      "▁ஸ ்",
      "▁ ஸ்",
      "வத ு",
      "வ து",
      "ர ோ",
      "▁க ோ",
      "▁ கோ",
      "ே ய",
      "ின ை",
      "ி னை",
      "ுட ன்",
      "ுடன ்",
      "ு டன்",
      "ங ்",
      "ிர ி",
      "ி ரி",
      "ல ு",
      "ப ெ",
      "▁ ய",
      "ட ா",
      "பட ு",
      "ப டு",
      "ிற ்கு",
      "ிற் கு",
      "ிற்க ு",
      "ி ற்கு",
      "ாம ்",
      "ா ம்",
      "ில ும்",
      "ிலு ம்",
      "ி லும்",
      "ற ை",
      "ோ ம்",
      "▁ச ா",
      "▁ சா",
      "ோட ு",
      "ோ டு",
      "ஷ ்",
      "▁ப ி",
      "▁ பி",
      "▁ப ே",
      "▁ பே",
      "▁ ல",
      "▁ந ா",
      "▁ நா",
      "ிய ிரு",
      "ியி ரு",
      "ி யிரு",
      "▁க ூ",
      "▁ கூ",
      "▁த ெ",
      "▁ தெ",
      "▁வ ே",
      "▁ வே",
      "தா ன",
      "த ான",
      "வ ்",
      "▁த ே",
      "▁ தே",
      "னர ்",
      "ன ர்",
      "ால ும்",
      "ாலு ம்",
      "ா லும்",
      "க ை",
      "▁ந ி",
      "▁ நி",
      "▁த ிரு",
      "▁தி ரு",
      "▁திர ு",
      "▁ திரு",
      "ச ை",
      "க ோ",
      "ைய ே",
      "ை யே",
      "வ ெ",
      "ூர ்",
      "ூ ர்",
      "வ ன",
      "ிர ா",
      "ி ரா",
      "ிய ை",
      "ி யை",
      "ைய ை",
      "ை யை",
      "டன ்",
      "ட ன்",
      "வ ோ",
      "ைய ில்",
      "ையி ல்",
      "ையில ்",
      "ை யில்",
      "ச ெ",
      "▁ம ே",
      "▁ மே",
      "த ொ",
      "▁ ஏ",
      "/ /",
      "வி ன்",
      "வின ்",
      "வ ின்",
      "ிற ்",
      "ி ற்",
      "▁த ி",
      "▁ தி",
      "▁த ா",
      "▁ தா",
      "▁க ி",
      "▁ கி",
      "ர ீ",
      "வ ீ",
      "லா ம்",
      "லாம ்",
      "ல ாம்",
      "கள ாக",
      "களா க",
      "க ளாக",
      "ம ோ",
      "ண ை",
      "த ெ",
      "ந ்",
      "கள ின்",
      "களி ன்",
      "களின ்",
      "க ளின்",
      "கள ில்",
      "களி ல்",
      "களில ்",
      "க ளில்",
      "▁ ஊ",
      "ிற து",
      "ிறத ு",
      "ி றது",
      "▁த ீ",
      "▁ தீ",
      "▁ர ா",
      "▁ ரா",
      "ிய ு",
      "ி யு",
      "ய ு",
      "ில ை",
      "ி லை",
      "வி ல்",
      "வில ்",
      "வ ில்",
      "▁க ே",
      "▁ கே",
      "▁ “",
      "கள ும்",
      "களு ம்",
      "க ளும்",
      "▁ `",
      "▁ ‘",
      "▁ம ெ",
      "▁ மெ",
      "வன ்",
      "வ ன்",
      "யி ரு",
      "யிர ு",
      "ய ிரு",
      "ாக ி",
      "ா கி",
      "▁ப ய",
      "▁ பய",
      "னு ம்",
      "ன ும்",
      "ிட ம்",
      "ி டம்",
      "து ம்",
      "த ும்",
      "ாய ்",
      "ா ய்",
      "ேய ே",
      "ே யே",
      "மு ம்",
      "ம ும்",
      "ுட ைய",
      "ுடை ய",
      "ு டைய",
      "ர ே",
      "▁வ ீ",
      "▁ வீ",
      "டை ய",
      "ட ைய",
      "ழ ை",
      "ப ே",
      "ா ள",
      "வ த",
      "▁ந ெ",
      "▁ நெ",
      "தற ்க",
      "தற் க",
      "த ற்க",
      "வர ு",
      "வ ரு",
      "ொ ரு",
      "ம ூ",
      "▁க ரு",
      "▁கர ு",
      "▁ கரு",
      "▁ ஃ",
      "கூ ட",
      "க ூட",
      "▁ப ூ",
      "▁ பூ",
      "ன் ப",
      "ன ்ப",
      "▁ ஷ",
      "தற ்கு",
      "தற்க ு",
      "தற் கு",
      "த ற்கு",
      "▁ம ூ",
      "▁ மூ",
      "ரா க",
      "ர ாக",
      "ொள ்",
      "ொ ள்",
      "ிற ்க",
      "ிற் க",
      "ி ற்க",
      "▁ ஈ",
      "ற் ப",
      "ற ்ப",
      "ிற ா",
      "ி றா",
      "யர ்",
      "ய ர்",
      "ெ ன",
      "▁ப ்",
      "▁ ப்",
      "ளா க",
      "ள ாக",
      "க ே",
      "டர ்",
      "ட ர்",
      "▁ச ீ",
      "▁ சீ",
      "ெட ு",
      "ெ டு",
      "ு ற",
      "ு ப",
      "ின ால்",
      "ினா ல்",
      "ினால ்",
      "ி னால்",
      "டு ம்",
      "ட ும்",
      "▁ ஓ",
      "ளி ன்",
      "ளின ்",
      "ள ின்",
      "ள ே",
      "தல ்",
      "த ல்",
      "▁த ோ",
      "▁ தோ",
      "த ோ",
      "ற் க",
      "ற ்க",
      "ைப ்",
      "ை ப்",
      "த ல",
      "மி ரு",
      "மிர ு",
      "ம ிரு",
      "றி ய",
      "ற ிய",
      "▁ச ே",
      "▁ சே",
      "ைக ்",
      "ை க்",
      "ளு ம்",
      "ள ும்",
      "ி க",
      "ில ு",
      "ி லு",
      "ோ க",
      "▁ந ிற",
      "▁நி ற",
      "▁ நிற",
      "மு க",
      "ம ுக",
      "▁க ை",
      "▁ கை",
      "▁ம ீ",
      "▁ மீ",
      "ல ே",
      "ம ீ",
      "ணர ்",
      "ண ர்",
      "ய ே",
      "தா ல்",
      "தால ்",
      "த ால்",
      "ாள ்",
      "ா ள்",
      "ாக ்",
      "ா க்",
      "▁ [",
      "ம் மா",
      "ம்ம ா",
      "ம ்மா",
      "ாத ு",
      "ா து",
      "ல க",
      "ஜ ்",
      "ட் சி",
      "ட்ச ி",
      "ட ்சி",
      "ஜ ி",
      "ன ே",
      "யி ல்",
      "யில ்",
      "ய ில்",
      "ரு ம்",
      "ர ும்",
      "ளி ல்",
      "ளில ்",
      "ள ில்",
      "ரம ்",
      "ர ம்",
      "ின ி",
      "ி னி",
      "ில ே",
      "ி லே",
      "தி ர்",
      "திர ்",
      "த ிர்",
      "ம ொ",
      "ச ே",
      "▁ம ி",
      "▁ மி",
      "த ீ",
      "▁ச ூ",
      "▁ சூ",
      "தி ர",
      "த ிர",
      "▁ ஸ",
      "▁ச ொ",
      "▁ சொ",
      "கா ர",
      "க ார",
      "ற ா",
      "ிய ாக",
      "ியா க",
      "ி யாக",
      "கி றது",
      "கிற து",
      "க ிறது",
      "▁ப ெரு",
      "▁பெ ரு",
      "▁பெர ு",
      "▁ பெரு",
      "▁/ /",
      "▁ //",
      "ுக ி",
      "ு கி",
      "ஸ் ட",
      "ஸ ்ட",
      "ெய ்",
      "ெ ய்",
      "ச ன",
      "பி ர",
      "ப ிர",
      "ொட ு",
      "ொ டு",
      "ரி ன்",
      "ரின ்",
      "ர ின்",
      "ண ா",
      "▁ ஐ",
      "ிய ோ",
      "ி யோ",
      "▁ம ொ",
      "▁ மொ",
      "த ன",
      "▁த ூ",
      "▁ தூ",
      "டு வ",
      "ட ுவ",
      "தி ரு",
      "திர ு",
      "த ிரு",
      "் ற",
      "ின ா",
      "ி னா",
      "▁ச ோ",
      "▁ சோ",
      "ல ோ",
      "▁ட ி",
      "▁ டி",
      "▁உ ரு",
      "▁உர ு",
      "▁ உரு",
      "ுக ்",
      "ு க்",
      "் ப",
      "▁வ ர",
      "▁ வர",
      "நி ல",
      "ந ில",
      "▁இ ய",
      "▁ இய",
      "ிய ில்",
      "ியி ல்",
      "ியில ்",
      "ி யில்",
      "ட ம்",
      "▁ந ே",
      "▁ நே",
      "▁வ ரு",
      "▁வர ு",
      "▁ வரு",
      "▁க ால",
      "▁கா ல",
      "▁ கால",
      "ந ி",
      "▁ப ர",
      "▁ பர",
      "ிய ின்",
      "ியி ன்",
      "ியின ்",
      "ி யின்",
      "ுக ிற",
      "ுகி ற",
      "ு கிற",
      "ா ய",
      "ள ோ",
      "ெ ய",
      "பட ி",
      "ப டி",
      "ைய ோ",
      "ை யோ",
      "ர ெ",
      "▁எ டு",
      "▁எட ு",
      "▁ எடு",
      "▁இ ர",
      "▁ இர",
      "▁க ல",
      "▁ கல",
      "▁க ொடு",
      "▁கொ டு",
      "▁கொட ு",
      "▁ கொடு",
      "கம ்",
      "க ம்",
      "கள ா",
      "க ளா",
      "ச ோ",
      "ய ோ",
      "ைத ்",
      "ை த்",
      "ன ோ",
      "ி த",
      "▁ப ரி",
      "▁பர ி",
      "▁ பரி",
      "▁க ெ",
      "▁ கெ",
      "ிக ்",
      "ி க்",
      "ம் ம",
      "ம ்ம",
      "▁த லை",
      "▁தல ை",
      "▁ தலை",
      "ல ம்",
      "▁க ்",
      "▁ க்",
      "ூட ிய",
      "ூடி ய",
      "ூ டிய",
      "▁வ ழ",
      "▁ வழ",
      "ச ீ",
      "▁ந ோ",
      "▁ நோ",
      "ப ூ",
      "ண ு",
      "ம ய",
      "ைய ு",
      "ை யு",
      "தி ல்",
      "தில ்",
      "த ில்",
      "ிட ு",
      "ி டு",
      "ட ோ",
      "▁அ மை",
      "▁அம ை",
      "▁ அமை",
      "தா னே",
      "தான ே",
      "த ானே",
      "ா ்",
      "ோ ல",
      "ென ்",
      "ெ ன்",
      "ான து",
      "ா னது",
      "ட் ச",
      "ட ்ச",
      "ரா ஜ",
      "ர ாஜ",
      "ப ட",
      "▁க ீ",
      "▁ கீ",
      "ப ொ",
      "ய ை",
      "ில ேயே",
      "ிலே யே",
      "ிலேய ே",
      "ி லேயே",
      "▁ச ிற",
      "▁சி ற",
      "▁ சிற",
      "தம ்",
      "த ம்",
      "▁ப ொரு",
      "▁பொ ரு",
      "▁ பொரு",
      "ய ூ",
      "க ூ",
      "ுப ்",
      "ு ப்",
      "யா க",
      "ய ாக",
      "ஹ ்",
      "ிர ை",
      "ி ரை",
      "▁இ ல",
      "▁ இல",
      "▁வ ிள",
      "▁வி ள",
      "▁ விள",
      "▁அ க",
      "▁ அக",
      "த ர",
      "▁ம ோ",
      "▁ மோ",
      "னி ய",
      "ன ிய",
      "ு ம",
      "ில ா",
      "ி லா",
      "க ொ",
      "ஸ் ட்",
      "ஸ்ட ்",
      "ஸ ்ட்",
      "ர ூ",
      "ஷ் ட",
      "ஷ ்ட",
      "ிய து",
      "ியத ு",
      "ி யது",
      "யி ன்",
      "யின ்",
      "ய ின்",
      "ைய ெ",
      "ை யெ",
      "சன ்",
      "ச ன்",
      "ைச ்",
      "ை ச்",
      "ைய ாக",
      "ையா க",
      "ை யாக",
      "வி ரு",
      "விர ு",
      "வ ிரு",
      "ப ீ",
      "▁ந ினை",
      "▁நி னை",
      "▁நின ை",
      "▁ நினை",
      "ைய ாள",
      "ையா ள",
      "ை யாள",
      "னி ன்",
      "ன ின்",
      "▁க ுறி",
      "▁கு றி",
      "▁குற ி",
      "▁ குறி",
      "தற ்காக",
      "தற்க ாக",
      "தற் காக",
      "த ற்காக",
      "டல ்",
      "ட ல்",
      "ிய ே",
      "ி யே",
      "▁ம ுக",
      "▁மு க",
      "▁ முக",
      "▁உ ய",
      "▁ உய",
      "ஃப ்",
      "ஃ ப்",
      "க ர",
      "▁வ ழி",
      "▁வழ ி",
      "▁ வழி",
      "் ல",
      "▁த ெரி",
      "▁தெ ரி",
      "▁தெர ி",
      "▁ தெரி",
      "▁ப ழ",
      "▁ பழ",
      "▁எ திர்",
      "▁எதி ர்",
      "▁எதிர ்",
      "▁ எதிர்",
      "தொ கு",
      "த ொகு",
      "வர ா",
      "வ ரா",
      "▁ர ி",
      "▁ ரி",
      "▁ட ெ",
      "▁ டெ",
      "ோர ்",
      "ோ ர்",
      "ஹ ா",
      "▁ந ில",
      "▁நி ல",
      "▁ நில",
      "ு ல",
      "ட ே",
      "▁அ ல",
      "▁ அல",
      "ண ம்",
      "ட் ப",
      "ட ்ப",
      "வ ல",
      "கர ்",
      "க ர்",
      "மா ய்",
      "மாய ்",
      "ம ாய்",
      "ரி ல்",
      "ரில ்",
      "ர ில்",
      "ைய ின்",
      "ையி ன்",
      "ையின ்",
      "ை யின்",
      "▁ப தி",
      "▁பத ி",
      "▁ பதி",
      "▁க ண",
      "▁ கண",
      "ின ர்",
      "ினர ்",
      "ி னர்",
      "ுர ு",
      "ு ரு",
      "றத ு",
      "ற து",
      "▁ப ால",
      "▁பா ல",
      "▁ பால",
      "கா ல",
      "க ால",
      "வர ி",
      "வ ரி",
      "ப ர",
      "க் ஸ்",
      "க்ஸ ்",
      "க ்ஸ்",
      "ப ை",
      "ஸ ி",
      "ச ூ",
      "டு கிற",
      "டுகி ற",
      "டுக ிற",
      "ட ுகிற",
      "ந ோ",
      "்ட ி",
      "் டி",
      "▁ச ெய",
      "▁செ ய",
      "▁ செய",
      "ளை ய",
      "ள ைய",
      "னா க",
      "ன ாக",
      "டு கி",
      "டுக ி",
      "ட ுகி",
      "ீர ்",
      "ீ ர்",
      "▁ப ுக",
      "▁பு க",
      "▁ புக",
      "▁இ ற",
      "▁ இற",
      "ிய ூ",
      "ி யூ",
      "நில ை",
      "நி லை",
      "ந ிலை",
      "வத ை",
      "வ தை",
      "▁ந ு",
      "▁ நு",
      "ழி ய",
      "ழ ிய",
      "ட ெ",
      "கள ே",
      "க ளே",
      "பா ல",
      "ப ால",
      "தல ை",
      "த லை",
      "ஜ ா",
      "கள ால்",
      "களா ல்",
      "க ளால்",
      "ான ா",
      "ா னா",
      "கள ைப்",
      "களை ப்",
      "க ளைப்",
      "▁ப ிரி",
      "▁பிர ி",
      "▁பி ரி",
      "▁ பிரி",
      "ணு ம்",
      "ண ும்",
      "▁ப ட",
      "▁ பட",
      "வி ன",
      "வ ின",
      "லு ம்",
      "ல ும்",
      "ட் சிய",
      "ட்சி ய",
      "ட்ச ிய",
      "ட ்சிய",
      "ான ே",
      "ா னே",
      "▁ப டி",
      "▁பட ி",
      "▁ படி",
      "▁ய ா",
      "▁ யா",
      "ிற ார்",
      "ிறா ர்",
      "ி றார்",
      "ார ா",
      "ா ரா",
      "மா ர்",
      "மார ்",
      "ம ார்",
      "▁ப த",
      "▁ பத",
      "ஷ ி",
      "ந ே",
      "னா ன",
      "ன ான",
      "▁த னி",
      "▁தன ி",
      "▁ தனி",
      "வர ாக",
      "வரா க",
      "வ ராக",
      "வு டன்",
      "வுட ன்",
      "வுடன ்",
      "வ ுடன்",
      "ரி யா",
      "ரிய ா",
      "ர ியா",
      "ஞ ்",
      "சா ர",
      "ச ார",
      "வல ்",
      "வ ல்",
      "பா டு",
      "பாட ு",
      "ப ாடு",
      "▁ப ண்ண",
      "▁பண ்ண",
      "▁பண் ண",
      "▁ பண்ண",
      "▁ப டு",
      "▁பட ு",
      "▁ படு",
      "கள ைக்",
      "களை க்",
      "க ளைக்",
      "் த",
      "▁ட ்",
      "▁ ட்",
      "ின ு",
      "ி னு",
      "▁க ார",
      "▁கா ர",
      "▁ கார",
      "்ச ி",
      "் சி",
      "ய ம்",
      "▁ப ீ",
      "▁ பீ",
      "வட ி",
      "வ டி",
      "ில ி",
      "ி லி",
      "பத ி",
      "ப தி",
      "ும ா",
      "ு மா",
      "▁ஸ் ரீ",
      "▁ஸ ்ரீ",
      "▁ ஸ்ரீ",
      "▁ம ுன்",
      "▁மு ன்",
      "▁முன ்",
      "▁ முன்",
      "▁ர ெ",
      "▁ ரெ",
      "ு த",
      "ஷன ்",
      "ஷ ன்",
      "சம ்",
      "ச ம்",
      "▁த ொழ",
      "▁தொ ழ",
      "▁ தொழ",
      "ோத ு",
      "ோ து",
      "வி ர",
      "வ ிர",
      "் ன",
      "லி ல்",
      "ல ில்",
      "பர ்",
      "ப ர்",
      "ஷ ா",
      "வ ம்",
      "ிட ி",
      "ி டி",
      "ில ோ",
      "ி லோ",
      "ுவ து",
      "ுவத ு",
      "ு வது",
      "▁ஜ ெ",
      "▁ ஜெ",
      "▁இ ட",
      "▁ இட",
      "▁த ர",
      "▁ தர",
      "ளர ்",
      "ள ர்",
      "கள ுடன்",
      "களு டன்",
      "களுட ன்",
      "க ளுடன்",
      "▁` `",
      "▁ ``",
      "▁க ுறை",
      "▁கு றை",
      "▁குற ை",
      "▁ குறை",
      "நா ய",
      "ந ாய",
      "ார ு",
      "ா ரு",
      "மி ட",
      "ம ிட",
      "ைய ி",
      "ை யி",
      "லா க",
      "ல ாக",
      "ு ர",
      "ோ ட",
      "▁உ று",
      "▁உற ு",
      "▁ உறு",
      "ந ெ",
      "▁த ொட",
      "▁தொ ட",
      "▁ தொட",
      "▁ப ண",
      "▁ பண",
      "டு ப",
      "ட ுப",
      "ல ெ",
      "▁ஆ ர்",
      "▁ஆர ்",
      "▁ ஆர்",
      "▁க ுழ",
      "▁கு ழ",
      "▁ குழ",
      "ள ம்",
      "ிட மிரு",
      "ி டமிரு",
      "ுத ்",
      "ு த்",
      "மா கி",
      "மாக ி",
      "ம ாகி",
      "▁ந ிர",
      "▁நி ர",
      "▁ நிர",
      "மட ை",
      "ம டை",
      "▁ {",
      "சா ல",
      "ச ால",
      "ிய ம்",
      "ி யம்",
      "▁த ீர்",
      "▁தீ ர்",
      "▁தீர ்",
      "▁ தீர்",
      "▁வ ிரு",
      "▁வி ரு",
      "▁விர ு",
      "▁ விரு",
      "தற ்",
      "த ற்",
      "் வ",
      "▁த ிற",
      "▁தி ற",
      "▁ திற",
      "▁ப ுற",
      "▁பு ற",
      "▁ புற",
      "தா ர",
      "த ார",
      "ஸ் வர",
      "ஸ்வ ர",
      "ஸ ்வர",
      "ாக வே",
      "ா கவே",
      "▁அ ல்",
      "▁அல ்",
      "▁ அல்",
      "தா ம்",
      "த ாம்",
      "ால ே",
      "ா லே",
      "ாட ு",
      "ா டு",
      "பு ர",
      "ப ுர",
      "யா ன",
      "ய ான",
      "ப ய",
      "லி ன்",
      "லின ்",
      "ல ின்",
      "ட் ஸ்",
      "ட்ஸ ்",
      "ட ்ஸ்",
      "ஞா ன",
      "ஞ ான",
      "▁த ொடர்",
      "▁தொ டர்",
      "▁தொட ர்",
      "▁தொடர ்",
      "▁ தொடர்",
      "ழ க",
      "ா வ",
      "டா த",
      "ட ாத",
      "▁க ிர",
      "▁கி ர",
      "▁ கிர",
      "ோல ்",
      "ோ ல்",
      "▁ந ிலை",
      "▁நி லை",
      "▁நில ை",
      "▁ நிலை",
      "▁ந ூ",
      "▁ நூ",
      "ிய ான",
      "ியா ன",
      "ி யான",
      "ா ட",
      "சர ்",
      "ச ர்",
      "ற் கு",
      "ற்க ு",
      "ற ்கு",
      "ின ும்",
      "ினு ம்",
      "ி னும்",
      "ன ம்",
      "யா த",
      "ய ாத",
      "ிப ்",
      "ி ப்",
      "▁ப ொது",
      "▁பொ து",
      "▁ பொது",
      "▁ந ிக",
      "▁நி க",
      "▁ நிக",
      "ார ி",
      "ா ரி",
      "▁த ேர்",
      "▁தே ர்",
      "▁தேர ்",
      "▁ தேர்",
      "்ட து",
      "் டது",
      "▁ர ு",
      "▁ ரு",
      "மி ய",
      "ம ிய",
      "ணை ய",
      "ண ைய",
      "▁ல ா",
      "▁ லா",
      "▁ச ெல்",
      "▁செ ல்",
      "▁செல ்",
      "▁ செல்",
      "கை ய",
      "க ைய",
      "ஸ் ஸ",
      "ஸ ்ஸ",
      "ரா ன",
      "ர ான",
      "▁உ ணர்",
      "▁உண ர்",
      "▁உணர ்",
      "▁ உணர்",
      "ரன ்",
      "ர ன்",
      "▁க ுரு",
      "▁கு ரு",
      "▁குர ு",
      "▁ குரு",
      "லி ய",
      "ல ிய",
      "நி ற",
      "ந ிற",
      "▁ம ்",
      "▁ ம்",
      "▁ர ாஜ",
      "▁ரா ஜ",
      "▁ ராஜ",
      "மெ ன",
      "ம ென",
      "வழ ி",
      "வ ழி",
      "த ூ",
      "ுக ள",
      "ு கள",
      "▁ப டை",
      "▁பட ை",
      "▁ படை",
      "ட க",
      "்த ு",
      "் து",
      "▁இ ரா",
      "▁இர ா",
      "▁ இரா",
      "ெ ரு",
      "▁எ ழு",
      "▁எழ ு",
      "▁ எழு",
      "▁ம த",
      "▁ மத",
      "கி றா",
      "கிற ா",
      "க ிறா",
      "தன ை",
      "த னை",
      "வத ி",
      "வ தி",
      "ுக ளை",
      "ுகள ை",
      "ு களை",
      "்ற ு",
      "் று",
      "வன ு",
      "வ னு",
      "▁க ண்ண",
      "▁கண ்ண",
      "▁கண் ண",
      "▁ கண்ண",
      "▁ந ிறை",
      "▁நி றை",
      "▁நிற ை",
      "▁ நிறை",
      "க ல",
      "▁எ ண்ண",
      "▁எண் ண",
      "▁ எண்ண",
      "▁க ார்",
      "▁கா ர்",
      "▁கார ்",
      "▁ கார்",
      "னா ல்",
      "னால ்",
      "ன ால்",
      "ொ ட",
      "▁ந ிர்",
      "▁நி ர்",
      "▁நிர ்",
      "▁ நிர்",
      "ளி ய",
      "ள ிய",
      "ுட னும்",
      "ுடன ும்",
      "ு டனும்",
      "ர ண",
      "வி ல",
      "வ ில",
      "ண் ப",
      "ண ்ப",
      "ளை ப்",
      "ள ைப்",
      "▁உ ண",
      "▁ உண",
      "வத ாக",
      "வதா க",
      "வ தாக",
      "ஸ் த",
      "ஸ ்த",
      "▁ச ிவ",
      "▁சி வ",
      "▁ சிவ",
      "மூ க",
      "ம ூக",
      "ளா ல்",
      "ளால ்",
      "ள ால்",
      "ான ு",
      "ா னு",
      "▁ய ோ",
      "▁ யோ",
      "▁த ிர",
      "▁தி ர",
      "▁ திர",
      "▁த வ",
      "▁ தவ",
      "எ ஸ்",
      "▁க லை",
      "▁கல ை",
      "▁ கலை",
      "மொ ழி",
      "மொழ ி",
      "ம ொழி",
      "▁ப யன்",
      "▁பய ன்",
      "▁பயன ்",
      "▁ பயன்",
      "▁க ிட",
      "▁கி ட",
      "▁ கிட",
      "▁ல ி",
      "▁ லி",
      "ுர ை",
      "ு ரை",
      "ரா ய்",
      "ராய ்",
      "ர ாய்",
      "▁உ ட",
      "▁ உட",
      "ின ார்",
      "ினா ர்",
      "ி னார்",
      "சி யா",
      "சிய ா",
      "ச ியா",
      "▁இ ணை",
      "▁இண ை",
      "▁ இணை",
      "▁க ுடு",
      "▁கு டு",
      "▁குட ு",
      "▁ குடு",
      "▁ர ோ",
      "▁ ரோ",
      "▁உ ட்",
      "▁உட ்",
      "▁ உட்",
      "▁ப ொறு",
      "▁பொ று",
      "▁பொற ு",
      "▁ பொறு",
      "] ]",
      "▁ச ர்",
      "▁சர ்",
      "▁ சர்",
      "ிய ல்",
      "ியல ்",
      "ி யல்",
      "நா த",
      "ந ாத",
      "ந ு",
      "ேர ்",
      "ே ர்",
      "ிற ்காக",
      "ிற் காக",
      "ிற்க ாக",
      "ிற்கா க",
      "ி ற்காக",
      "கா ர்",
      "கார ்",
      "க ார்",
      "▁வ ய",
      "▁ வய",
      "க் ஷ",
      "க ்ஷ",
      "ுக ு",
      "ு கு",
      "ிற ேன்",
      "ிறே ன்",
      "ி றேன்",
      "▁க ுடி",
      "▁கு டி",
      "▁குட ி",
      "▁ குடி",
      "ன் ஸ்",
      "ன்ஸ ்",
      "ன ்ஸ்",
      "ெழ ு",
      "ெ ழு",
      "▁ம தி",
      "▁மத ி",
      "▁ மதி",
      "வள ்",
      "வ ள்",
      "ா ம",
      "▁ப ாதி",
      "▁பா தி",
      "▁பாத ி",
      "▁ பாதி",
      "கி ர",
      "க ிர",
      "ுச ்",
      "ு ச்",
      "▁க ர்",
      "▁கர ்",
      "▁ கர்",
      "மை யை",
      "மைய ை",
      "ம ையை",
      "படி ய",
      "பட ிய",
      "ப டிய",
      "வ ள",
      "▁ச ை",
      "▁ சை",
      "▁வ ில",
      "▁வி ல",
      "▁ வில",
      "தர ்",
      "த ர்",
      "வ ச",
      "▁ ற",
      "ஸ ா",
      "▁க ள",
      "▁ கள",
      "ன ெ",
      "ஹ ி",
      "ந ூ",
      "ரி ட",
      "ர ிட",
      "வன ை",
      "வ னை",
      "தற ்கான",
      "தற்க ான",
      "தற் கான",
      "த ற்கான",
      "▁ப ுர",
      "▁பு ர",
      "▁ புர",
      "ஸ ு",
      "மா னது",
      "மான து",
      "ம ானது",
      "▁வ ிர",
      "▁வி ர",
      "▁ விர",
      "க ீ",
      "ளை க்",
      "ள ைக்",
      "ோ ன",
      "வ ழ",
      "ரா ய",
      "ர ாய",
      "்ப டு",
      "்பட ு",
      "் படு",
      "▁அ ழி",
      "▁அழ ி",
      "▁ அழி",
      "ாத ே",
      "ா தே",
      "▁ப ை",
      "▁ பை",
      "ுக ளு",
      "ுகள ு",
      "ு களு",
      "▁வ டி",
      "▁வட ி",
      "▁ வடி",
      "று ம்",
      "ற ும்",
      "க ன",
      "ெல ்",
      "ெ ல்",
      "சு வ",
      "ச ுவ",
      "▁ப ுல",
      "▁பு ல",
      "▁ புல",
      "கர ு",
      "க ரு",
      "தை ப்",
      "த ைப்",
      "ா ண",
      "பா ர",
      "ப ார",
      "▁க ூற",
      "▁கூ ற",
      "▁ கூற",
      "ுற ை",
      "ு றை",
      "சா ர்",
      "சார ்",
      "ச ார்",
      "மை யா",
      "மைய ா",
      "ம ையா",
      "வத ற்கு",
      "வதற் கு",
      "வதற்க ு",
      "வ தற்கு",
      "▁வ ீர",
      "▁வீ ர",
      "▁ வீர",
      "\\ \\",
      "ிய ன்",
      "ியன ்",
      "ி யன்",
      "கள ைத்",
      "களை த்",
      "க ளைத்",
      "லை ய",
      "ல ைய",
      "ஸ ை",
      "▁ப ணி",
      "▁பண ி",
      "▁ பணி",
      "ுள ்",
      "ு ள்",
      "கி ழ்",
      "கிழ ்",
      "க ிழ்",
      "ிற ீ",
      "ி றீ",
      "ால ோ",
      "ா லோ",
      "ட ீ",
      "்ப ு",
      "் பு",
      "▁ப ார",
      "▁பா ர",
      "▁ பார",
      "▁[ [",
      "▁ [[",
      "ோடு ம்",
      "ோட ும்",
      "ோ டும்",
      "▁க ிள",
      "▁கி ள",
      "▁ கிள",
      "▁ச ுய",
      "▁சு ய",
      "▁ சுய",
      "▁ய ூ",
      "▁ யூ",
      "ச ர",
      "ல ீ",
      "ுட ை",
      "ு டை",
      "▁க ன",
      "▁ கன",
      "்ட ா",
      "் டா",
      "க ப்",
      "கன ்",
      "க ன்",
      "டி யா",
      "டிய ா",
      "ட ியா",
      "்க ா",
      "் கா",
      "▁உ ள்",
      "▁உள ்",
      "▁ உள்",
      "▁இ ள",
      "▁ இள",
      "ுவ ரு",
      "ுவர ு",
      "ு வரு",
      "ளு டன்",
      "ளுட ன்",
      "ள ுடன்",
      "ய் ய",
      "ய ்ய",
      "ழு து",
      "ழ ுது",
      "மி ன்",
      "மின ்",
      "ம ின்",
      "▁ப ாட",
      "▁பா ட",
      "▁ பாட",
      "▁ப ்ர",
      "▁ப் ர",
      "▁ ப்ர",
      "தே ச",
      "த ேச",
      "தை ய",
      "த ைய",
      "ி ஸ்",
      "ஸி ன்",
      "ஸ ின்",
      "▁உ ற",
      "▁ உற",
      "▁ம ை",
      "▁ மை",
      "ஜ ூ",
      "▁ச ம",
      "▁ சம",
      "யி ர",
      "ய ிர",
      "▁ப ுரி",
      "▁பு ரி",
      "▁புர ி",
      "▁ புரி",
      "▁க ாண",
      "▁கா ண",
      "▁ காண",
      "▁உ ப",
      "▁ உப",
      "ாத ி",
      "ா தி",
      "ஃ ப",
      "வன ாக",
      "வனா க",
      "வ னாக",
      "தி யா",
      "திய ா",
      "த ியா",
      "▁ந ிகழ்",
      "▁நிக ழ்",
      "▁நிகழ ்",
      "▁ நிகழ்",
      "ரு வ",
      "ர ுவ",
      "மத ி",
      "ம தி",
      "▁ட ை",
      "▁ டை",
      "▁ம ுழு",
      "▁மு ழு",
      "▁முழ ு",
      "▁ முழு",
      "தை க்",
      "த ைக்",
      "கர ி",
      "க ரி",
      "▁ஒ ளி",
      "▁ஒள ி",
      "▁ ஒளி",
      "▁அ ம்",
      "▁அம ்",
      "▁ அம்",
      "ிட ையே",
      "ிடை யே",
      "ிடைய ே",
      "ி டையே",
      "்ஸ ்",
      "் ஸ்",
      "னி ல்",
      "னில ்",
      "ன ில்",
      "க் தி",
      "க்த ி",
      "க ்தி",
      "ணி ய",
      "ண ிய",
      "ளா ன",
      "ள ான",
      "ிரு ஷ்",
      "▁ம ாத",
      "▁மா த",
      "▁ மாத",
      "யன ்",
      "ய ன்",
      "▁ந ாக",
      "▁நா க",
      "▁ நாக",
      "▁ஹ ெ",
      "▁ ஹெ",
      "கள ிலும்",
      "களி லும்",
      "களில ும்",
      "களிலு ம்",
      "க ளிலும்",
      "வே ன்",
      "வ ேன்",
      "ரா ம்",
      "ராம ்",
      "ர ாம்",
      "▁ ன",
      "ற ே",
      "▁க ர",
      "▁ கர",
      "று வ",
      "ற ுவ",
      "▁ர ்",
      "▁ ர்",
      "▁ந ிறு",
      "▁நி று",
      "▁நிற ு",
      "▁ நிறு",
      "யி ல",
      "ய ில",
      "து டன்",
      "த ுடன்",
      "ளா ம்",
      "ள ாம்",
      "ப் ர",
      "ப ்ர",
      "மெ ன்",
      "மென ்",
      "ம ென்",
      "ாவ ு",
      "ா வு",
      "மா யிரு",
      "மாயி ரு",
      "மாய ிரு",
      "ம ாயிரு",
      "▁ய ு",
      "▁ யு",
      "கி றார்",
      "கிற ார்",
      "கிறா ர்",
      "க ிறார்",
      "▁ச ாத",
      "▁சா த",
      "▁ சாத",
      "ய் யா",
      "ய்ய ா",
      "ய ்யா",
      "வ க",
      "து கா",
      "த ுகா",
      "ூட ாது",
      "ூடாத ு",
      "ூடா து",
      "ூ டாது",
      "தி ன",
      "த ின",
      "மா ன்",
      "மான ்",
      "ம ான்",
      "ாக ப்",
      "ா கப்",
      "▁க ொள்",
      "▁கொ ள்",
      "▁கொள ்",
      "▁ கொள்",
      "க ெ",
      "ஜ ெ",
      "ழு வ",
      "ழ ுவ",
      "▁க வி",
      "▁கவ ி",
      "▁ கவி",
      "▁ம ொழி",
      "▁மொ ழி",
      "▁மொழ ி",
      "▁ மொழி",
      "▁த ்",
      "▁ த்",
      "ற ீ",
      "▁உ யர்",
      "▁உய ர்",
      "▁உயர ்",
      "▁ உயர்",
      "ுத ு",
      "ு து",
      "ிற ்கான",
      "ிற் கான",
      "ிற்க ான",
      "ிற்கா ன",
      "ி ற்கான",
      "▁த டு",
      "▁தட ு",
      "▁ தடு",
      "பட ்",
      "ப ட்",
      "▁எ ண்",
      "▁ எண்",
      "் ச",
      "ாத ீ",
      "ா தீ",
      "வ ண",
      "ாக க்",
      "ா கக்",
      "டு கிறது",
      "டுகிற து",
      "டுகி றது",
      "டுக ிறது",
      "ட ுகிறது",
      "னை ய",
      "ன ைய",
      "ள ெ",
      "தோ டு",
      "தோட ு",
      "த ோடு",
      "ித ்",
      "ி த்",
      "ள வு",
      "▁ஜ ோ",
      "▁ ஜோ",
      "ால ேயே",
      "ாலே யே",
      "ா லேயே",
      "சல ்",
      "ச ல்",
      "டு வது",
      "டுவ து",
      "டுவத ு",
      "ட ுவது",
      "ல ூ",
      "ால ி",
      "ா லி",
      "ஜ ீ",
      "▁ப ேர",
      "▁பே ர",
      "▁ பேர",
      "▁உ லக",
      "▁உல க",
      "▁ உலக",
      "ாவ து",
      "ா வது",
      "தி ரி",
      "திர ி",
      "த ிரி",
      "சை ய",
      "ச ைய",
      "பொ ரு",
      "ப ொரு",
      "ால ை",
      "ா லை",
      "▁ஜ ீ",
      "▁ ஜீ",
      "வ ூ",
      "ரி டம்",
      "ரிட ம்",
      "ர ிடம்",
      "ரா ல்",
      "ரால ்",
      "ர ால்",
      "ய் வு",
      "ய்வ ு",
      "ய ்வு",
      "▁ச ார்",
      "▁சா ர்",
      "▁சார ்",
      "▁ சார்",
      "னி யா",
      "னிய ா",
      "ன ியா",
      "▁எ ரி",
      "▁ எரி",
      "ுத ல்",
      "ுதல ்",
      "ு தல்",
      "ுவ ன",
      "ு வன",
      "மை யான",
      "மைய ான",
      "மையா ன",
      "ம ையான",
      "யல ்",
      "ய ல்",
      "▁ப ிரா",
      "▁பிர ா",
      "▁பி ரா",
      "▁ பிரா",
      "ம க",
      "▁வ ட",
      "▁ வட",
      "ண் ணு",
      "ண்ண ு",
      "ண ்ணு",
      "ிற ு",
      "ி று",
      "▁எ தி",
      "▁ எதி",
      "தி யாக",
      "திய ாக",
      "தியா க",
      "த ியாக",
      "த் ர",
      "த ்ர",
      "வன ா",
      "வ னா",
      "▁இ றை",
      "▁இற ை",
      "▁ இறை",
      "்ட ால்",
      "்டா ல்",
      "் டால்",
      "பா க",
      "ப ாக",
      "▁ப ேச",
      "▁பே ச",
      "▁ பேச",
      "கா ன",
      "க ான",
      "▁ /",
      "நா டு",
      "நாட ு",
      "ந ாடு",
      "▁ப ெரிய",
      "▁பெ ரிய",
      "▁பெரி ய",
      "▁பெர ிய",
      "▁ பெரிய",
      "மு ன்",
      "முன ்",
      "ம ுன்",
      "ூட ாக",
      "ூடா க",
      "ூ டாக",
      "ம ம்",
      "ிற ்ப",
      "ிற் ப",
      "ி ற்ப",
      "▁ட ு",
      "▁ டு",
      "ோர ு",
      "ோ ரு",
      "ன் மை",
      "ன்ம ை",
      "ன ்மை",
      "மத ு",
      "ம து",
      "சி ன்",
      "சின ்",
      "ச ின்",
      "ி ழ",
      "ண் ணா",
      "ண்ண ா",
      "ண ்ணா",
      "தா கக்",
      "தாக க்",
      "த ாகக்",
      "்ட ிரு",
      "்டி ரு",
      "் டிரு",
      "▁இ சை",
      "▁இச ை",
      "▁ இசை",
      "பு ரம்",
      "புர ம்",
      "ப ுரம்",
      "மா ம்",
      "ம ாம்",
      "▁வ ிரி",
      "▁வி ரி",
      "▁விர ி",
      "▁ விரி",
      "▁ந ெரு",
      "▁நெ ரு",
      "▁ நெரு",
      "டு வத",
      "டுவ த",
      "ட ுவத",
      "▁ர ூ",
      "▁ ரூ",
      "▁க ுண",
      "▁கு ண",
      "▁ குண",
      "▁ப யன்படு",
      "▁பயன் படு",
      "▁பயன ்படு",
      "▁பயன்ப டு",
      "▁ பயன்படு",
      "ம த",
      "ச ொ",
      "ன் பது",
      "ன்ப து",
      "ுவ ி",
      "ு வி",
      "▁க தை",
      "▁கத ை",
      "▁ கதை",
      "்க ி",
      "் கி",
      "ுக ிறது",
      "ுகி றது",
      "ுகிற து",
      "ு கிறது",
      "▁ச மூக",
      "▁சம ூக",
      "▁சமூ க",
      "▁ சமூக",
      "வோ ம்",
      "வ ோம்",
      "▁வ ள",
      "▁ வள",
      "ஆர ்",
      "ஆ ர்",
      "▁ம ின்",
      "▁மி ன்",
      "▁மின ்",
      "▁ மின்",
      "னத ு",
      "ன து",
      "▁உ ர",
      "ின ோ",
      "ி னோ",
      "றை ய",
      "ற ைய",
      "▁ஃ ப",
      "▁ ஃப",
      "▁ட ா",
      "▁ டா",
      "ிற ோம்",
      "ி றோம்",
      "ாத ா",
      "ா தா",
      "▁உ ரி",
      "▁உர ி",
      "▁ உரி",
      "கு றி",
      "குற ி",
      "க ுறி",
      "▁ச ர",
      "▁ சர",
      "▁உ யிர்",
      "▁உய ிர்",
      "▁உயிர ்",
      "▁உயி ர்",
      "▁ உயிர்",
      "▁அ ழ",
      "▁ அழ",
      "▁ப க",
      "▁ பக",
      "▁ஜ ெய",
      "▁ஜெ ய",
      "▁ ஜெய",
      "▁க ுறு",
      "▁கு று",
      "▁குற ு",
      "▁ குறு",
      "சி யல்",
      "சிய ல்",
      "ச ியல்",
      "▁ம து",
      "▁மத ு",
      "▁ மது",
      "எ ம்",
      "ார ே",
      "ா ரே",
      "வல ை",
      "வ லை",
      "க் ஸ",
      "க ்ஸ",
      "ன ீ",
      "▁ஜ ி",
      "▁ ஜி",
      "ரு க",
      "ர ுக",
      "ிர ம்",
      "ிரம ்",
      "ி ரம்",
      "▁க ிரா",
      "▁கி ரா",
      "▁கிர ா",
      "▁ கிரா",
      "▁ஹ ி",
      "▁ ஹி",
      "ஸ் க",
      "ஸ ்க",
      "கள ான",
      "களா ன",
      "க ளான",
      "ின ாலும்",
      "ினா லும்",
      "ினால ும்",
      "ி னாலும்",
      "ும ே",
      "ு மே",
      "வி த",
      "வ ித",
      "இ ல",
      "▁த ர்",
      "▁தர ்",
      "▁ தர்",
      "ீட ு",
      "ீ டு",
      "டி க்",
      "ட ிக்",
      "வி னை",
      "வின ை",
      "வ ினை",
      "▁க ுள",
      "▁கு ள",
      "▁ குள",
      "சி ற",
      "ச ிற",
      "கள ிடம்",
      "களி டம்",
      "களிட ம்",
      "க ளிடம்",
      "கொ டு",
      "கொட ு",
      "க ொடு",
      "வ ொ",
      "ய ெ",
      "▁க ண்",
      "▁கண ்",
      "▁ கண்",
      "▁த ை",
      "▁ தை",
      "ிற ான்",
      "ிறா ன்",
      "ி றான்",
      "ழ ல்",
      "▁ப ாரா",
      "▁பா ரா",
      "▁பார ா",
      "▁ பாரா",
      "▁உ டை",
      "▁உட ை",
      "▁ உடை",
      "சா க",
      "ச ாக",
      "▁ச ுக",
      "▁சு க",
      "▁ சுக",
      "ளை த்",
      "ள ைத்",
      "▁ள ்",
      "▁ ள்",
      "▁ம ான",
      "▁மா ன",
      "▁ மான",
      "▁ல ்",
      "▁ ல்",
      "ஜ ன",
      "ட் சு",
      "ட்ச ு",
      "ட ்சு",
      "▁ச ெல",
      "▁செ ல",
      "▁ செல",
      "▁ப ெண்",
      "▁பெ ண்",
      "▁ பெண்",
      "▁ஃ ப்",
      "▁ஃப ்",
      "▁ ஃப்",
      "மெ ரி",
      "ம ெரி",
      "▁ஆ ன்",
      "▁ஆன ்",
      "▁ ஆன்",
      "▁ன ்",
      "▁ ன்",
      "▁இ டை",
      "▁இட ை",
      "▁ இடை",
      "▁வ ச",
      "▁ வச",
      "ர் ஸ்",
      "ர ்ஸ்",
      "ுண ர்",
      "ு ணர்",
      "▁ல ெ",
      "▁ லெ",
      "ில ான",
      "ிலா ன",
      "ி லான",
      "▁க ூட",
      "▁கூ ட",
      "▁ கூட",
      "தா வது",
      "த ாவது",
      "▁த ிரி",
      "▁தி ரி",
      "▁திர ி",
      "▁ திரி",
      "ிய ி",
      "ி யி",
      "வி ள",
      "வ ிள",
      "▁த க",
      "▁ தக",
      "▁ல ை",
      "▁ லை",
      "ுட னான",
      "ுடன ான",
      "ு டனான",
      "த் ய",
      "த ்ய",
      "ளி லும்",
      "ளில ும்",
      "ளிலு ம்",
      "ள ிலும்",
      "▁ட ிர",
      "▁டி ர",
      "▁ டிர",
      "பூ ர்",
      "ப ூர்",
      "▁க ைய",
      "▁கை ய",
      "▁ கைய",
      "லா ன",
      "ல ான",
      "ுக ிறா",
      "ுகி றா",
      "ுகிற ா",
      "ு கிறா",
      "டா க",
      "ட ாக",
      "யா ரி",
      "யார ி",
      "ய ாரி",
      "ர க",
      "கள ோ",
      "க ளோ",
      "▁க ால்",
      "▁கா ல்",
      "▁கால ்",
      "▁ கால்",
      "ாத ார",
      "ாதா ர",
      "ா தார",
      "வ ய",
      "ுட ு",
      "ு டு",
      "▁வ ரி",
      "▁வர ி",
      "▁ வரி",
      "ஆ க",
      "▁இ ழ",
      "▁ இழ",
      "ட வி",
      "செ ல்",
      "செல ்",
      "ச ெல்",
      "ாட ி",
      "ா டி",
      "கள ைச்",
      "களை ச்",
      "க ளைச்",
      "▁த ெரிய",
      "▁தெ ரிய",
      "▁தெரி ய",
      "▁தெர ிய",
      "▁ தெரிய",
      "▁அ ப்",
      "▁அப ்",
      "▁ அப்",
      "சன ை",
      "ச னை",
      "ி ங்",
      "▁ம கா",
      "▁மக ா",
      "▁ மகா",
      "கள ிலிரு",
      "களி லிரு",
      "களில ிரு",
      "க ளிலிரு",
      "▁த ெளி",
      "▁தெ ளி",
      "▁ தெளி",
      "ாத ிரு",
      "ாதி ரு",
      "ா திரு",
      "▁த ொலை",
      "▁தொ லை",
      "▁ தொலை",
      "▁அ ச",
      "▁ அச",
      "▁ந ேர",
      "▁நே ர",
      "▁ நேர",
      "அ மை",
      "பெ ரு",
      "ப ெரு",
      "ூ ர",
      "வு ட",
      "வ ுட",
      "்ட ு",
      "் டு",
      "▁ஞ ான",
      "▁ஞா ன",
      "▁ ஞான",
      "▁அ லை",
      "▁அல ை",
      "▁ அலை",
      "▁ம ய",
      "▁ மய",
      "▁ட ே",
      "▁ டே",
      "▁ம ேற்",
      "▁மே ற்",
      "▁ மேற்",
      "▁ம க",
      "▁ மக",
      "▁ல ே",
      "▁ லே",
      "▁அ க்",
      "▁அக ்",
      "▁ அக்",
      "▁ப ாத",
      "▁பா த",
      "▁ பாத",
      "ு ள",
      "ிய ாள",
      "ியா ள",
      "ி யாள",
      "ார ோ",
      "ா ரோ",
      "▁ஆ ர",
      "▁ ஆர",
      "பர ி",
      "ப ரி",
      "ோ ய்",
      "ய ர",
      "▁ந ொ",
      "▁ நொ",
      "▁வி ஜ",
      "▁ விஜ",
      "▁த ரு",
      "▁தர ு",
      "▁ தரு",
      "டி யே",
      "டிய ே",
      "ட ியே",
      "▁வ ிஷ",
      "▁வி ஷ",
      "▁ விஷ",
      "▁ஏ மா",
      "தி யை",
      "திய ை",
      "த ியை",
      "▁ர ே",
      "▁ ரே",
      "பா ல்",
      "பால ்",
      "ப ால்",
      "ஸி ல்",
      "ஸ ில்",
      "ர ல்",
      "வி லிரு",
      "வில ிரு",
      "விலி ரு",
      "வ ிலிரு",
      "▁ஒ து",
      "▁ ஒது",
      "ப த",
      "ல ன்",
      "ந் ந",
      "வீ ன",
      "வ ீன",
      "சா ரி",
      "சார ி",
      "ச ாரி",
      "▁ப ாதுகா",
      "▁பா துகா",
      "▁பாத ுகா",
      "▁பாது கா",
      "▁ பாதுகா",
      "▁ப ண்",
      "▁பண ்",
      "▁ ”",
      "ும ெ",
      "ு மெ",
      "▁தெரி வி",
      "▁தெர ிவி",
      "▁ தெரிவி",
      "ப க",
      "தா ய",
      "த ாய",
      "்சி ய",
      "்ச ிய",
      "் சிய",
      "ரு டன்",
      "ருட ன்",
      "ர ுடன்",
      "பு ரி",
      "புர ி",
      "ப ுரி",
      "▁ஸ் ட",
      "▁ஸ ்ட",
      "▁ ஸ்ட",
      "மி ழ",
      "ம ிழ",
      "ைய ான",
      "ையா ன",
      "ை யான",
      "▁ஹ ா",
      "▁ ஹா",
      "கி றேன்",
      "கிற ேன்",
      "க ிறேன்",
      "▁ட ீ",
      "▁ டீ",
      "▁ஜ ா",
      "▁ ஜா",
      "▁ஆ தி",
      "▁ஆத ி",
      "▁ ஆதி",
      "தி ன்",
      "தின ்",
      "த ின்",
      "▁த ிரை",
      "▁தி ரை",
      "▁திர ை",
      "▁ திரை",
      "▁க ீழ்",
      "▁கீ ழ்",
      "▁கீழ ்",
      "▁ கீழ்",
      "மா று",
      "மாற ு",
      "ம ாறு",
      "ரை ப்",
      "ர ைப்",
      "தி லும்",
      "தில ும்",
      "திலு ம்",
      "த ிலும்",
      "யி ன",
      "ய ின",
      "▁ஒ லி",
      "▁ ஒலி",
      "த க",
      "ிய ர்",
      "ி யர்",
      "▁ம கிழ்",
      "▁மக ிழ்",
      "▁மகி ழ்",
      "▁மகிழ ்",
      "▁ மகிழ்",
      "தா கத்",
      "தாக த்",
      "த ாகத்",
      "▁உ ல",
      "றே ன்",
      "ற ேன்",
      "▁க ிற",
      "▁கி ற",
      "▁ கிற",
      "ட வு",
      "ிரு ஷ்ண",
      "ிருஷ் ண",
      "ே க",
      "ன் மைய",
      "ன்மை ய",
      "ன்ம ைய",
      "ான ி",
      "ா னி",
      "் ண",
      "கள ி",
      "க ளி",
      "ும தி",
      "ுமத ி",
      "ு மதி",
      "ீஸ ்",
      "ீ ஸ்",
      "ணு வ",
      "ண ுவ",
      "▁த ுவ",
      "▁து வ",
      "▁ துவ",
      "▁ –",
      "ஃப ி",
      "ஃ பி",
      "ட் க",
      "ட ்க",
      "ால ா",
      "ா லா",
      "ிட மும்",
      "ி டமும்",
      "ு ன",
      "▁ஹ ை",
      "▁ ஹை",
      "▁ப ர்",
      "▁பர ்",
      "▁ பர்",
      "▁மூ ல",
      "▁ மூல",
      "▁ர ீ",
      "▁ ரீ",
      "▁ட ோ",
      "▁ டோ",
      "ளி டம்",
      "ளிட ம்",
      "ள ிடம்",
      "தை த்",
      "த ைத்",
      "ைகள ு",
      "ைக ளு",
      "ை களு",
      "▁இ ஸ்",
      "▁ இஸ்",
      "ய் வ",
      "ய ்வ",
      "▁ச மா",
      "▁சம ா",
      "▁ சமா",
      "▁உ ள",
      "▁ உள",
      "ைகள ை",
      "ைக ளை",
      "ை களை",
      "லி யா",
      "லிய ா",
      "ல ியா",
      "பா ய்",
      "பாய ்",
      "ப ாய்",
      "ெ ரி",
      "▁ச ிர",
      "▁சி ர",
      "▁ சிர",
      "ான ோ",
      "ா னோ",
      "டி யோ",
      "டிய ோ",
      "ட ியோ",
      "நி தி",
      "ந ிதி",
      "▁எ ஸ்",
      "▁ எஸ்",
      "▁ம ார்",
[...]
