{
  "version": "1.0",
  "truncation": null,
  "padding": null,
  "added_tokens": [
    {
      "id": 0,
      "content": "<unk>",
      "single_word": false,
      "lstrip": false,
      "rstrip": false,
      "normalized": true,
      "special": true
    },
    {
      "id": 1,
      "content": "<s>",
      "single_word": false,
      "lstrip": false,
      "rstrip": false,
      "normalized": true,
      "special": true
    },
    {
      "id": 2,
      "content": "</s>",
      "single_word": false,
      "lstrip": false,
      "rstrip": false,
      "normalized": true,
      "special": true
    }
  ],
  "normalizer": {
    "type": "Sequence",
    "normalizers": [
      {
        "type": "Prepend",
        "prepend": "▁"
      },
      {
        "type": "Replace",
        "pattern": {
          "String": " "
        },
        "content": "▁"
      }
    ]
  },
  "pre_tokenizer": null,
  "post_processor": {
    "type": "TemplateProcessing",
    "single": [
      {
        "SpecialToken": {
          "id": "<s>",
          "type_id": 0
        }
      },
      {
        "Sequence": {
          "id": "A",
          "type_id": 0
        }
      }
    ],
    "pair": [
      {
        "SpecialToken": {
          "id": "<s>",
          "type_id": 0
        }
      },
      {
        "Sequence": {
          "id": "A",
          "type_id": 0
        }
      },
      {
        "SpecialToken": {
          "id": "<s>",
          "type_id": 1
        }
      },
      {
        "Sequence": {
          "id": "B",
          "type_id": 1
        }
      }
    ],
    "special_tokens": {
      "<s>": {
        "id": "<s>",
        "ids": [
          1
        ],
        "tokens": [
          "<s>"
        ]
      }
    }
  },
  "decoder": {
    "type": "Sequence",
    "decoders": [
      {
        "type": "Replace",
        "pattern": {
          "String": "▁"
        },
        "content": " "
      },
      {
        "type": "ByteFallback"
      },
      {
        "type": "Fuse"
      },
      {
        "type": "Strip",
        "content": " ",
        "start": 1,
        "stop": 0
      }
    ]
  },
  "model": {
    "type": "BPE",
    "dropout": null,
    "unk_token": "<unk>",
    "continuing_subword_prefix": null,
    "end_of_word_suffix": null,
    "fuse_unk": true,
    "byte_fallback": true,
    "vocab": {
      "<unk>": 0,
      "<s>": 1,
      "</s>": 2,
      "<pad>": 3,
      "<mask>": 4,
      "\n": 5,
      "+": 6,
      "-": 7,
      "*": 8,
      "$": 9,
      "%": 10,
      "^": 11,
      "1": 12,
      "2": 13,
      "3": 14,
      "4": 15,
      "5": 16,
      "6": 17,
      "7": 18,
      "8": 19,
      "9": 20,
      "0": 21,
      "#": 22,
      "@": 23,
      "&": 24,
      "=": 25,
      "~": 26,
      "<": 27,
      ">": 28,
      ":": 29,
      ";": 30,
      "'": 31,
      "(": 32,
      ")": 33,
      ".": 34,
      ",": 35,
      "\t": 36,
      "ஒரு": 37,
      "என்று": 38,
      "மற்றும்": 39,
      "இந்த": 40,
      "இது": 41,
      "என்ற": 42,
      "கொண்டு": 43,
      "என்பது": 44,
      "பல": 45,
      "ஆகும்": 46,
      "அல்லது": 47,
      "அவர்": 48,
      "நான்": 49,
      "உள்ள": 50,
      "அந்த": 51,
      "இவர்": 52,
      "என": 53,
      "முதல்": 54,
      "என்ன": 55,
      "இருந்து": 56,
      "சில": 57,
      "என்": 58,
      "போன்ற": 59,
      "வேண்டும்": 60,
      "வந்து": 61,
      "இதன்": 62,
      "அது": 63,
      "அவன்": 64,
      "தான்": 65,
      "பலரும்": 66,
      "என்னும்": 67,
      "மேலும்": 68,
      "பின்னர்": 69,
      "கொண்ட": 70,
      "இருக்கும்": 71,
      "தனது": 72,
      "உள்ளது": 73,
      "போது": 74,
      "என்றும்": 75,
      "அதன்": 76,
      "தன்": 77,
      "பிறகு": 78,
      "அவர்கள்": 79,
      "வரை": 80,
      "அவள்": 81,
      "நீ": 82,
      "ஆகிய": 83,
      "இருந்தது": 84,
      "உள்ளன": 85,
      "வந்த": 86,
      "இருந்த": 87,
      "மிகவும்": 88,
      "இங்கு": 89,
      "மீது": 90,
      "ஓர்": 91,
      "இவை": 92,
      "இந்தக்": 93,
      "பற்றி": 94,
      "வரும்": 95,
      "வேறு": 96,
      "இரு": 97,
      "இதில்": 98,
      "போல்": 99,
      "இப்போது": 100,
      "அவரது": 101,
      "மட்டும்": 102,
      "இந்தப்": 103,
      "எனும்": 104,
      "மேல்": 105,
      "பின்": 106,
      "சேர்ந்த": 107,
      "ஆகியோர்": 108,
      "எனக்கு": 109,
      "இன்னும்": 110,
      "அந்தப்": 111,
      "அன்று": 112,
      "ஒரே": 113,
      "மிக": 114,
      "அங்கு": 115,
      "பல்வேறு": 116,
      "விட்டு": 117,
      "பெரும்": 118,
      "அதை": 119,
      "பற்றிய": 120,
      "உன்": 121,
      "அதிக": 122,
      "அந்தக்": 123,
      "பேர்": 124,
      "இதனால்": 125,
      "அவை": 126,
      "அதே": 127,
      "ஏன்": 128,
      "முறை": 129,
      "யார்": 130,
      "என்பதை": 131,
      "எல்லாம்": 132,
      "மட்டுமே": 133,
      "இங்கே": 134,
      "அங்கே": 135,
      "இடம்": 136,
      "இடத்தில்": 137,
      "அதில்": 138,
      "நாம்": 139,
      "அதற்கு": 140,
      "எனவே": 141,
      "பிற": 142,
      "சிறு": 143,
      "மற்ற": 144,
      "விட": 145,
      "எந்த": 146,
      "எனவும்": 147,
      "எனப்படும்": 148,
      "எனினும்": 149,
      "அடுத்த": 150,
      "இதனை": 151,
      "இதை": 152,
      "கொள்ள": 153,
      "இந்தத்": 154,
      "இதற்கு": 155,
      "அதனால்": 156,
      "தவிர": 157,
      "போல": 158,
      "வரையில்": 159,
      "சற்று": 160,
      "எனக்": 161,
      "தந்தை": 162,
      "தாய்": 163,
      "சகோதரர்": 164,
      "சகோதரி": 165,
      "தங்கை": 166,
      "மகன்": 167,
      "மகள்": 168,
      "மாமா": 169,
      "அத்தை": 170,
      "மருமகள்": 171,
      "மருமகன்": 172,
      "வா": 173,
      "போ": 174,
      "செய்": 175,
      "கேள்": 176,
      "பேசு": 177,
      "கவனி": 178,
      "அறி": 179,
      "வாங்கு": 180,
      "விடு": 181,
      "உதவ": 182,
      "படிக்க": 183,
      "எழுத": 184,
      "சாப்பிட": 185,
      "குடிக்க": 186,
      "வேலை": 187,
      "கண்டுபிடி": 188,
      "விண்ணப்ப": 189,
      "கிடைக்க": 190,
      "விளக்கு": 191,
      "அனுப்பு": 192,
      "ஆரம்பி": 193,
      "முடி": 194,
      "விளையாடு": 195,
      "சிரி": 196,
      "அழு": 197,
      "புது": 198,
      "கல்": 199,
      "மற": 200,
      "தோண்ட": 201,
      "விற்க": 202,
      "தூங்க": 203,
      "பிடி": 204,
      "விய": 205,
      "நம்ப": 206,
      "வளர்": 207,
      "கட்டு": 208,
      "தேட": 209,
      "நகர": 210,
      "வெளி": 211,
      "இழு": 212,
      "தள்ளு": 213,
      "பற": 214,
      "நட": 215,
      "ஓட": 216,
      "குழு": 217,
      "வேகம்": 218,
      "ஏற": 219,
      "விழ": 220,
      "சேர்": 221,
      "கட": 222,
      "காய": 223,
      "நுகர": 224,
      "சுவை": 225,
      "உண்": 226,
      "சொல்": 227,
      "காட்ட": 228,
      "செலுத்த": 229,
      "செயல்": 230,
      "அதிர்": 231,
      "பார்": 232,
      "சிந்தி": 233,
      "விரும்ப": 234,
      "வெறு": 235,
      "அழை": 236,
      "சரி": 237,
      "தவிர்": 238,
      "உயர்த்த": 239,
      "ஆட": 240,
      "சாவு": 241,
      "கொலை": 242,
      "அடி": 243,
      "வீச": 244,
      "சுத்தம்": 245,
      "காத்திரு": 246,
      "வலி": 247,
      "பிடிக்க": 248,
      "பயம்": 249,
      "கேட்க": 250,
      "திரும்ப": 251,
      "முயற்சி": 252,
      "சோதி": 253,
      "வெல்ல": 254,
      "ஓட்ட": 255,
      "குதி": 256,
      "நீந்த": 257,
      "வை": 258,
      "க்க": 259,
      "க்கு": 260,
      "கள்": 261,
      "கும்": 262,
      "யும்": 263,
      "வும்": 264,
      "வார்": 265,
      "வர்": 266,
      "தார்": 267,
      "ப்ப": 268,
      "ம்ப": 269,
      "்த": 270,
      "ல்": 271,
      "ன்": 272,
      "ம்": 273,
      "்ட": 274,
      "▁ப": 275,
      "▁க": 276,
      "த்த": 277,
      "▁த": 278,
      "ர்": 279,
      "▁ம": 280,
      "ிய": 281,
      "ில்": 282,
      "ட்ட": 283,
      "▁\"": 284,
      "ரு": 285,
      "▁ச": 286,
      "து": 287,
      "▁அ": 288,
      "்க": 289,
      "▁வ": 290,
      "▁இ": 291,
      "ின்": 292,
      "ந்த": 293,
      "▁ந": 294,
      "ைய": 295,
      "டு": 296,
      "ங்க": 297,
      "ற்": 298,
      "ாக": 299,
      "கள": 300,
      "ள்": 301,
      "▁ஆ": 302,
      "்ச": 303,
      "ிற": 304,
      "ில": 305,
      "க்": 306,
      "ப்": 307,
      "ிர": 308,
      "ும்": 309,
      "ற்ற": 310,
      "ண்ட": 311,
      "▁உ": 312,
      "த்": 313,
      "ான": 314,
      "ிரு": 315,
      "த்து": 316,
      "ார்": 317,
      "ின": 318,
      "று": 319,
      "லை": 320,
      "ரி": 321,
      "ரா": 322,
      "ள்ள": 323,
      "ந்து": 324,
      "▁கு": 325,
      "▁எ": 326,
      "மை": 327,
      "▁மு": 328,
      "▁கா": 329,
      "வு": 330,
      "டி": 331,
      "▁பெ": 332,
      "தி": 333,
      "ால்": 334,
      "லா": 335,
      "▁தொ": 336,
      "ண்": 337,
      "ட்டு": 338,
      "ச்": 339,
      "▁மா": 340,
      "த்தில்": 341,
      "ங்கள": 342,
      "\"\"": 343,
      "்சி": 344,
      "கிற": 345,
      "ங்": 346,
      "ன்ற": 347,
      "ழ்": 348,
      "▁பா": 349,
      "▁வி": 350,
      "களை": 351,
      "▁பு": 352,
      "ின்ற": 353,
      "மா": 354,
      "ய்": 355,
      "▁ஒ": 356,
      "ண்டு": 357,
      "மி": 358,
      "▁செ": 359,
      "▁நா": 360,
      "னை": 361,
      "ஸ்": 362,
      "வி": 363,
      "ச்ச": 364,
      "▁கோ": 365,
      "ட்": 366,
      "ால": 367,
      "▁பொ": 368,
      "றி": 369,
      "டைய": 370,
      "▁ஊ": 371,
      "ியா": 372,
      "▁\"\"": 373,
      "ன்ன": 374,
      "ணி": 375,
      "டை": 376,
      "ற்க": 377,
      "த்தை": 378,
      "▁கூ": 379,
      "கிறது": 380,
      "யில்": 381,
      "▁அமை": 382,
      "கு": 383,
      "வில்": 384,
      "மாக": 385,
      "▁து": 386,
      "ார": 387,
      "னி": 388,
      "ழி": 389,
      "▁சி": 390,
      "சு": 391,
      "பு": 392,
      "மான": 393,
      "▁பிர": 394,
      "கை": 395,
      "ழு": 396,
      "▁சு": 397,
      "ரிய": 398,
      "லி": 399,
      "ரை": 400,
      "▁தே": 401,
      "பா": 402,
      "நா": 403,
      "களில்": 404,
      "யா": 405,
      "ையில்": 406,
      "ற்று": 407,
      "▁திரு": 408,
      "▁அவ": 409,
      "▁கொ": 410,
      "ின்றன": 411,
      "▁தமி": 412,
      "வத": 413,
      "ளி": 414,
      "▁மூ": 415,
      "ல்ல": 416,
      "ான்": 417,
      "ளை": 418,
      "ட்சி": 419,
      "டன்": 420,
      "▁பய": 421,
      "ன்று": 422,
      "த்தின்": 423,
      "சி": 424,
      "டுத்த": 425,
      "வே": 426,
      "தா": 427,
      "வது": 428,
      "▁தெ": 429,
      "களு": 430,
      "ிலும்": 431,
      "▁வே": 432,
      "▁இவ": 433,
      "டிய": 434,
      "ண்ண": 435,
      "ன்ப": 436,
      "▁வெ": 437,
      "றை": 438,
      "▁பே": 439,
      "மைய": 440,
      "▁மே": 441,
      "ூர்": 442,
      "▁அர": 443,
      "▁நில": 444,
      "கா": 445,
      "ள்ளது": 446,
      "மு": 447,
      "▁தொட": 448,
      "▁கி": 449,
      "டும்": 450,
      "▁நி": 451,
      "னு": 452,
      "▁ஆண்டு": 453,
      "கி": 454,
      "ங்கு": 455,
      "ந்": 456,
      "திய": 457,
      "▁ஜ": 458,
      "▁இர": 459,
      "▁ஊரா": 460,
      "யர்": 461,
      "களின்": 462,
      "ட்டி": 463,
      "▁இய": 464,
      "ிருந்த": 465,
      "வர": 466,
      "▁நிற": 467,
      "லாம்": 468,
      "சிய": 469,
      "ிரி": 470,
      "ஞ்ச": 471,
      "▁தா": 472,
      "▁மொ": 473,
      "ிட": 474,
      "ட்டது": 475,
      "டுகிறது": 476,
      "▁குறி": 477,
      "▁ஏ": 478,
      "நில": 479,
      "▁கரு": 480,
      "தை": 481,
      "▁ஊராட்சி": 482,
      "▁தமிழ்": 483,
      "▁சா": 484,
      "சை": 485,
      "வின்": 486,
      "கின்றன": 487,
      "ணை": 488,
      "பெ": 489,
      "னர்": 490,
      "ாட்ட": 491,
      "▁ர": 492,
      "▁நூ": 493,
      "▁கால": 494,
      "▁வழ": 495,
      "ற்ப": 496,
      "ிருந்து": 497,
      "ையை": 498,
      "லு": 499,
      "ிற்க": 500,
      "▁தி": 501,
      "ரும்": 502,
      "▁இல்": 503,
      "ினை": 504,
      "▁உரு": 505,
      "▁பொரு": 506,
      "ியில்": 507,
      "ங்களை": 508,
      "▁சிற": 509,
      "ாள": 510,
      "▁தோ": 511,
      "ர்த": 512,
      "▁வீ": 513,
      "வட்ட": 514,
      "த்தி": 515,
      "▁வரு": 516,
      "▁ஆம்": 517,
      "ொரு": 518,
      "வன": 519,
      "▁ட": 520,
      "ிரை": 521,
      "ையின்": 522,
      "கம்": 523,
      "▁பி": 524,
      "▁பூ": 525,
      "▁அமைந்து": 526,
      "▁ஐ": 527,
      "யி": 528,
      "▁தலை": 529,
      "தாக": 530,
      "டுத்து": 531,
      "▁ய": 532,
      "ாம": 533,
      "ற்கு": 534,
      "ங்களில்": 535,
      "▁சம": 536,
      "வ்": 537,
      "லம்": 538,
      "யில": 539,
      "களும்": 540,
      "ச்சி": 541,
      "ரம்": 542,
      "சா": 543,
      "▁இல": 544,
      "▁மாவட்ட": 545,
      "▁நோ": 546,
      "ரோ": 547,
      "ினார்": 548,
      "தே": 549,
      "மே": 550,
      "▁நே": 551,
      "▁மீ": 552,
      "ிற்கு": 553,
      "தல": 554,
      "ிறது": 555,
      "யே": 556,
      "▁தீ": 557,
      "ாலும்": 558,
      "மும்": 559,
      "▁விள": 560,
      "▁ஆன": 561,
      "ெடு": 562,
      "▁பயன்ப": 563,
      "ியை": 564,
      "லக": 565,
      "an": 566,
      "ியல்": 567,
      "்ப": 568,
      "▁பெற்ற": 569,
      "▁பர": 570,
      "▁கண": 571,
      "▁தொடர்": 572,
      "வன்": 573,
      "ிலிருந்து": 574,
      "ங்கி": 575,
      "ிலே": 576,
      "▁காண": 577,
      "ட்ச": 578,
      "ையா": 579,
      "ுள்ள": 580,
      "ட்டை": 581,
      "மெ": 582,
      "ளு": 583,
      "▁“": 584,
      "▁கே": 585,
      "▁ஹ": 586,
      "▁சூ": 587,
      "ினர்": 588,
      "▁தமிழ்நா": 589,
      "டம்": 590,
      "ியின்": 591,
      "▁கீ": 592,
      "தல்": 593,
      "ராக": 594,
      "டா": 595,
      "ரண": 596,
      "▁பெரு": 597,
      "▁ஆண்ட": 598,
      "ரில்": 599,
      "ாள்": 600,
      "ற்றி": 601,
      "▁நிறு": 602,
      "▁பட்ட": 603,
      "ஆம்": 604,
      "ம்ம": 605,
      "ஸ்ட": 606,
      "தம்": 607,
      "படி": 608,
      "▁சே": 609,
      "▁உட": 610,
      "பி": 611,
      "▁ஈ": 612,
      "ேன்": 613,
      "▁வர": 614,
      "▁அள": 615,
      "த்திர": 616,
      "▁ல": 617,
      "▁மெ": 618,
      "▁ஒன்ற": 619,
      "▁பிரி": 620,
      "▁உறு": 621,
      "▁சோ": 622,
      "ட்ப": 623,
      "▁சீ": 624,
      "▁ரா": 625,
      "▁சட்ட": 626,
      "ரின்": 627,
      "வில்லை": 628,
      "ழை": 629,
      "கின்ற": 630,
      "▁இவ்": 631,
      "த்திய": 632,
      "▁நெ": 633,
      "at": 634,
      "▁கல": 635,
      "▁கோயில்": 636,
      "ணு": 637,
      "னா": 638,
      "▁தமிழ": 639,
      "▁முன்ன": 640,
      "▁உண": 641,
      "றிய": 642,
      "லில்": 643,
      "ல்லா": 644,
      "ியாக": 645,
      "்து": 646,
      "திர்": 647,
      "▁அரு": 648,
      "▁சொ": 649,
      "த்திற்கு": 650,
      "ைக்": 651,
      "▁இட": 652,
      "ோயில்": 653,
      "ங்களு": 654,
      "ள்ளி": 655,
      "▁ஆனால்": 656,
      "ாம்": 657,
      "ோடு": 658,
      "ட்டில்": 659,
      "▁பொது": 660,
      "களைக்": 661,
      "▁குறை": 662,
      "ந்திர": 663,
      "▁இரா": 664,
      "▁கிர": 665,
      "ணம்": 666,
      "ந்தது": 667,
      "கிறார்": 668,
      "▁ஓ": 669,
      "er": 670,
      "▁பாட": 671,
      "மன்ற": 672,
      "▁தேர்": 673,
      "▁அமைந்துள்ள": 674,
      "த்துக்": 675,
      "ங்கிய": 676,
      "▁அக": 677,
      "▁நிக": 678,
      "▁பயன்படுத்த": 679,
      "வற்ற": 680,
      "▁உய": 681,
      "ற்றா": 682,
      "ைப்": 683,
      "டுகின்றன": 684,
      "▁தர": 685,
      "கோ": 686,
      "ெல்": 687,
      "ஷ்": 688,
      "பாடு": 689,
      "வல": 690,
      "▁திரை": 691,
      "வம்": 692,
      "▁தூ": 693,
      "▁வகை": 694,
      "▁உலக": 695,
      "ச்சு": 696,
      "▁வழி": 697,
      "ட்டுள்ளது": 698,
      "▁காரண": 699,
      "on": 700,
      "வல்": 701,
      "▁முதல": 702,
      "யு": 703,
      "ள்க": 704,
      "▁மரு": 705,
      "ட்டின்": 706,
      "▁பழ": 707,
      "▁ஆக": 708,
      "▁பெண்": 709,
      "▁பத": 710,
      "▁கை": 711,
      "▁மர": 712,
      "திர": 713,
      "al": 714,
      "களாக": 715,
      "▁மொத்த": 716,
      "னித": 717,
      "யம்": 718,
      "▁இணை": 719,
      "▁வடி": 720,
      "in": 721,
      "▁தொகை": 722,
      "▁கண்ட": 723,
      "▁படி": 724,
      "ோர்": 725,
      "ர்த்த": 726,
      "▁அற": 727,
      "or": 728,
      "ங்கா": 729,
      "▁நூற்றா": 730,
      "ானது": 731,
      "▁குழ": 732,
      "ண்டிய": 733,
      "▁நிலை": 734,
      "▁பெரிய": 735,
      "ளின்": 736,
      "▁துடு": 737,
      "ளர்": 738,
      "▁தெரி": 739,
      "am": 740,
      "▁மொழி": 741,
      "▁யா": 742,
      "ட்டார்": 743,
      "▁வட": 744,
      "லிய": 745,
      "வெ": 746,
      "வீ": 747,
      "ிக்": 748,
      "ளா": 749,
      "▁இரண்டு": 750,
      "தும்": 751,
      "பர்": 752,
      "ினால்": 753,
      "கைய": 754,
      "▁‘": 755,
      "▁மன": 756,
      "ar": 757,
      "▁நாடு": 758,
      "▁தனி": 759,
      "கால": 760,
      "▁கீழ்": 761,
      "▁அரச": 762,
      "▁பெயர்": 763,
      "▁இற": 764,
      "லே": 765,
      "ந்தி": 766,
      "▁நாட": 767,
      "கர்": 768,
      "மெரி": 769,
      "▁கூற": 770,
      "ரே": 771,
      "▁படை": 772,
      "▁இத்த": 773,
      "தால்": 774,
      "▁ஆண்டில்": 775,
      "▁நிறுவன": 776,
      "வரி": 777,
      "தார": 778,
      "தர": 779,
      "னே": 780,
      "ங்கில": 781,
      "▁ஒன்று": 782,
      "▁சார்": 783,
      "▁பெய": 784,
      "மீ": 785,
      "▁அமெரி": 786,
      "▁அனு": 787,
      "ழக": 788,
      "▁இரண்ட": 789,
      "▁மன்ற": 790,
      "▁தொழ": 791,
      "▁முழு": 792,
      "▁அமைந்துள்ளது": 793,
      "▁மூலம்": 794,
      "வ்வ": 795,
      "ில்லை": 796,
      "▁செல்": 797,
      "▁எதிர்": 798,
      "ாட்டில்": 799,
      "யாக": 800,
      "▁பட": 801,
      "வரு": 802,
      "யின்": 803,
      "▁மாநில": 804,
      "ண்டி": 805,
      "▁அனை": 806,
      "றையின்": 807,
      "ஸ்த": 808,
      "த்தா": 809,
      "ைச்": 810,
      "ிறார்": 811,
      "▁எடுத்து": 812,
      "ைபெ": 813,
      "ற்றில்": 814,
      "▁செய": 815,
      "▁பரி": 816,
      "ாளர்": 817,
      "▁திற": 818,
      "னும்": 819,
      "▁வட்ட": 820,
      "ராய": 821,
      "▁இத": 822,
      "▁பண": 823,
      "▁மூல": 824,
      "ந்தை": 825,
      "ளில்": 826,
      "▁நிர்": 827,
      "மல்": 828,
      "ியம்": 829,
      "வோ": 830,
      "ளம்": 831,
      "▁நூற்றாண்ட": 832,
      "▁முன்": 833,
      "▁நு": 834,
      "ர்ட": 835,
      "ளவு": 836,
      "லோ": 837,
      "கின்றது": 838,
      "ோது": 839,
      "▁உட்ப": 840,
      "▁நினை": 841,
      "வதற்கு": 842,
      "▁ஆய்": 843,
      "சன்": 844,
      "நிலை": 845,
      "en": 846,
      "▁பேரும்": 847,
      "▁தக": 848,
      "த்தது": 849,
      "த்துவ": 850,
      "▁P": 851,
      "▁வில": 852,
      "▁மனித": 853,
      "▁இன": 854,
      "ைத்": 855,
      "னின்": 856,
      "▁தொகு": 857,
      "லின்": 858,
      "▁சட்டமன்ற": 859,
      "▁மாவட்டம்": 860,
      "▁மாற்ற": 861,
      "ண்க": 862,
      "▁கொடு": 863,
      "▁எண்": 864,
      "ாகப்": 865,
      "▁அத": 866,
      "▁நேர": 867,
      "த்தொ": 868,
      "களைத்": 869,
      "றும்": 870,
      "ch": 871,
      "ாய்": 872,
      "ின்றனர்": 873,
      "▁மின்": 874,
      "▁அட": 875,
      "▁தொலை": 876,
      "மையான": 877,
      "▁வரலா": 878,
      "ினும்": 879,
      "ியது": 880,
      "ழ்ச": 881,
      "▁நிலைய": 882,
      "is": 883,
      "▁வீர": 884,
      "ுடன்": 885,
      "▁டி": 886,
      "ிரா": 887,
      "▁கூறு": 888,
      "▁இல்லை": 889,
      "▁மாவட்டத்தில்": 890,
      "▁விரு": 891,
      "களைப்": 892,
      "லும்": 893,
      "▁அடை": 894,
      "மன்": 895,
      "யிலில்": 896,
      "யான": 897,
      "▁செல்ல": 898,
      "▁நூல்": 899,
      "▁மன்ன": 900,
      "ள்ளார்": 901,
      "ற்காக": 902,
      "வில": 903,
      "▁பதி": 904,
      "ம்மன்": 905,
      "ியர்": 906,
      "▁திட்ட": 907,
      "ிட்ட": 908,
      "▁அம": 909,
      "ங்களின்": 910,
      "லைய": 911,
      "th": 912,
      "▁சென்ற": 913,
      "ரீ": 914,
      "▁இலங்க": 915,
      "▁மூன்று": 916,
      "▁சிவ": 917,
      "▁வய": 918,
      "களால்": 919,
      "களிலும்": 920,
      "▁புற": 921,
      "▁எண்ண": 922,
      "ாமல்": 923,
      "ாகக்": 924,
      "்த்த": 925,
      "▁\"\"\"": 926,
      "▁ஆண்": 927,
      "யை": 928,
      "முக": 929,
      "▁அவரு": 930,
      "▁உயர்": 931,
      "ம்மா": 932,
      "யிர்": 933,
      "ள்ளன": 934,
      "▁இள": 935,
      "ித்த": 936,
      "ரியா": 937,
      "ிலேயே": 938,
      "▁தோன்ற": 939,
      "▁கிழ": 940,
      "▁வடிவ": 941,
      "ட்டிய": 942,
      "கே": 943,
      "தில்": 944,
      "▁மாத": 945,
      "▁அவ்": 946,
      "ளும்": 947,
      "▁தேர்ந்த": 948,
      "▁இந்": 949,
      "▁தயா": 950,
      "▁பேர": 951,
      "னம்": 952,
      "க்த": 953,
      "ீர்": 954,
      "ங்களும்": 955,
      "▁தமிழ்நாடு": 956,
      "ின்றது": 957,
      "ாத": 958,
      "மார்": 959,
      "மொ": 960,
      "▁எதிர": 961,
      "▁விளையா": 962,
      "த்தல்": 963,
      "ட்டர்": 964,
      "ிருந்தது": 965,
      "▁கலை": 966,
      "▁அரசு": 967,
      "▁கிராம": 968,
      "▁கண்ண": 969,
      "னுடைய": 970,
      "▁அணி": 971,
      "▁தயாரி": 972,
      "▁தகவல்": 973,
      "ாட்டப்": 974,
      "ோயிலில்": 975,
      "தான": 976,
      "▁பணி": 977,
      "இல்": 978,
      "ியாவின்": 979,
      "▁ஸ்": 980,
      "ழுது": 981,
      "▁தேசிய": 982,
      "ெல்லாம்": 983,
      "ic": 984,
      "▁ஜெ": 985,
      "ாடு": 986,
      "▁சமய": 987,
      "▁கோயில": 988,
      "ட்டன": 989,
      "ஸ்க": 990,
      "▁நல்ல": 991,
      "ஞர்": 992,
      "▁அரசிய": 993,
      "▁ஃ": 994,
      "ிடம்": 995,
      "ையாக": 996,
      "ினி": 997,
      "▁G": 998,
      "▁புல": 999,
      "es": 1000,
      "▁ஒவ்வ": 1001,
      "த்தால்": 1002,
      "▁தேர்ந்தெடு": 1003,
      "▁பொருள்": 1004,
      "புரம்": 1005,
      "▁மதி": 1006,
      "▁இசை": 1007,
      "ிருந்": 1008,
      "ாவது": 1009,
      "▁புதிய": 1010,
      "ிலுள்ள": 1011,
      "▁பெற்று": 1012,
      "▁இவ்வ": 1013,
      "கையில்": 1014,
      "▁இல்லா": 1015,
      "▁பாடல்": 1016,
      "▁அளி": 1017,
      "▁சங்க": 1018,
      "▁ஆற்ற": 1019,
      "▁புக": 1020,
      "▁மார்": 1021,
      "ையே": 1022,
      "ொண்ட": 1023,
      "▁உணர்": 1024,
      "▁வள": 1025,
      "மது": 1026,
      "ோம்": 1027,
      "லூ": 1028,
      "டையில்": 1029,
      "▁அளவு": 1030,
      "▁C": 1031,
      "▁கொள்க": 1032,
      "ாக்": 1033,
      "▁ஆர்": 1034,
      "னிய": 1035,
      "▁நிறை": 1036,
      "ரல்": 1037,
      "▁சிற்ற": 1038,
      "▁பாது": 1039,
      "▁மோ": 1040,
      "ஜ்": 1041,
      "▁கூட்ட": 1042,
      "ரக": 1043,
      "த்துடன்": 1044,
      "தன": 1045,
      "ாட்டு": 1046,
      "▁சட்டமன்றத்": 1047,
      "▁கலந்து": 1048,
      "ள்ளை": 1049,
      "த்துப்": 1050,
      "ரால்": 1051,
      "தற்கு": 1052,
      "▁S": 1053,
      "▁குடு": 1054,
      "▁முக": 1055,
      "▁விளை": 1056,
      "ay": 1057,
      "▁வெற்றி": 1058,
      "▁பாதுகா": 1059,
      "▁மண்ட": 1060,
      "▁எழு": 1061,
      "▁வழங்க": 1062,
      "தர்": 1063,
      "▁ஆறு": 1064,
      "ழ்க": 1065,
      "▁காலத்தில்": 1066,
      "மோ": 1067,
      "தேச": 1068,
      "▁இறு": 1069,
      "ட்க": 1070,
      "ித்": 1071,
      "▁பண்": 1072,
      "ாய": 1073,
      "பை": 1074,
      "▁முத": 1075,
      "டையே": 1076,
      "▁கெ": 1077,
      "ழ்ந்த": 1078,
      "த்தைப்": 1079,
      "ினான்": 1080,
      "▁நாள்": 1081,
      "▁தொழில்": 1082,
      "த்தைக்": 1083,
      "ரச": 1084,
      "ஞ்சி": 1085,
      "ாண": 1086,
      "நிலைய": 1087,
      "▁கருத": 1088,
      "ன்னை": 1089,
      "ூடிய": 1090,
      "ணர்": 1091,
      "ென": 1092,
      "▁குரு": 1093,
      "ியூ": 1094,
      "▁பூசை": 1095,
      "▁பொறு": 1096,
      "▁குழந்தை": 1097,
      "்கலை": 1098,
      "த்திலும்": 1099,
      "▁திரும": 1100,
      "▁கூட": 1101,
      "▁பட்டியல்": 1102,
      "▁மணி": 1103,
      "பே": 1104,
      "ணைய": 1105,
      "▁உயிர": 1106,
      "▁சென்று": 1107,
      "சோ": 1108,
      "கார": 1109,
      "ண்டும்": 1110,
      "தோ": 1111,
      "ர்ம": 1112,
      "▁ஒவ்வொரு": 1113,
      "▁[": 1114,
      "▁சோழ": 1115,
      "▁மலை": 1116,
      "ிலோ": 1117,
      "▁ஊரில்": 1118,
      "வலர்": 1119,
      "கின்றனர்": 1120,
      "▁தமிழ்நாட்டில்": 1121,
      "▁கால்": 1122,
      "வராக": 1123,
      "ப்ட": 1124,
      "ரது": 1125,
      "ur": 1126,
      "டுப": 1127,
      "▁மொழ": 1128,
      "ion": 1129,
      "▁ஆய்வு": 1130,
      "செ": 1131,
      "லர்": 1132,
      "▁மது": 1133,
      "▁பங்கு": 1134,
      "▁மாதம்": 1135,
      "▁அவற்ற": 1136,
      "▁குடிய": 1137,
      "▁ஒளி": 1138,
      "ின்படி": 1139,
      "டத்தில்": 1140,
      "பர": 1141,
      "▁மி": 1142,
      "மூ": 1143,
      "தாம்": 1144,
      "▁சிறந்த": 1145,
      "மைத்": 1146,
      "ற்றிய": 1147,
      "வகி": 1148,
      "▁தற்": 1149,
      "▁தொடர்ந்து": 1150,
      "தனை": 1151,
      "▁உரி": 1152,
      "▁காரணமாக": 1153,
      "▁அல": 1154,
      "▁இவற்றில்": 1155,
      "▁வேண்டிய": 1156,
      "பால": 1157,
      "வடி": 1158,
      "▁எண்ணி": 1159,
      "▁சர்": 1160,
      "▁பெற": 1161,
      "▁தமிழ்நாட்டின்": 1162,
      "as": 1163,
      "▁அணு": 1164,
      "▁உட்பட்ட": 1165,
      "ஞ்சா": 1166,
      "▁மொத்தம்": 1167,
      "▁மைய": 1168,
      "▁உயிர்": 1169,
      "▁வரி": 1170,
      "டர்": 1171,
      "▁A": 1172,
      "்று": 1173,
      "ண்ட்": 1174,
      "▁நாட்டு": 1175,
      "ட்சியில்": 1176,
      "ியாவில்": 1177,
      "▁வச": 1178,
      "னது": 1179,
      "தலை": 1180,
      "▁ஆய": 1181,
      "▁எல்லா": 1182,
      "த்தம்": 1183,
      "ூக": 1184,
      "ஞ்சு": 1185,
      "▁பீ": 1186,
      "▁நிர்வகி": 1187,
      "ாது": 1188,
      "▁அரசியல்": 1189,
      "டுவத": 1190,
      "▁நாக": 1191,
      "யோ": 1192,
      "தாவது": 1193,
      "த்திரு": 1194,
      "▁தவ": 1195,
      "ற்றம்": 1196,
      "னால்": 1197,
      "▁சந்த": 1198,
      "▁o": 1199,
      "ந்திரு": 1200,
      "▁பயன்": 1201,
      "▁பார": 1202,
      "மானது": 1203,
      "ானிய": 1204,
      "it": 1205,
      "▁விளையாட்டு": 1206,
      "ஞ்": 1207,
      "ுக்": 1208,
      "▁தீர்": 1209,
      "த்தும்": 1210,
      "▁ஆர": 1211,
      "▁விரி": 1212,
      "ிப்": 1213,
      "▁புர": 1214,
      "▁இடை": 1215,
      "நி": 1216,
      "மம்": 1217,
      "▁மகா": 1218,
      "▁அண": 1219,
      "▁திர": 1220,
      "ச்சை": 1221,
      "▁மீண்டும்": 1222,
      "சே": 1223,
      "▁தம்": 1224,
      "▁துறை": 1225,
      "மையை": 1226,
      "▁தென்": 1227,
      "ாரர்": 1228,
      "ங்கே": 1229,
      "கர": 1230,
      "▁மேற்": 1231,
      "▁சொன்ன": 1232,
      "ஞான": 1233,
      "ஸ்ட்": 1234,
      "▁ராஜ": 1235,
      "வதும்": 1236,
      "நாய": 1237,
      "▁இறை": 1238,
      "ழ்ச்சி": 1239,
      "▁நோய்": 1240,
      "▁பாக": 1241,
      "ட்டா": 1242,
      "▁வட்டார": 1243,
      "கன்": 1244,
      "பதி": 1245,
      "நோ": 1246,
      "▁பரு": 1247,
      "▁அழி": 1248,
      "▁கர": 1249,
      "ீடு": 1250,
      "த்திலிருந்து": 1251,
      "▁மை": 1252,
      "▁கவி": 1253,
      "ில்லிய": 1254,
      "மதி": 1255,
      "களுடன்": 1256,
      "▁கருத்து": 1257,
      "மையில்": 1258,
      "த்தே": 1259,
      "ட்டுக்": 1260,
      "▁தொடர்பு": 1261,
      "ுற": 1262,
      "னைய": 1263,
      "il": 1264,
      "டல்": 1265,
      "்டோ": 1266,
      "▁மண": 1267,
      "▁இவரது": 1268,
      "om": 1269,
      "▁புத்த": 1270,
      "▁பணியா": 1271,
      "▁புரி": 1272,
      "மான்": 1273,
      "ul": 1274,
      "▁அறநிலைய": 1275,
      "▁ஆங்கில": 1276,
      "▁துறையின்": 1277,
      "காலப்": 1278,
      "ram": 1279,
      "▁கோயிலா": 1280,
      "▁பள்ளி": 1281,
      "ரான": 1282,
      "▁கூடிய": 1283,
      "ol": 1284,
      "ந்திய": 1285,
      "▁ஒலி": 1286,
      "▁முதலிய": 1287,
      "ிற்": 1288,
      "▁பெறு": 1289,
      "னார்": 1290,
      "▁துணை": 1291,
      "▁உல": 1292,
      "▁மூன்ற": 1293,
      "▁நூற்றாண்டைச்": 1294,
      "▁தரு": 1295,
      "்ற": 1296,
      "த்துறையின்": 1297,
      "▁நன்": 1298,
      "▁கார்": 1299,
      "ச்சிய": 1300,
      "?”": 1301,
      "▁சமூக": 1302,
      "▁I": 1303,
      "்டது": 1304,
      "ed": 1305,
      "ொண்டு": 1306,
      "▁p": 1307,
      "▁குறு": 1308,
      "▁M": 1309,
      "▁அல்லா": 1310,
      "▁பாதி": 1311,
      "▁இன்ற": 1312,
      "▁சிறிய": 1313,
      "மாறு": 1314,
      "ங்கம்": 1315,
      "ரசு": 1316,
      "▁சிற்றூர்": 1317,
      "▁தேர்வு": 1318,
      "▁மருத்துவ": 1319,
      "▁உடல்": 1320,
      "▁ஷ": 1321,
      "தியாக": 1322,
      "ித்து": 1323,
      "ளோ": 1324,
      "▁உற": 1325,
      "▁டெ": 1326,
      "சம்": 1327,
      "வற்றை": 1328,
      "▁கன": 1329,
      "ட்டிரு": 1330,
      "▁கணி": 1331,
      "நு": 1332,
      "▁கதை": 1333,
      "▁of": 1334,
      "el": 1335,
      "த்தின": 1336,
      "ற்கான": 1337,
      "ளிய": 1338,
      "டுகின்றது": 1339,
      "்த்": 1340,
      "▁கிரு": 1341,
      "ழும்": 1342,
      "▁அடைய": 1343,
      "▁நாடக": 1344,
      "▁மாக": 1345,
      "ுடைய": 1346,
      "▁அனைத்து": 1347,
      "▁வேண்டு": 1348,
      "▁ஊரக": 1349,
      "anch": 1350,
      "ழ்வு": 1351,
      "▁இன்": 1352,
      "▁உற்ப": 1353,
      "மர்": 1354,
      "▁வணி": 1355,
      "▁இயற்க": 1356,
      "களா": 1357,
      "▁கிடை": 1358,
      "வின்படி": 1359,
      "ின்ன": 1360,
      "▁ஊர்": 1361,
      "நூ": 1362,
      "பெற்ற": 1363,
      "▁காலம்": 1364,
      "▁ஊராட்சியில்": 1365,
      "▁நிர": 1366,
      "கில்": 1367,
      "னாக": 1368,
      "ரர்": 1369,
      "▁சார்ந்த": 1370,
      "▁ஆண்டுத்": 1371,
      "▁உடைய": 1372,
      "▁சுற்று": 1373,
      "ர்த்தி": 1374,
      "ீன்": 1375,
      "ளைய": 1376,
      "ினர்களைத்": 1377,
      "▁மன்றத்": 1378,
      "மாகக்": 1379,
      "ayat": 1380,
      "▁ஆராய": 1381,
      "▁மாண": 1382,
      "▁f": 1383,
      "▁மக": 1384,
      "▁உட்பட்டதா": 1385,
      "▁Gram": 1386,
      "▁நிலையில்": 1387,
      "ல்லை": 1388,
      "▁Panch": 1389,
      "▁துற": 1390,
      "▁Panchayat": 1391,
      "ய்க": 1392,
      "▁அங்க": 1393,
      "▁ஊராட்சித்": 1394,
      "▁யூ": 1395,
      "மையாக": 1396,
      "▁தரவின்படி": 1397,
      "த்தைச்": 1398,
      "▁சிற்றூர்களின்": 1399,
      "▁உணவு": 1400,
      "▁கிற": 1401,
      "ின்று": 1402,
      "▁தன": 1403,
      "▁தங்": 1404,
      "ுப்": 1405,
      "்டி": 1406,
      "▁நம்": 1407,
      "▁வட்டாரத்தில்": 1408,
      "▁அல்ல": 1409,
      "கூ": 1410,
      "▁அழ": 1411,
      "ட்டுள்ளன": 1412,
      "▁தேர்த": 1413,
      "▁நவ": 1414,
      "▁இழ": 1415,
      "▁புகழ்": 1416,
      "▁பிரதேச": 1417,
      "ராட்ட": 1418,
      "▁சை": 1419,
      "▁சென்னை": 1420,
      "▁கீழ": 1421,
      "பட்ட": 1422,
      "▁கண்டு": 1423,
      "▁தொடங்க": 1424,
      "ுள்ளார்": 1425,
      "▁முதலில்": 1426,
      "லாக": 1427,
      "▁குடி": 1428,
      "▁சது": 1429,
      "மொழி": 1430,
      "▁தான": 1431,
      "▁மகி": 1432,
      "▁–": 1433,
      "ஷ்ண": 1434,
      "பிர": 1435,
      "ொருள்": 1436,
      "சைய": 1437,
      "ளாக": 1438,
      "ைபெறு": 1439,
      "ன்னி": 1440,
      "ன்பதாம்": 1441,
      "ங்கோ": 1442,
      "▁T": 1443,
      "னைப்": 1444,
      "ென்று": 1445,
      "▁எடு": 1446,
      "▁எரி": 1447,
      "கொ": 1448,
      "்ல": 1449,
      "ராஜ": 1450,
      "வதாக": 1451,
      "ங்கை": 1452,
      "▁உப": 1453,
      "▁கேட்ட": 1454,
      "ண்டை": 1455,
      "நே": 1456,
      "க்ச": 1457,
      "ியோ": 1458,
      "▁பன்ன": 1459,
      "ெரு": 1460,
      "ொள்ள": 1461,
      "ாவில்": 1462,
      "ாட்சி": 1463,
      "சார": 1464,
      "▁பெற்றார்": 1465,
      "▁ஸ்ட": 1466,
      "க்தி": 1467,
      "▁நெரு": 1468,
      "தைய": 1469,
      "▁கிலோ": 1470,
      "தியில்": 1471,
      "▁பேச": 1472,
      "!”": 1473,
      "யாது": 1474,
      "ினம்": 1475,
      "த்திரி": 1476,
      "ரத்தில்": 1477,
      "\"\"\"": 1478,
      "களே": 1479,
      "▁யு": 1480,
      "▁பத்தொ": 1481,
      "ட்டுப்": 1482,
      "▁கைய": 1483,
      "▁திக": 1484,
      "▁ரோ": 1485,
      "▁தமிழக": 1486,
      "ரைய": 1487,
      "▁B": 1488,
      "▁கொள்": 1489,
      "▁மேற்கு": 1490,
      "▁வினை": 1491,
      "▁இரண்டாம்": 1492,
      "▁அல்லாத": 1493,
      "▁தெரிவி": 1494,
      "▁யோ": 1495,
      "னோ": 1496,
      "ரன்": 1497,
      "ஜி": 1498,
      "▁பத்தொன்பதாம்": 1499,
      "சியா": 1500,
      "et": 1501,
      "புரி": 1502,
      "பம்": 1503,
      "மாள்": 1504,
      "ங்கியது": 1505,
      "ினா": 1506,
      "▁மத": 1507,
      "தாரண": 1508,
      "▁மேற்க": 1509,
      "▁இயல்": 1510,
      "▁ஈடுப": 1511,
      "▁கூறிய": 1512,
      "டியாக": 1513,
      "த்திற்க": 1514,
      "▁நெடு": 1515,
      "சர்": 1516,
      "▁மனை": 1517,
      "ற்றை": 1518,
      "ொழுது": 1519,
      "▁ஆராய்ச": 1520,
      "▁தல": 1521,
      "ர்ட்": 1522,
      "த்தோ": 1523,
      "டாக": 1524,
      "▁தள": 1525,
      "▁இங்கில": 1526,
      "ad": 1527,
      "▁இன்ன": 1528,
      "▁இவரு": 1529,
      "த்தைத்": 1530,
      "ாரி": 1531,
      "▁மேற்ப": 1532,
      "ட்டிகளில்": 1533,
      "தற்காக": 1534,
      "கிய": 1535,
      "▁ஐரோ": 1536,
      "புற": 1537,
      "▁th": 1538,
      "ன்றி": 1539,
      "▁அறங்கா": 1540,
      "ுத்": 1541,
      "▁அலு": 1542,
      "▁லா": 1543,
      "வதை": 1544,
      "▁அறங்காவலர்": 1545,
      "▁தொழில": 1546,
      "▁சிறி": 1547,
      "ேற்ற": 1548,
      "ய்ய": 1549,
      "யிற்று": 1550,
      "▁நேர்": 1551,
      "ங்களைக்": 1552,
      "▁நாட்டின்": 1553,
      "▁இலங்கை": 1554,
      "▁பால": 1555,
      "ஃப்": 1556,
      "கிறான்": 1557,
      "▁விருது": 1558,
      "and": 1559,
      "]]": 1560,
      "▁ஒழு": 1561,
      "்ட்": 1562,
      "வழி": 1563,
      "ட்டம்": 1564,
      "▁வீரர்": 1565,
      "ியன்": 1566,
      "ாவின்": 1567,
      "▁மாறு": 1568,
      "னைக்": 1569,
      "யிட": 1570,
      "▁R": 1571,
      "▁அளவில்": 1572,
      "்த்து": 1573,
      "▁இங்கிலா": 1574,
      "ென்": 1575,
      "▁மத்திய": 1576,
      "▁அவருடைய": 1577,
      "▁ஐந்து": 1578,
      "▁கோவில்": 1579,
      "▁இல்ல": 1580,
      "▁திருவ": 1581,
      "பூ": 1582,
      "லூர்": 1583,
      "நாள்": 1584,
      "ங்களிலும்": 1585,
      "ஷ்ட": 1586,
      "▁D": 1587,
      "▁சூரிய": 1588,
      "▁வணிக": 1589,
      "▁எல்ல": 1590,
      "பாலும்": 1591,
      "▁இன்று": 1592,
      "▁c": 1593,
      "▁பிள்ளை": 1594,
      "▁கண்": 1595,
      "▁அறு": 1596,
      "▁தடு": 1597,
      "▁வகு": 1598,
      "▁விரை": 1599,
      "ாலத்தில்": 1600,
      "▁வழியாக": 1601,
      "றிவு": 1602,
      "ing": 1603,
      "ைபெற்ற": 1604,
      "▁பிரித்த": 1605,
      "ழல்": 1606,
      "le": 1607,
      "▁துவ": 1608,
      "▁கத": 1609,
      "▁ஸ்ரீ": 1610,
      "ன்னதி": 1611,
      "த்தன": 1612,
      "▁தெளி": 1613,
      "சாமி": 1614,
      "▁வருகிறது": 1615,
      "▁பை": 1616,
      "▁ஆல்": 1617,
      "ட்சிய": 1618,
      "▁சந்தி": 1619,
      "டுகிறார்": 1620,
      "▁அரி": 1621,
      "▁ஆல": 1622,
      "us": 1623,
      "வண": 1624,
      "ழ்ந்து": 1625,
      "▁உள்": 1626,
      "ியமான": 1627,
      "▁நண்": 1628,
      "▁ஜன": 1629,
      "▁மாற": 1630,
      "▁பழைய": 1631,
      "ப்த": 1632,
      "▁அமைந்த": 1633,
      "ையைக்": 1634,
      "▁தெய்": 1635,
      "ிரம்": 1636,
      "▁வகைய": 1637,
      "▁அம்": 1638,
      "ந்தர்": 1639,
      "டுவது": 1640,
      "▁பிரிவு": 1641,
      "ளைக்": 1642,
      "ள்ளனர்": 1643,
      "▁நியூ": 1644,
      "ைபெறுகிறது": 1645,
      "▁காட்சி": 1646,
      "ண்மை": 1647,
      "யாத": 1648,
      "மண": 1649,
      "்படும்": 1650,
      "க்ஸ்": 1651,
      "வகை": 1652,
      "▁தாவர": 1653,
      "▁கற்ப": 1654,
      "▁எளி": 1655,
      "▁சுரு": 1656,
      "வுடன்": 1657,
      "னில்": 1658,
      "ட்டும்": 1659,
      "▁[[": 1660,
      "▁உடன்": 1661,
      "▁மாகாண": 1662,
      "um": 1663,
      "ஸ்வர": 1664,
      "டாது": 1665,
      "▁இணைந்து": 1666,
      "▁குறைந்த": 1667,
      "▁ரி": 1668,
      "▁லி": 1669,
      "்படுத்த": 1670,
      "▁அவ்வ": 1671,
      "டோ": 1672,
      "▁கூறி": 1673,
      "ிட்டு": 1674,
      "ட்டியில்": 1675,
      "▁பெண்க": 1676,
      "▁ஜூ": 1677,
      "▁தெரிய": 1678,
      "டக": 1679,
      "மலை": 1680,
      "ப்ர": 1681,
      "▁கழி": 1682,
      "சல்": 1683,
      "▁அன்": 1684,
      "▁சுர": 1685,
      "▁பெரி": 1686,
      "ாலி": 1687,
      "▁அத்த": 1688,
      "▁பெண்ண": 1689,
      "▁அமில": 1690,
      "▁விமான": 1691,
      "ெட்": 1692,
      "▁கள": 1693,
      "சீ": 1694,
      "▁விதி": 1695,
      "▁பாண்டிய": 1696,
      "ென்ற": 1697,
      "திரு": 1698,
      "▁கண்க": 1699,
      "ிறு": 1700,
      "ிலிருந்த": 1701,
      "பான": 1702,
      "ation": 1703,
      "மிய": 1704,
      "un": 1705,
      "லாளர்": 1706,
      "்டார்": 1707,
      "▁N": 1708,
      "▁வெள்ள": 1709,
      "த்தனர்": 1710,
      "ri": 1711,
      "▁கிரி": 1712,
      "▁பள்ள": 1713,
      "▁அக்டோ": 1714,
      "▁சுமார்": 1715,
      "ுந்த": 1716,
      "▁அலை": 1717,
      "நாத": 1718,
      "ெழு": 1719,
      "ழ்ச்ச": 1720,
      "ண்ம": 1721,
      "▁செல்லும்": 1722,
      "▁செல": 1723,
      "▁நாய": 1724,
      "பட": 1725,
      "▁உற்பத்தி": 1726,
      "▁ரூ": 1727,
      "லான": 1728,
      "▁படைய": 1729,
      "▁அமைச்ச": 1730,
      "கிறேன்": 1731,
      "▁மல": 1732,
      "ro": 1733,
      "படுத்த": 1734,
      "யூ": 1735,
      "களைச்": 1736,
      "▁மன்னர்": 1737,
      "ங்களைப்": 1738,
      "▁பால்": 1739,
      "சன": 1740,
      "விர": 1741,
      "பவ": 1742,
      "த்திரம்": 1743,
      "ில்லியன்": 1744,
      "ிடத்த": 1745,
      "விலும்": 1746,
      "▁கரி": 1747,
      "வதற்காக": 1748,
      "▁பெற்றது": 1749,
      "ய்ந்த": 1750,
      "லைப்": 1751,
      "▁இணைய": 1752,
      "▁மீட்டர்": 1753,
      "▁நர": 1754,
      "▁ஒன்றா": 1755,
      "்பட்ட": 1756,
      "▁பயிற்": 1757,
      "▁வகையில்": 1758,
      "▁நிறுவ": 1759,
      "▁H": 1760,
      "▁நின்று": 1761,
      "மின்": 1762,
      "▁கர்": 1763,
      "ையைப்": 1764,
      "▁அக்டோபர்": 1765,
      "▁சிகி": 1766,
      "▁வடிவமை": 1767,
      "ூறு": 1768,
      "ாட": 1769,
      "▁சதுர": 1770,
      "re": 1771,
      "ிலான": 1772,
      "▁விர": 1773,
      "வரின்": 1774,
      "றைய": 1775,
      "▁அழக": 1776,
      "▁அருகில்": 1777,
      "▁வல்ல": 1778,
      "ரியில்": 1779,
      "த்துவம்": 1780,
      "▁ஜோ": 1781,
      "▁the": 1782,
      "பாட்டு": 1783,
      "நுட்ப": 1784,
      "▁இனி": 1785,
      "▁விஷ": 1786,
      "▁நிறுவனம்": 1787,
      "ளே": 1788,
      "ட்டனர்": 1789,
      "ிறான்": 1790,
      "நாடு": 1791,
      "சூ": 1792,
      "▁இசு": 1793,
      "▁d": 1794,
      "▁தேர்வுத்": 1795,
      "ியே": 1796,
      "▁இல்லாத": 1797,
      "▁கரை": 1798,
      "ாரம்": 1799,
      "▁அம்மன்": 1800,
      "▁பொருளா": 1801,
      "▁h": 1802,
      "▁கூடு": 1803,
      "கக்": 1804,
      "ிலி": 1805,
      "த்தூர்": 1806,
      "▁உடை": 1807,
      "ac": 1808,
      "▁தோல்": 1809,
      "▁நின்ற": 1810,
      "▁விண்": 1811,
      "▁உரிமை": 1812,
      "்டிட": 1813,
      "ந்தர": 1814,
      "ில்லா": 1815,
      "▁கிட": 1816,
      "▁பயன்படுத்து": 1817,
      "வினை": 1818,
      "ருந்து": 1819,
      "▁மதுரை": 1820,
      "▁\"“": 1821,
      "ியான": 1822,
      "முடைய": 1823,
      "த்துச்": 1824,
      "▁s": 1825,
      "▁வேக": 1826,
      "▁தீவு": 1827,
      "த்திற்": 1828,
      "▁வங்க": 1829,
      "▁பிரதி": 1830,
      "▁பொழுது": 1831,
      "▁காரணம்": 1832,
      "ழ்த்த": 1833,
      "▁தமது": 1834,
      "▁வண்ண": 1835,
      "▁பேரா": 1836,
      "▁கன்ன": 1837,
      "▁இரண்டாவது": 1838,
      "தாய": 1839,
      "ெய்": 1840,
      "பாக": 1841,
      "புர": 1842,
      "வித": 1843,
      "வூர்": 1844,
      "▁யான": 1845,
      "▁திருச்ச": 1846,
      "ேசு": 1847,
      "id": 1848,
      "வின": 1849,
      "யல்": 1850,
      "ங்களாக": 1851,
      "ுகளை": 1852,
      "பன்": 1853,
      "ியப்": 1854,
      "வதே": 1855,
      "▁ஆப": 1856,
      "▁அவனு": 1857,
      "மாய": 1858,
      "▁ஆண்டுகளில்": 1859,
      "னான": 1860,
      "▁புனித": 1861,
      "லூரி": 1862,
      "பெரு": 1863,
      "ைசிய": 1864,
      "▁வரலாற்று": 1865,
      "▁பக": 1866,
      "▁முனை": 1867,
      "ந்தன": 1868,
      "▁வித": 1869,
      "▁பாரா": 1870,
      "ளைப்": 1871,
      "▁கருவி": 1872,
      "▁சின்ன": 1873,
      "ளால்": 1874,
      "▁செப்ட": 1875,
      "▁அரசா": 1876,
      "▁நிகழ்ச்சி": 1877,
      "▁அடையாள": 1878,
      "▁முது": 1879,
      "▁கிருஷ்ண": 1880,
      "▁கொள்கை": 1881,
      "கப்": 1882,
      "▁உட்க": 1883,
      "▁வயது": 1884,
      "மணி": 1885,
      "▁ஆராய்ச்சி": 1886,
      "▁தமிழர்": 1887,
      "களான": 1888,
      "▁அண்ண": 1889,
      "▁இராம": 1890,
      "▁மூலமாக": 1891,
      "ணா": 1892,
      "ண்டா": 1893,
      "▁சித்த": 1894,
      "▁ஆதி": 1895,
      "ாலே": 1896,
      "▁எம்": 1897,
      "▁எது": 1898,
      "▁கொடுத்த": 1899,
      "னூ": 1900,
      "▁குர": 1901,
      "▁நூற்றாண்டு": 1902,
      "னைத்": 1903,
      "▁அதி": 1904,
      "▁பொருட்க": 1905,
      "னிடம்": 1906,
      "▁ஞான": 1907,
      "ந்தா": 1908,
      "ும": 1909,
      "லத்தில்": 1910,
      "ழகம்": 1911,
      "▁அணியின்": 1912,
      "்டர்": 1913,
      "▁சுற்றி": 1914,
      "▁மனிதர்": 1915,
      "▁இறுதி": 1916,
      "▁பிரான்": 1917,
      "▁b": 1918,
      "▁வீடு": 1919,
      "பாலான": 1920,
      "▁விலங்கு": 1921,
      "▁முழுவதும்": 1922,
      "சின்": 1923,
      "ுச்": 1924,
      "▁பண்ட": 1925,
      "▁வழங்கு": 1926,
      "தாகக்": 1927,
      "த்தர": 1928,
      "▁ஆதர": 1929,
      "ent": 1930,
      "டியே": 1931,
      "▁குற்ற": 1932,
      "▁மருந்து": 1933,
      "iv": 1934,
      "▁நேரம்": 1935,
      "▁வரலாறு": 1936,
      "▁நாட்டில்": 1937,
      "சியம்": 1938,
      "▁வல": 1939,
      "த்திலே": 1940,
      "▁வசி": 1941,
      "▁கீழே": 1942,
      "▁உர": 1943,
      "▁சரா": 1944,
      "▁நிய": 1945,
      "▁இம்ம": 1946,
      "▁சமு": 1947,
      "▁அதாவது": 1948,
      "பொ": 1949,
      "ினராக": 1950,
      "ாடி": 1951,
      "▁இடையே": 1952,
      "▁கொழு": 1953,
      "▁முரு": 1954,
      "▁நை": 1955,
      "ளவில்": 1956,
      "ியாளர்": 1957,
      "▁தொழில்நுட்ப": 1958,
      "▁for": 1959,
      "▁தங்க": 1960,
      "▁மலே": 1961,
      "ரிட": 1962,
      "▁கழக": 1963,
      "▁குறிய": 1964,
      "▁சன்னதி": 1965,
      "▁பன்னாட்டு": 1966,
      "▁இவற்ற": 1967,
      "னியா": 1968,
      "ஸ்திர": 1969,
      "ன்னா": 1970,
      "▁மட": 1971,
      "▁இங்கிலாந்து": 1972,
      "▁மலைய": 1973,
      "ிருந்தனர்": 1974,
      "யன்": 1975,
      "▁கிள": 1976,
      "▁வின": 1977,
      "▁கோட்": 1978,
      "▁டே": 1979,
      "▁நிலையம்": 1980,
      "▁குளி": 1981,
      "ap": 1982,
      "▁எல்லை": 1983,
      "ின்றி": 1984,
      "▁உறுதி": 1985,
      "▁இத்திரை": 1986,
      "▁பொருளாதார": 1987,
      "▁அச்ச": 1988,
      "கரி": 1989,
      "கிரி": 1990,
      "ியைக்": 1991,
      "பூர்": 1992,
      "▁டை": 1993,
      "பீ": 1994,
      "▁அவளு": 1995,
      "வதால்": 1996,
      "▁உரை": 1997,
      "▁இடங்களில்": 1998,
      "▁நாடுகளில்": 1999,
      "▁சொந்த": 2000,
      "▁தோற்ற": 2001,
      "ற்சி": 2002,
      "மிட": 2003,
      "os": 2004,
      "▁வளை": 2005,
      "த்துத்": 2006,
      "▁கொல்ல": 2007,
      "▁ஹெ": 2008,
      "ீர": 2009,
      "ியைப்": 2010,
      "▁L": 2011,
      "மிழ்": 2012,
      "ொன்ற": 2013,
      "▁ஆற்றல்": 2014,
      "▁விகி": 2015,
      "▁வேதிய": 2016,
      "▁நூற்றாண்டில்": 2017,
      "சையில்": 2018,
      "ர்த்து": 2019,
      "▁படு": 2020,
      "மய": 2021,
      "ஜா": 2022,
      "ிர்": 2023,
      "▁அர்": 2024,
      "▁காரிய": 2025,
      "▁அல்": 2026,
      "ையோ": 2027,
      "மிருந்து": 2028,
      "?\"\"": 2029,
      "ரிடம்": 2030,
      "▁தெரியா": 2031,
      "▁கொடுத்து": 2032,
      "மடை": 2033,
      "▁F": 2034,
      "லன்": 2035,
      "த்துறை": 2036,
      "▁பருவ": 2037,
      "▁இவன்": 2038,
      "தில்லை": 2039,
      "்டால்": 2040,
      "ிறேன்": 2041,
      "▁கோட்டை": 2042,
      "em": 2043,
      "ுள்ளது": 2044,
      "பன": 2045,
      "▁E": 2046,
      "▁நாட்ட": 2047,
      "ப்ரல்": 2048,
      "▁யாழ்": 2049,
      "▁தட": 2050,
      "மாகப்": 2051,
      "▁மான": 2052,
      "▁நன்ற": 2053,
      "▁வண": 2054,
      "களுள்": 2055,
      "▁உருவ": 2056,
      "▁திரி": 2057,
      "▁பிரா": 2058,
      "▁நினைவு": 2059,
      "▁சன": 2060,
      "▁கிரே": 2061,
      "▁தலைமை": 2062,
      "▁உத": 2063,
      "டனும்": 2064,
      "டாத": 2065,
      "வதில்லை": 2066,
      "▁வில்": 2067,
      "ச்சே": 2068,
      "ிருந்தன": 2069,
      "ag": 2070,
      "வரா": 2071,
      "்டமை": 2072,
      "▁எங்": 2073,
      "▁சிங்க": 2074,
      "▁குல": 2075,
      "ரைப்": 2076,
      "நாட்டு": 2077,
      "▁சுழ": 2078,
      "▁உடனே": 2079,
      "ற்பு": 2080,
      "ோல்": 2081,
      "டியா": 2082,
      "▁மில்லியன்": 2083,
      "ய்வு": 2084,
      "▁ரெ": 2085,
      "▁மரப": 2086,
      "▁சிறிது": 2087,
      "▁மீன்": 2088,
      "தந்திர": 2089,
      "வீரர்": 2090,
      "▁குண": 2091,
      "▁வீட்டு": 2092,
      "▁பாடிய": 2093,
      "யிலும்": 2094,
      "▁இச்": 2095,
      "ந்தனர்": 2096,
      "தீ": 2097,
      "▁m": 2098,
      "▁இம்": 2099,
      "்தொ": 2100,
      "▁நேரத்தில்": 2101,
      "சார்": 2102,
      "▁எவ்வ": 2103,
      "▁வென்ற": 2104,
      "ற்றினார்": 2105,
      "▁அவற்றின்": 2106,
      "▁தமிழ்த்": 2107,
      "▁கோட்ட": 2108,
      "ir": 2109,
      "ிழ": 2110,
      "பெயர்": 2111,
      "▁நான": 2112,
      "றா": 2113,
      "▁சூழ": 2114,
      "▁நாட்க": 2115,
      "ணுவ": 2116,
      "▁t": 2117,
      "▁பயிற்சி": 2118,
      "▁விளங்கு": 2119,
      "od": 2120,
      "▁கதா": 2121,
      "▁மரபு": 2122,
      "▁தற்க": 2123,
      "ia": 2124,
      "▁மட்டு": 2125,
      "லைக்": 2126,
      "மர": 2127,
      "டவில்லை": 2128,
      "ட்டுள்ள": 2129,
      "▁தண்ண": 2130,
      "ங்கிர": 2131,
      "தொ": 2132,
      "ஞ்சம்": 2133,
      "▁இத்தகைய": 2134,
      "தியை": 2135,
      "▁ஏப்ரல்": 2136,
      "▁நம": 2137,
      "▁கழு": 2138,
      "▁ஆண்டின்": 2139,
      "▁சப": 2140,
      "ந்தம்": 2141,
      "ியத்": 2142,
      "▁விவ": 2143,
      "▁பத்திரி": 2144,
      "▁புரா": 2145,
      "▁சக்தி": 2146,
      "▁ரீ": 2147,
      "கிழ": 2148,
      "▁எத்த": 2149,
      "▁திரா": 2150,
      "ியிரு": 2151,
      "▁அனுமதி": 2152,
      "▁முதலா": 2153,
      "▁பெருமாள்": 2154,
      "ூரில்": 2155,
      "▁தெய்வ": 2156,
      "பான்": 2157,
      "டிக்": 2158,
      "▁பண்பு": 2159,
      "▁இரத்த": 2160,
      "▁சத": 2161,
      "வதி": 2162,
      "களிடம்": 2163,
      "▁பெயரில்": 2164,
      "கத்தில்": 2165,
      "த்தான": 2166,
      "▁பதில": 2167,
      "▁எடுத்துக்": 2168,
      "ிச்": 2169,
      "களது": 2170,
      "ாளு": 2171,
      "▁பதிவு": 2172,
      "▁கார": 2173,
      "▁தின": 2174,
      "ec": 2175,
      "▁சந்திர": 2176,
      "▁தடை": 2177,
      "▁நன்கு": 2178,
      "▁அம்மா": 2179,
      "வீன": 2180,
      "டே": 2181,
      "▁வேண்ட": 2182,
      "ரைக்": 2183,
      "வொரு": 2184,
      "ாகி": 2185,
      "ோட்டை": 2186,
      "வதில்": 2187,
      "தைக்": 2188,
      "▁பிரச்ச": 2189,
      "▁தை": 2190,
      "▁விஜ": 2191,
      "▁மேலே": 2192,
      "▁திருமணம்": 2193,
      "▁எஸ்": 2194,
      "▁தொலைவில்": 2195,
      "தியான": 2196,
      "▁நுழை": 2197,
      "ருடன்": 2198,
      "ட்டோ": 2199,
      "ற்றும்": 2200,
      "▁கூறினார்": 2201,
      "ண்ணு": 2202,
      "▁எலு": 2203,
      "▁நண்பர்": 2204,
      "▁பயன்படுத்தி": 2205,
      "ula": 2206,
      "▁அந்": 2207,
      "ட்டிக்": 2208,
      "▁அடு": 2209,
      "▁எவ்": 2210,
      "பாய்": 2211,
      "ப்ரவரி": 2212,
      "தது": 2213,
      "▁பட்டம்": 2214,
      "▁காங்கிர": 2215,
      "▁சிகிச்சை": 2216,
      "▁⁠": 2217,
      "கத்": 2218,
      "▁தெற்கு": 2219,
      "மீன்": 2220,
      "்சு": 2221,
      "டுத்தி": 2222,
      "▁மாறி": 2223,
      "▁w": 2224,
      "டியில்": 2225,
      "▁உள": 2226,
      "வலை": 2227,
      "▁நாட்": 2228,
      "்கு": 2229,
      "ந்தைய": 2230,
      "▁இளவர": 2231,
      "▁மெய்": 2232,
      "▁பகு": 2233,
      "▁மாதிரி": 2234,
      "ிடையே": 2235,
      "பால்": 2236,
      "▁புள்ளி": 2237,
      "▁இன்ப": 2238,
      "ுதல்": 2239,
      "▁கூட்டு": 2240,
      "ட்டிகளிலும்": 2241,
      "மாய்": 2242,
      "▁காஞ்சி": 2243,
      "வெட்டு": 2244,
      "▁ஜே": 2245,
      "கங்": 2246,
      "▁திகதி": 2247,
      "▁ஆண்டுகளு": 2248,
      "▁உயர": 2249,
      "▁குள": 2250,
      "▁வருட": 2251,
      "ல்லி": 2252,
      "▁சுதந்திர": 2253,
      "▁முன்பு": 2254,
      "▁பெர்": 2255,
      "வடை": 2256,
      "நூல்": 2257,
      "முள்ள": 2258,
      "▁வசதி": 2259,
      "▁இஸ்": 2260,
      "பத": 2261,
      "▁ஆன்": 2262,
      "ராம": 2263,
      "்சை": 2264,
      "▁ஒன்றாக": 2265,
      "பார": 2266,
      "▁ஆளு": 2267,
      "▁தேர்தல்": 2268,
      "▁தலைமைய": 2269,
      "கிறாள்": 2270,
      "op": 2271,
      "!\"\"": 2272,
      "நர்": 2273,
      "▁ப்": 2274,
      "த்தினை": 2275,
      "ிடி": 2276,
      "▁விற்ப": 2277,
      "▁ஏன": 2278,
      "▁புலி": 2279,
      "▁முய": 2280,
      "▁திட": 2281,
      "ுகிறது": 2282,
      "▁தீர்மான": 2283,
      "திரி": 2284,
      "▁மனம்": 2285,
      "▁இயற்கை": 2286,
      "வுள்": 2287,
      "▁அரண்ம": 2288,
      "▁பௌ": 2289,
      "▁நிகழ்வு": 2290,
      "▁இல்லாமல்": 2291,
      "▁பேரரச": 2292,
      "▁நிகழ்": 2293,
      "வற்றில்": 2294,
      "▁இம்மா": 2295,
      "▁முன்ப": 2296,
      "▁மண்டல": 2297,
      "▁துன்ப": 2298,
      "▁சமயம்": 2299,
      "▁மேற்பட்ட": 2300,
      "▁மலர்": 2301,
      "mula": 2302,
      "▁கவிதை": 2303,
      "ண்டர்": 2304,
      "▁இச்ச": 2305,
      "▁தொழி": 2306,
      "▁புரிந்து": 2307,
      "சாலை": 2308,
      "▁K": 2309,
      "த்திலுள்ள": 2310,
      "▁அவனை": 2311,
      "ியுள்ளார்": 2312,
      "ையைத்": 2313,
      "▁V": 2314,
      "ut": 2315,
      "▁முத்து": 2316,
      "▁கவன": 2317,
      "▁அரசர்": 2318,
      "▁இயேசு": 2319,
      "▁பிரித்தானிய": 2320,
      "ர்ந்து": 2321,
      "▁நொ": 2322,
      "மில்லை": 2323,
      "▁பேச்சு": 2324,
      "ர்தி": 2325,
      "ய்ச": 2326,
      "▁உலகின்": 2327,
      "▁வங்காள": 2328,
      "▁லூ": 2329,
      "ிடு": 2330,
      "▁ஏழு": 2331,
      "▁மழை": 2332,
      "ஷன்": 2333,
      "▁கிறி": 2334,
      "ட்சு": 2335,
      "ையு": 2336,
      "ினாள்": 2337,
      "ஷி": 2338,
      "▁இடைய": 2339,
      "▁விபர": 2340,
      "வூ": 2341,
      "▁கணித": 2342,
      "ஸ்வரர்": 2343,
      "ரான்": 2344,
      "▁தேதி": 2345,
      "▁கேட்டு": 2346,
      "▁சாதாரண": 2347,
      "ோட்ட": 2348,
      "▁மின்ன": 2349,
      "▁சர": 2350,
      "▁அதனை": 2351,
      "கன": 2352,
      "ழிய": 2353,
      "ள்ளு": 2354,
      "▁ஆயு": 2355,
      "ையைச்": 2356,
      "்சியின்": 2357,
      "▁ராம": 2358,
      "▁சோதனை": 2359,
      "பில்": 2360,
      "ொலி": 2361,
      "▁காண்": 2362,
      "▁நாள": 2363,
      "▁உயர்ந்த": 2364,
      "▁சிந்த": 2365,
      "▁அரிய": 2366,
      "்டு": 2367,
      "மானார்": 2368,
      "▁பரிசு": 2369,
      "▁அன்ற": 2370,
      "▁கதிர்": 2371,
      "ist": 2372,
      "ளராக": 2373,
      "டுத்தும்": 2374,
      "வனை": 2375,
      "▁மரண": 2376,
      "த்தோடு": 2377,
      "▁தாம": 2378,
      "த்திலேயே": 2379,
      "▁தஞ்சா": 2380,
      "நிலையில்": 2381,
      "▁மாநிலத்தில்": 2382,
      "டமா": 2383,
      "ணன்": 2384,
      "ட்டான்": 2385,
      "ரையில்": 2386,
      "ரூ": 2387,
      "கின்றார்": 2388,
      "▁ஜான்": 2389,
      "வதற்கான": 2390,
      "▁பேசி": 2391,
      "▁துணி": 2392,
      "களுடைய": 2393,
      "▁சிவன்": 2394,
      "▁ஒன்றிய": 2395,
      "▁சிற்ப": 2396,
      "▁தெரிந்து": 2397,
      "▁குறித்து": 2398,
      "▁மட்ட": 2399,
      "▁கனி": 2400,
      "▁பெருமை": 2401,
      "▁அய": 2402,
      "த்தினால்": 2403,
      "▁பொருள்க": 2404,
      "ட்டியிலும்": 2405,
      "▁சான்": 2406,
      "▁அப": 2407,
      "▁உலோ": 2408,
      "ீட்டு": 2409,
      "படும்": 2410,
      "▁சாலை": 2411,
      "பட்டு": 2412,
      "ையான": 2413,
      "பது": 2414,
      "வற்றின்": 2415,
      "▁தலைவராக": 2416,
      "ழில்": 2417,
      "▁அன்பு": 2418,
      "he": 2419,
      "ொன்று": 2420,
      "▁தீவிர": 2421,
      "்தாளர்": 2422,
      "▁ஸ": 2423,
      "▁and": 2424,
      "▁ரே": 2425,
      "!\"": 2426,
      "▁கற்ற": 2427,
      "▁மொழியில்": 2428,
      "▁தண்ட": 2429,
      "▁நிறைவே": 2430,
      "av": 2431,
      "▁W": 2432,
      "ot": 2433,
      "யராக": 2434,
      "திலும்": 2435,
      "நிதி": 2436,
      "▁formula": 2437,
      "▁பதவி": 2438,
      "மாற்ற": 2439,
      "ன்பது": 2440,
      "▁உரிய": 2441,
      "▁கலி": 2442,
      "குறி": 2443,
      "▁மூன்றாம்": 2444,
      "யானது": 2445,
      "வுகளை": 2446,
      "ாகத்": 2447,
      "▁மனைவி": 2448,
      "▁தெற்க": 2449,
      "▁சமுதாய": 2450,
      "▁சீன": 2451,
      "▁விவசா": 2452,
      "ிலை": 2453,
      "மண்ட": 2454,
      "all": 2455,
      "▁அரசின்": 2456,
      "▁பத்து": 2457,
      "▁நிதி": 2458,
      "▁குறித்த": 2459,
      "▁வேண்டுமெ": 2460,
      "▁முனி": 2461,
      "ெயர்": 2462,
      "▁சொற்க": 2463,
      "வித்": 2464,
      "சனை": 2465,
      "▁தமிழில்": 2466,
      "▁மார்ச்": 2467,
      "▁செல்வ": 2468,
      "▁கருது": 2469,
      "▁விவரி": 2470,
      "▁நல": 2471,
      "▁கேர": 2472,
      "▁சமா": 2473,
      "லாந்து": 2474,
      "தியின்": 2475,
      "வச": 2476,
      "▁காற்று": 2477,
      "ெனில்": 2478,
      "மைப்": 2479,
      "▁இதய": 2480,
      "▁↑": 2481,
      "▁நிற்க": 2482,
      "▁மாலை": 2483,
      "டித்": 2484,
      "▁தவற": 2485,
      "▁மாற்றி": 2486,
      "ெய": 2487,
      "▁தர்ம": 2488,
      "▁உன": 2489,
      "▁பாத்திர": 2490,
      "ரிக்": 2491,
      "▁பொன்ன": 2492,
      "ராய்": 2493,
      "▁லீ": 2494,
      "யவில்லை": 2495,
      "▁வரவே": 2496,
      "ெற்ற": 2497,
      "▁முன்னர்": 2498,
      "▁பரவல": 2499,
      "▁தெலு": 2500,
      "▁இயலா": 2501,
      "▁மாற்று": 2502,
      "மன": 2503,
      "ா்": 2504,
      "▁தோன்று": 2505,
      "▁சென்ன": 2506,
      "▁தெரு": 2507,
      "▁கோவில": 2508,
      "னுடன்": 2509,
      "▁கலா": 2510,
      "ையால்": 2511,
      "▁பட்டிய": 2512,
      "▁துரு": 2513,
      "ினோ": 2514,
      "ெரிய": 2515,
      "ak": 2516,
      "▁in": 2517,
      "▁கண்டறி": 2518,
      "▁அறை": 2519,
      "கல": 2520,
      "▁பசு": 2521,
      "▁டிச": 2522,
      "டியான": 2523,
      "▁பழு": 2524,
      "▁அஞ்ச": 2525,
      "▁ல்": 2526,
      "ுரி": 2527,
      "ியைத்": 2528,
      "▁அரை": 2529,
      "▁எதிராக": 2530,
      "▁வகையான": 2531,
      "▁நகை": 2532,
      "திமன்ற": 2533,
      "ின்றார்": 2534,
      "▁யானை": 2535,
      "ானா": 2536,
      "▁கிளை": 2537,
      "▁உலகம்": 2538,
      "▁கான்": 2539,
      "மீட்டர்": 2540,
      "▁வெடி": 2541,
      "▁குளிர்": 2542,
      "த்தாள்": 2543,
      "▁அச்சு": 2544,
      "▁வகி": 2545,
      "கிர": 2546,
      "ங்கிக்": 2547,
      "யப்": 2548,
      "▁காணலாம்": 2549,
      "▁மாநிலத்தின்": 2550,
      "▁சூழ்": 2551,
      "த்தலை": 2552,
      "ங்கலம்": 2553,
      "பொரு": 2554,
      "▁பாத": 2555,
      "ச்சா": 2556,
      "தைப்": 2557,
      "நெ": 2558,
      "ாளுமன்ற": 2559,
      "▁விலை": 2560,
      "▁மேல": 2561,
      "சர": 2562,
      "▁நெறி": 2563,
      "▁தய": 2564,
      "▁முன்னாள்": 2565,
      "▁சீனா": 2566,
      "▁செயற்க": 2567,
      "▁பாய்": 2568,
      "▁ஓர": 2569,
      "ai": 2570,
      "▁தாங்": 2571,
      "சாக": 2572,
      "கீ": 2573,
      "▁நாடாளுமன்ற": 2574,
      "▁இலங்கையின்": 2575,
      "ab": 2576,
      "▁திறன்": 2577,
      "▁மய": 2578,
      "▁பஞ்ச": 2579,
      "கமாக": 2580,
      "றையில்": 2581,
      "▁இராக": 2582,
      "▁மனி": 2583,
      "▁சால": 2584,
      "▁ஒன்றும்": 2585,
      "▁ஒது": 2586,
      "▁வருகிறார்": 2587,
      "▁பயண": 2588,
      "▁செரு": 2589,
      "▁நாண": 2590,
      "▁\"⁠": 2591,
      "▁இறுதியில்": 2592,
      "▁சபை": 2593,
      "▁தொடர்பான": 2594,
      "▁நூற்றாண்டின்": 2595,
      "▁எட்டு": 2596,
      "▁விநாய": 2597,
      "▁தொடங்கி": 2598,
      "▁பெரும": 2599,
      "▁ஆதார": 2600,
      "▁இராணுவ": 2601,
      "▁எவ்வளவு": 2602,
      "த்தியா": 2603,
      "்டத்தில்": 2604,
      "▁அருள்": 2605,
      "▁அன்ன": 2606,
      "த்தினர்": 2607,
      "▁ஒன்றை": 2608,
      "பாட்ட": 2609,
      "▁இளை": 2610,
      "ஸி": 2611,
      "▁பனி": 2612,
      "▁நாட்டை": 2613,
      "ூட": 2614,
      "▁தொடர்புடைய": 2615,
      "▁பகை": 2616,
      "▁வரிசை": 2617,
      "▁வெகு": 2618,
      "ைசியாகப்": 2619,
      "▁ஏதோ": 2620,
      "யின": 2621,
      "ன்ஸ்": 2622,
      "▁முன்னே": 2623,
      "தலால்": 2624,
      "▁தாம்": 2625,
      "முகம்": 2626,
      "ணும்": 2627,
      "னீ": 2628,
      "நெல்": 2629,
      "ஹா": 2630,
      "ிறாள்": 2631,
      "▁இரவு": 2632,
      "▁அன்ப": 2633,
      "மல": 2634,
      "▁தங்களு": 2635,
      "நோய்": 2636,
      "ுகளில்": 2637,
      "லியா": 2638,
      "மைக்": 2639,
      "▁நிரு": 2640,
      "▁பிரெ": 2641,
      "டியோ": 2642,
      "▁ஸ்க": 2643,
      "▁விளையாட்டுவீரர்": 2644,
      "▁பயணி": 2645,
      "▁உழை": 2646,
      "▁அவற்றை": 2647,
      "ழகத்தில்": 2648,
      "லாமிய": 2649,
      "▁கூடாது": 2650,
      "▁நமது": 2651,
      "▁முற்ற": 2652,
      "▁இடையில்": 2653,
      "▁லெ": 2654,
      "▁சாதி": 2655,
      "▁தோன்றிய": 2656,
      "▁நோய": 2657,
      "ளைத்": 2658,
      "ாலம்": 2659,
      "im": 2660,
      "▁அவனுடைய": 2661,
      "▁கிறித்த": 2662,
      "வள": 2663,
      "மையா": 2664,
      "றே": 2665,
      "▁இளைய": 2666,
      "▁மெல்ல": 2667,
      "லால்": 2668,
      "▁உட்": 2669,
      "▁விஷய": 2670,
      "▁ஜா": 2671,
      "வழ": 2672,
      "▁ஜி": 2673,
      "▁தஞ்சாவூர்": 2674,
      "ரியம்மன்": 2675,
      "▁திட்டத்தின்": 2676,
      "▁பொருள": 2677,
      "▁மென்ப": 2678,
      "▁நிறைந்த": 2679,
      "▁வெவ்": 2680,
      "▁காந்த": 2681,
      "ிகர்": 2682,
      "லீ": 2683,
      "ரைத்": 2684,
      "▁தொழிற்": 2685,
      "▁சாக": 2686,
      "▁குளோ": 2687,
      "ுள்": 2688,
      "ig": 2689,
      "கூட": 2690,
      "▁உச்ச": 2691,
      "ந்தும்": 2692,
      "ிகை": 2693,
      "யறு": 2694,
      "▁விமர்": 2695,
      "லெ": 2696,
      "▁பிணை": 2697,
      "▁சட்டம்": 2698,
      "▁பொருத்த": 2699,
      "▁சென்றார்": 2700,
      "▁அரசன்": 2701,
      "▁தேர்தலில்": 2702,
      "டலாம்": 2703,
      "▁ரொ": 2704,
      "▁ஆங்க": 2705,
      "▁நவீன": 2706,
      "▁மண்ண": 2707,
      "ter": 2708,
      "▁அணை": 2709,
      "மாகத்": 2710,
      "ஸ்தான": 2711,
      "▁அத்துடன்": 2712,
      "ராத": 2713,
      "ரைடு": 2714,
      "ிருந்தால்": 2715,
      "ட்ஸ்": 2716,
      "▁குரல்": 2717,
      "▁இசைய": 2718,
      "சுவர": 2719,
      "▁க்": 2720,
      "▁லோ": 2721,
      "ியக்": 2722,
      "▁பொருட்": 2723,
      "தெ": 2724,
      "கத்தின்": 2725,
      "்டான்": 2726,
      "ஷா": 2727,
      "▁இதே": 2728,
      "▁இன்னொரு": 2729,
      "▁சிறை": 2730,
      "பாட்டை": 2731,
      "▁அக்": 2732,
      "▁சித": 2733,
      "og": 2734,
      "▁ரு": 2735,
      "▁தானே": 2736,
      "▁அரசாங்க": 2737,
      "டுகின்றனர்": 2738,
      "▁கந்த": 2739,
      "▁பிள": 2740,
      "▁ஏரி": 2741,
      "யாமல்": 2742,
      "▁மேலா": 2743,
      "▁நபர்": 2744,
      "ம்ஸ்": 2745,
      "▁வழியில்": 2746,
      "▁திருமண": 2747,
      "▁இறந்த": 2748,
      "வேன்": 2749,
      "லிம்": 2750,
      "▁லே": 2751,
      "▁ஜெர்": 2752,
      "▁கற்க": 2753,
      "▁தத்துவ": 2754,
      "ஸ்டர்": 2755,
      "▁தரவு": 2756,
      "▁எங்கே": 2757,
      "மாம்": 2758,
      "▁தரும்": 2759,
      "▁வெற்ற": 2760,
      "மல்ல": 2761,
      "▁வன": 2762,
      "▁இயற்ப": 2763,
      "▁காடு": 2764,
      "ிறன்": 2765,
      "▁டாக": 2766,
      "டெ": 2767,
      "▁எல்லோ": 2768,
      "▁ஆண்க": 2769,
      "த்தள": 2770,
      "▁சைவ": 2771,
      "▁மஞ்ச": 2772,
      "▁வேதியியல்": 2773,
      "▁J": 2774,
      "▁அசை": 2775,
      "▁எடுத்த": 2776,
      "ரெ": 2777,
      "▁ஞ": 2778,
      "▁குழந்த": 2779,
      "▁தில்": 2780,
      "த்திற்கான": 2781,
      "▁ஆயினும்": 2782,
      "▁வருகின்றன": 2783,
      "▁முத்த": 2784,
      "நாடக": 2785,
      "▁பூங்கா": 2786,
      "வதேச": 2787,
      "ொள்": 2788,
      "ொழி": 2789,
      "ங்களுடன்": 2790,
      "▁கௌ": 2791,
      "▁புகை": 2792,
      "டிப்": 2793,
      "▁கற்று": 2794,
      "▁காதல்": 2795,
      "்பட்டது": 2796,
      "களிலிருந்து": 2797,
      "▁விளைவு": 2798,
      "▁முகம்": 2799,
      "ிரம": 2800,
      "ய்க்": 2801,
      "▁பிழை": 2802,
      "▁குடியரசு": 2803,
      "தரி": 2804,
      "▁புரோ": 2805,
      "ce": 2806,
      "வோம்": 2807,
      "வற்று": 2808,
      "ொழு": 2809,
      "ிலா": 2810,
      "▁விவர": 2811,
      "ித": 2812,
      "வித்து": 2813,
      "▁அட்ட": 2814,
      "ாகவே": 2815,
      "▁n": 2816,
      "ுபடி": 2817,
      "▁சேர": 2818,
      "▁புகு": 2819,
      "▁பரிந்து": 2820,
      "st": 2821,
      "▁பண்ண": 2822,
      "▁தழு": 2823,
      "டங்": 2824,
      "▁உலகில்": 2825,
      "▁பங்கள": 2826,
      "ோன்": 2827,
      "▁தொல்": 2828,
      "▁ஆக்சி": 2829,
      "வேலி": 2830,
      "▁தம": 2831,
      "▁புற்று": 2832,
      "▁டிர": 2833,
      "▁வலை": 2834,
      "▁நோயா": 2835,
      "யிரு": 2836,
      "ங்களால்": 2837,
      "வனு": 2838,
      "▁எச்": 2839,
      "கத்தை": 2840,
      "▁கணினி": 2841,
      "▁சர்வதேச": 2842,
      "▁ஆழ": 2843,
      "ாமலை": 2844,
      "▁முதலாம்": 2845,
      "ர்க்": 2846,
      "▁கோல்": 2847,
      "▁முஸ்": 2848,
      "▁சார": 2849,
      "▁மண்": 2850,
      "▁பக்த": 2851,
      "▁காந்தி": 2852,
      "▁உத்தர": 2853,
      "▁பஞ்சா": 2854,
      "ுந்து": 2855,
      "▁அபி": 2856,
      "▁குற": 2857,
      "▁பதின": 2858,
      "வோர்": 2859,
      "▁இயந்திர": 2860,
      "▁சிதை": 2861,
      "கலை": 2862,
      "▁வெள்ளை": 2863,
      "▁நிறுத்த": 2864,
      "வள்": 2865,
      "ினாலும்": 2866,
      "கெ": 2867,
      "▁பர்": 2868,
      "▁சனவரி": 2869,
      "யலாம்": 2870,
      "▁சுய": 2871,
      "தலாக": 2872,
      "்பாடு": 2873,
      "மையின்": 2874,
      "கார்": 2875,
      "▁மூன்றாவது": 2876,
      "▁தேச": 2877,
      "▁ரயில்": 2878,
      "ங்கிணை": 2879,
      "▁மாவட்டத்தின்": 2880,
      "▁வேளா": 2881,
      "▁U": 2882,
      "மாகச்": 2883,
      "▁உறவு": 2884,
      "▁அழகு": 2885,
      "▁செயலா": 2886,
      "▁பங்கே": 2887,
      "▁ஐய": 2888,
      "▁வெள்ளி": 2889,
      "▁இவரின்": 2890,
      "▁இயங்கு": 2891,
      "▁மைல்": 2892,
      "▁சமயத்தில்": 2893,
      "▁கண்டறிய": 2894,
      "ரியம்": 2895,
      "▁திசை": 2896,
      "▁ஏனெனில்": 2897,
      "▁உயிரின": 2898,
      "oc": 2899,
      "▁பொறிய": 2900,
      "னல்": 2901,
      "▁மரியா": 2902,
      "▁தோட்ட": 2903,
      "▁மருத்து": 2904,
      "▁எதிரான": 2905,
      "▁கவு": 2906,
      "▁படுத்த": 2907,
      "▁ஆச": 2908,
      "ங்களைத்": 2909,
      "ியுடன்": 2910,
      "▁திருத்த": 2911,
      "ம்ச": 2912,
      "▁கிட்ட": 2913,
      "தற்": 2914,
      "▁வழங்": 2915,
      "▁ஆங்கிலே": 2916,
      "ரோடு": 2917,
      "கரு": 2918,
      "ang": 2919,
      "▁உணர்வு": 2920,
      "ாளராக": 2921,
      "▁வேதி": 2922,
      "▁இம்மாவட்ட": 2923,
      "▁ஆஸ்திர": 2924,
      "▁சந்தே": 2925,
      "விக்": 2926,
      "▁இலை": 2927,
      "▁உதாரண": 2928,
      "▁இடு": 2929,
      "▁பதில்": 2930,
      "▁வலு": 2931,
      "கிறோம்": 2932,
      "▁ஆவண": 2933,
      "▁பெறும்": 2934,
      "▁வயதில்": 2935,
      "வரான": 2936,
      "▁பயன்படுகிறது": 2937,
      "▁உதய": 2938,
      "▁நுட்ப": 2939,
      "▁மண்டப": 2940,
      "கதை": 2941,
      "தம": 2942,
      "▁ஆசை": 2943,
      "ங்கில்": 2944,
      "▁பொறி": 2945,
      "ud": 2946,
      "ைசி": 2947,
      "நாதர்": 2948,
      "▁ஆனாலும்": 2949,
      "▁In": 2950,
      "லூரியில்": 2951,
      "▁புகழ்பெற்ற": 2952,
      "▁திருத்": 2953,
      "▁கொஞ்சம்": 2954,
      "எஸ்": 2955,
      "ச்சார": 2956,
      "▁தனிம": 2957,
      "்சைடு": 2958,
      "ers": 2959,
      "▁உயிரணு": 2960,
      "▁காலை": 2961,
      "▁யார": 2962,
      "வருமாறு": 2963,
      "த்தாழ": 2964,
      "▁அம்ம": 2965,
      "▁தோற்று": 2966,
      "ஷம்": 2967,
      "லிக்": 2968,
      "▁அருகே": 2969,
      "ையம்": 2970,
      "த்தியில்": 2971,
      "▁மெய்ய": 2972,
      "ட்ரோ": 2973,
      "த்தேன்": 2974,
      "▁இப்": 2975,
      "மாகிய": 2976,
      "▁குட": 2977,
      "▁சாதன": 2978,
      "▁பயன்பாடு": 2979,
      "▁இயல்பு": 2980,
      "▁பணியாற்றினார்": 2981,
      "ஸ்து": 2982,
      "டிச்": 2983,
      "▁சிவபெரு": 2984,
      "▁O": 2985,
      "யங்": 2986,
      "ோதும்": 2987,
      "ூர": 2988,
      "▁செயற்": 2989,
      "▁பந்த": 2990,
      "சாரி": 2991,
      "கிரு": 2992,
      "▁அவனது": 2993,
      "▁தொடங்கினார்": 2994,
      "ைவில்": 2995,
      "▁பணம்": 2996,
      "▁கிமீ": 2997,
      "னூர்தி": 2998,
      "▁டோ": 2999,
      "▁வேற": 3000,
      "மையால்": 3001,
      "▁விப": 3002,
      "ள்தொ": 3003,
      "தங்": 3004,
      "தலில்": 3005,
      "▁சண்டை": 3006,
      "டின்": 3007,
      "▁உங்களு": 3008,
      "▁மாற்றம்": 3009,
      "ங்குடி": 3010,
      "டங்களில்": 3011,
      "▁சுற்ற": 3012,
      "▁பணிபுரி": 3013,
      "▁ஐத": 3014,
      "நிறு": 3015,
      "▁தரி": 3016,
      "▁நெல்": 3017,
      "சிற": 3018,
      "▁வளி": 3019,
      "வனாக": 3020,
      "▁கரிம": 3021,
      "ள்ளே": 3022,
      "▁கிலோமீட்டர்": 3023,
      "▁மித": 3024,
      "ருடைய": 3025,
      "▁ஹா": 3026,
      "▁உரோ": 3027,
      "▁பௌத்த": 3028,
      "▁இக்": 3029,
      "டியம்": 3030,
      "▁புராண": 3031,
      "▁ஆவது": 3032,
      "▁வீட்டில்": 3033,
      "ளையம்": 3034,
      "▁விளைய": 3035,
      "▁பெரிதும்": 3036,
      "▁சாத்திய": 3037,
      "▁திட்டம்": 3038,
      "▁திருநெல்": 3039,
      "▁l": 3040,
      "ண்ணி": 3041,
      "▁கோட்பாடு": 3042,
      "ியு": 3043,
      "ath": 3044,
      "▁பூச்சி": 3045,
      "டத்தின்": 3046,
      "நல்ல": 3047,
      "▁கையில்": 3048,
      "▁எழுந்த": 3049,
      "▁விநாயகர்": 3050,
      "▁வன்": 3051,
      "▁உட்கார்": 3052,
      "தேவி": 3053,
      "▁டாக்டர்": 3054,
      "▁பண்டைய": 3055,
      "▁விளங்க": 3056,
      "▁தொடங்கியது": 3057,
      "▁சேது": 3058,
      "▁குமா": 3059,
      "த்திற்காக": 3060,
      "▁படம்": 3061,
      "பதால்": 3062,
      "யிலிருந்து": 3063,
      "ஞ்ஞான": 3064,
      "யிர": 3065,
      "ோண": 3066,
      "▁அனைத்தும்": 3067,
      "காம்": 3068,
      "▁கிடைய": 3069,
      "னன்": 3070,
      "ட்பா": 3071,
      "▁ஒள": 3072,
      "விலிருந்து": 3073,
      "ந்த்": 3074,
      "▁மன்னன்": 3075,
      "ந்தின்": 3076,
      "▁அமைந்திரு": 3077,
      "▁வண்டி": 3078,
      "▁திருவண்ண": 3079,
      "ூற்று": 3080,
      "ஞ்சை": 3081,
      "▁தசை": 3082,
      "பக": 3083,
      "ியமாக": 3084,
      "▁உட்பட": 3085,
      "▁பாரதி": 3086,
      "▁வங்கி": 3087,
      "▁டா": 3088,
      "▁அடைந்த": 3089,
      "▁ரூபாய்": 3090,
      "▁கலைஞர்": 3091,
      "ொடு": 3092,
      "களிட": 3093,
      "▁அவ்வளவு": 3094,
      "▁புத": 3095,
      "▁சூன்": 3096,
      "▁திச": 3097,
      "ோள்": 3098,
      "ந்திரன்": 3099,
      "மில்லா": 3100,
      "▁ஆகவே": 3101,
      "up": 3102,
      "▁நிகழ்ச்ச": 3103,
      "வினர்": 3104,
      "▁ஒத்த": 3105,
      "▁குருதி": 3106,
      "▁அலகு": 3107,
      "▁தோன்றும்": 3108,
      "ங்க்": 3109,
      "?\"": 3110,
      "▁பிரெஞ்சு": 3111,
      "ைகளை": 3112,
      "யைப்": 3113,
      "▁ஒடு": 3114,
      "▁இரட்டை": 3115,
      "▁தோன்றியது": 3116,
      "▁முர": 3117,
      "▁சோழர்": 3118,
      "த்தீ": 3119,
      "ik": 3120,
      "▁அடங்": 3121,
      "ற்றுள்": 3122,
      "▁ஆந்திர": 3123,
      "▁ஏதாவது": 3124,
      "த்மா": 3125,
      "ியுள்ள": 3126,
      "ரியின்": 3127,
      "ஸின்": 3128,
      "டையாக": 3129,
      "▁சூலை": 3130,
      "▁வடிவம்": 3131,
      "▁உங்": 3132,
      "▁முன்னேற்ற": 3133,
      "▁முழ": 3134,
      "்துறை": 3135,
      "▁மாரியம்மன்": 3136,
      "ட்சம்": 3137,
      "▁கொடி": 3138,
      "காரம்": 3139,
      "▁ஆஃப்": 3140,
      "▁ஆனது": 3141,
      "▁இண": 3142,
      "▁கிராமம்": 3143,
      "▁சட": 3144,
      "▁மந்திர": 3145,
      "த்துள்ளார்": 3146,
      "▁தொடருந்து": 3147,
      "▁நிறுவனத்தின்": 3148,
      "விலான": 3149,
      "▁முந்தைய": 3150,
      "▁ஆற": 3151,
      "ண்டோ": 3152,
      "ச்சேரி": 3153,
      "▁நாகரி": 3154,
      "▁தொடங்கிய": 3155,
      "▁இவற்றின்": 3156,
      "வளி": 3157,
      "▁இளம்": 3158,
      "ெடுத்து": 3159,
      "▁சிவக": 3160,
      "ூர்வ": 3161,
      "▁அமு": 3162,
      "▁இவருடைய": 3163,
      "▁\"”": 3164,
      "ராம்": 3165,
      "ர்ந்த": 3166,
      "▁சந்தை": 3167,
      "▁இறைவன்": 3168,
      "▁ராஜா": 3169,
      "த்தாலும்": 3170,
      "▁பிரே": 3171,
      "்பு": 3172,
      "▁ஹை": 3173,
      "ட்டால்": 3174,
      "▁பிப்ரவரி": 3175,
      "▁வில்லிய": 3176,
      "மைகளை": 3177,
      "ைபெறும்": 3178,
      "ியைச்": 3179,
      "▁ஐந்த": 3180,
      "▁தொழிலாளர்": 3181,
      "▁ஆணைய": 3182,
      "▁முற்ப": 3183,
      "ிறோம்": 3184,
      "்சியில்": 3185,
      "▁கிரா": 3186,
      "தற்கான": 3187,
      "ர்த்": 3188,
      "வக": 3189,
      "▁ஜூன்": 3190,
      "▁இன்றும்": 3191,
      "▁தெலுங்கு": 3192,
      "▁எசு": 3193,
      "▁இலங்கையில்": 3194,
      "▁காவ": 3195,
      "டான": 3196,
      "▁ஏனைய": 3197,
      "▁கதிர": 3198,
      "க்ட": 3199,
      "ொள்க": 3200,
      "ையிலிருந்து": 3201,
      "▁பயன்படும்": 3202,
      "ற்றின்": 3203,
      "▁முதலாவது": 3204,
      "▁முன்னால்": 3205,
      "▁பூம": 3206,
      "▁/": 3207,
      "ev": 3208,
      "▁பரிந்துரை": 3209,
      "▁மொழிய": 3210,
      "ுவது": 3211,
      "யைக்": 3212,
      "▁நிறுவனங்": 3213,
      "களோடு": 3214,
      "▁மாறிய": 3215,
      "யத்தில்": 3216,
      "சால": 3217,
      "ங்களா": 3218,
      "▁குறியீடு": 3219,
      "மங்கலம்": 3220,
      "▁தவறு": 3221,
      "மனை": 3222,
      "த்தோலி": 3223,
      "ங்களே": 3224,
      "சமான": 3225,
      "”\"": 3226,
      "ருவி": 3227,
      "வதா": 3228,
      "▁பதிலாக": 3229,
      "▁இராஜ": 3230,
      "▁a": 3231,
      "▁சிங்": 3232,
      "ாட்டாக": 3233,
      "▁ஒட்டு": 3234,
      "▁அய்ய": 3235,
      "▁வென்று": 3236,
      "▁இறந்து": 3237,
      "ந்தால்": 3238,
      "ற்றல்": 3239,
      "▁தலைய": 3240,
      "▁காண்க": 3241,
      "▁உலகப்": 3242,
      "▁பாறை": 3243,
      "▁விண்மீன்": 3244,
      "▁சீர்": 3245,
      "tt": 3246,
      "▁ஃப": 3247,
      "▁வீட்ட": 3248,
      "ண்டன்": 3249,
      "ாணி": 3250,
      "▁வழங்கி": 3251,
      "▁பயணம்": 3252,
      "▁திருவண்ணாமலை": 3253,
      "படுகிறது": 3254,
      "பாத்": 3255,
      "▁அவளை": 3256,
      "ட்டிருந்த": 3257,
      "ஞ்சாலை": 3258,
      "▁ஈழ": 3259,
      "▁பேரரசு": 3260,
      "▁எதிர்த்து": 3261,
      "▁நிலையை": 3262,
      "▁பிரதான": 3263,
      "▁கவலை": 3264,
      "▁சான்று": 3265,
      "▁வேத": 3266,
      "▁நாடுகளின்": 3267,
      "▁அண்ட": 3268,
      "▁இராச": 3269,
      "ிஸ்": 3270,
      "▁கோடி": 3271,
      "திபதி": 3272,
      "▁மலையாள": 3273,
      "னியல்": 3274,
      "ய்த": 3275,
      "▁பென்": 3276,
      "நாக": 3277,
      "▁அமைந்துள்ளன": 3278,
      "▁கத்தோலி": 3279,
      "▁நேபா": 3280,
      "▁நிமி": 3281,
      "தியா": 3282,
      "▁சுற்றுலா": 3283,
      "ஹ்": 3284,
      "▁வெண்": 3285,
      "▁விஜய": 3286,
      "்டம்": 3287,
      "▁பயிர்": 3288,
      "வரத்து": 3289,
      "▁கிடைத்த": 3290,
      "வதற்": 3291,
      "▁பொய்": 3292,
      "▁நிற்": 3293,
      "டுகின்ற": 3294,
      "த்திற்குப்": 3295,
      "ub": 3296,
      "▁ஈர": 3297,
      "த்தர்": 3298,
      "▁—": 3299,
      "▁சதவீ": 3300,
      "▁பட்டு": 3301,
      "▁மான்": 3302,
      "▁சான்ற": 3303,
      "▁எரு": 3304,
      "▁பந்து": 3305,
      "▁எட்ட": 3306,
      "▁திருநெல்வேலி": 3307,
      "▁காவல்": 3308,
      "org": 3309,
      "▁அம்ச": 3310,
      "▁இராச்சிய": 3311,
      "ராள": 3312,
      "▁விகிதம்": 3313,
      "▁எகி": 3314,
      "▁மங்க": 3315,
      "ியத்தே": 3316,
      "▁சௌ": 3317,
      "ரியோ": 3318,
      "▁நைட்": 3319,
      "▁நெடுஞ்சாலை": 3320,
      "தலு": 3321,
      "கையை": 3322,
      "னியம்": 3323,
      "பட்டி": 3324,
      "்டன": 3325,
      "▁சார்பு": 3326,
      "பதற்கு": 3327,
      "▁கவிஞர்": 3328,
      "▁கழகம்": 3329,
      "▁ஆஸ்திரே": 3330,
      "▁நிறைய": 3331,
      "▁மாளி": 3332,
      "▁புத்தக": 3333,
      "▁துறையில்": 3334,
      "▁சுந்தர": 3335,
      "▁கூறுகிறது": 3336,
      "ராஜ்": 3337,
      "▁கூறும்": 3338,
      "▁கோப": 3339,
      "▁ஜனவரி": 3340,
      "▁தண்ணீர்": 3341,
      "நல": 3342,
      "▁மூத்த": 3343,
      "பாட்டில்": 3344,
      "▁விதை": 3345,
      "▁அடங்கிய": 3346,
      "்றுக்": 3347,
      "ந்தில்": 3348,
      "▁காஞ்சிபுரம்": 3349,
      "▁உபயோ": 3350,
      "▁சொற்": 3351,
      "ow": 3352,
      "விரு": 3353,
      "▁வட்டம்": 3354,
      "▁வேள": 3355,
      "▁கேரள": 3356,
      "▁முருகன்": 3357,
      "ையர்": 3358,
      "▁பாதை": 3359,
      "ந்தே": 3360,
      "▁அனுப": 3361,
      "▁ஆலோ": 3362,
      "லாத": 3363,
      "ுகளின்": 3364,
      "▁மரபணு": 3365,
      "சகர்": 3366,
      "ியால்": 3367,
      "▁உயிரி": 3368,
      "சனம்": 3369,
      "கச்": 3370,
      "ச்சூ": 3371,
      "ட்டினம்": 3372,
      "ொண்டே": 3373,
      "்ச்": 3374,
      "ிரிவு": 3375,
      "எம்": 3376,
      "▁அருக": 3377,
      "ூடும்": 3378,
      "குடி": 3379,
      "▁இன்றைய": 3380,
      "▁உணர்ச்சி": 3381,
      "ுமா": 3382,
      "▁காம": 3383,
      "▁பவு": 3384,
      "▁செயற்கை": 3385,
      "▁ஆயிரம்": 3386,
      "ோல": 3387,
      "பொருள்": 3388,
      "▁”": 3389,
      "att": 3390,
      "▁மகள": 3391,
      "▁பெயரை": 3392,
      "ip": 3393,
      "ன்னு": 3394,
      "▁நாளில்": 3395,
      "▁அமைந்தது": 3396,
      "▁கிடையாது": 3397,
      "காத": 3398,
      "▁செலவு": 3399,
      "ஞ்சிய": 3400,
      "▁ஊடக": 3401,
      "▁ஜெய": 3402,
      "▁மஞ்சள்": 3403,
      "மிழ": 3404,
      "▁மென்": 3405,
      "னையில்": 3406,
      "மானால்": 3407,
      "வித்த": 3408,
      "▁களி": 3409,
      "டையாகக்": 3410,
      "றுத்த": 3411,
      "▁இசையமை": 3412,
      "களாலும்": 3413,
      "▁வடிவில்": 3414,
      "▁தனித்த": 3415,
      "▁களை": 3416,
      "தலின்": 3417,
      "மொழ": 3418,
      "▁சுந்த": 3419,
      "சய": 3420,
      "▁ற": 3421,
      "▁சக்த": 3422,
      "▁ஜார்": 3423,
      "▁அழகிய": 3424,
      "▁ஆயிர": 3425,
      "▁தங்கிய": 3426,
      "▁நிறுத்தி": 3427,
      "▁விஞ்ஞான": 3428,
      "▁புனை": 3429,
      "▁உறை": 3430,
      "ட்சுமி": 3431,
      "▁முஸ்லிம்": 3432,
      "ஜன்": 3433,
      "▁வழங்கிய": 3434,
      "கால்": 3435,
      "▁நாங்": 3436,
      "▁ஒழி": 3437,
      "▁கான": 3438,
      "டுதல்": 3439,
      "▁பணியாற்றிய": 3440,
      "▁இடி": 3441,
      "ிரமண": 3442,
      "▁இடத்தை": 3443,
      "▁வேண்டாம்": 3444,
      "டத்தை": 3445,
      "▁ஈர்": 3446,
      "▁விற்பனை": 3447,
      "▁தெரிகிறது": 3448,
      "ங்கால": 3449,
      "▁புரட்சி": 3450,
      "▁துண": 3451,
      "ஷ்ணு": 3452,
      "▁கனிம": 3453,
      "களாகப்": 3454,
      "▁நோயாளி": 3455,
      "▁அரண்மனை": 3456,
      "▁மின்சார": 3457,
      "தோடு": 3458,
      "களோ": 3459,
      "tr": 3460,
      "நாதபுரம்": 3461,
      "▁அமைய": 3462,
      "பதே": 3463,
      "த்துள்ளது": 3464,
      "ங்கர்": 3465,
      "▁பயன": 3466,
      "▁பொன்": 3467,
      "▁ஏழ": 3468,
      "தாகத்": 3469,
      "▁தேவ": 3470,
      "▁ஆரிய": 3471,
      "▁பெற்றிரு": 3472,
      "▁ஆர்வ": 3473,
      "ுத்த": 3474,
      "▁நன்மை": 3475,
      "ாலேயே": 3476,
      "ன்பு": 3477,
      "▁எளிய": 3478,
      "▁வண்ணம்": 3479,
      "ாணம்": 3480,
      "ேல்": 3481,
      "▁அமைச்சர்": 3482,
      "ெர்": 3483,
      "தனர்": 3484,
      "▁ஜீ": 3485,
      "▁நாராய": 3486,
      "II": 3487,
      "▁முன்னோ": 3488,
      "▁கிறித்தவ": 3489,
      "ுறம்": 3490,
      "▁அமைதி": 3491,
      "மானம்": 3492,
      "▁கூறுகிறார்": 3493,
      "//": 3494,
      "▁ஹி": 3495,
      "ருவ": 3496,
      "▁நச்சு": 3497,
      "▁புதி": 3498,
      "▁ஆற்றின்": 3499,
      "்ச்ச": 3500,
      "▁எண்ணெய்": 3501,
      "▁ஈடு": 3502,
      "ttp": 3503,
      "▁ம்": 3504,
      "▁அடையாளம்": 3505,
      "▁ஆகத்து": 3506,
      "▁அலங்க": 3507,
      "ஸ்கோ": 3508,
      "▁முயன்ற": 3509,
      "ந்ததும்": 3510,
      "பர்ட்": 3511,
      "சம": 3512,
      "▁சிந்தனை": 3513,
      "கவே": 3514,
      "▁நன்ன": 3515,
      "ளுடன்": 3516,
      "டைந்த": 3517,
      "ணர்வு": 3518,
      "மாலை": 3519,
      "வனின்": 3520,
      "▁பரவலாக": 3521,
      "▁ஆதரி": 3522,
      "▁அவற்றில்": 3523,
      "▁தொன்": 3524,
      "த்திருந்த": 3525,
      "ங்கன்": 3526,
      "ங்களைச்": 3527,
      "ண்டம்": 3528,
      "▁மரம்": 3529,
      "▁பேருந்து": 3530,
      "ச்செ": 3531,
      "▁தென்னா": 3532,
      "ுங்": 3533,
      "▁சும": 3534,
      "▁திட்டமி": 3535,
      "▁நிகழ்த்த": 3536,
      "▁தெரியவில்லை": 3537,
      "திரை": 3538,
      "ூடாது": 3539,
      "யால்": 3540,
      "▁பெற்றோர்": 3541,
      "▁சித்திர": 3542,
      "ச்சல்": 3543,
      "▁பிலி": 3544,
      "▁சண்ட": 3545,
      "▁ஆற்று": 3546,
      "ியாய": 3547,
      "ென்றால்": 3548,
      "மின்றி": 3549,
      "▁தேவி": 3550,
      "யில்லை": 3551,
      "ெடுத்த": 3552,
      "▁அன": 3553,
      "ity": 3554,
      "தள": 3555,
      "▁படத்தில்": 3556,
      "நாயக": 3557,
      "▁இந்நூ": 3558,
      "▁குடியே": 3559,
      "▁தங்கள": 3560,
      "ோரின்": 3561,
      "வேளை": 3562,
      "ளான": 3563,
      "▁வில்லியம்": 3564,
      "▁http": 3565,
      "்சத்திர": 3566,
      "ூட்ட": 3567,
      "▁ஜெர்ம": 3568,
      "▁தனிய": 3569,
      "நிலைப்": 3570,
      "▁ஹோ": 3571,
      "▁சேகரி": 3572,
      "ேர்": 3573,
      "ோத": 3574,
      "▁மலா": 3575,
      "யிட்ட": 3576,
      "ங்காட்சிய": 3577,
      "▁யாரும்": 3578,
      "மாகவே": 3579,
      "▁ஆழ்": 3580,
      "பவன்": 3581,
      "ராமரி": 3582,
      "▁அச": 3583,
      "▁பழி": 3584,
      "▁துறைமுக": 3585,
      "▁தந்த": 3586,
      "▁ஆசிய": 3587,
      "▁காரணி": 3588,
      "▁தென்னி": 3589,
      "▁உலோக": 3590,
      "த்தட்ட": 3591,
      "▁சிந்து": 3592,
      "▁நிறைவு": 3593,
      "▁விளங்குகிறது": 3594,
      "▁ஒர்": 3595,
      "▁சீர்த": 3596,
      "▁இதழ்": 3597,
      "▁அமிலம்": 3598,
      "க்சி": 3599,
      "ீஸ்": 3600,
      "▁உற்": 3601,
      "குந்த": 3602,
      "வேண்டிய": 3603,
      "ுகளு": 3604,
      "ளது": 3605,
      "▁வழிபாடு": 3606,
      "▁ஆயுத": 3607,
      "▁ஆத்திர": 3608,
      "ர்களின்": 3609,
      "ட்டுத்": 3610,
      "வனும்": 3611,
      "▁கிராமக்": 3612,
      "ற்றுமை": 3613,
      "▁எல்": 3614,
      "▁நூலில்": 3615,
      "கான": 3616,
      "ர்டு": 3617,
      "▁நல்": 3618,
      "▁சிவகங்கை": 3619,
      "▁ஒன்பது": 3620,
      "யத்": 3621,
      "▁தமிழ்ப்": 3622,
      "மாற": 3623,
      "▁பராமரி": 3624,
      "▁நிகழ்ந்த": 3625,
      "▁பொறியியல்": 3626,
      "▁அனுபவ": 3627,
      "▁பத்திரிகை": 3628,
      "▁வரலாற்றில்": 3629,
      "▁மந்த": 3630,
      "▁முன்னணி": 3631,
      "ம்மை": 3632,
      "ain": 3633,
      "▁கருதி": 3634,
      "நிற": 3635,
      "▁காத": 3636,
      "▁விசு": 3637,
      "▁இத்தால": 3638,
      "ுமையான": 3639,
      "▁மூட": 3640,
      "▁புவி": 3641,
      "ித்துள்ளார்": 3642,
      "▁தெரிந்த": 3643,
      "▁to": 3644,
      "▁நாய்": 3645,
      "ph": 3646,
      "▁கிடைத்தது": 3647,
      "▁தீர்த்த": 3648,
      "ாதி": 3649,
      "வற்றைக்": 3650,
      "▁அங்கீ": 3651,
      "்டன்": 3652,
      "ட்டிருந்தது": 3653,
      "▁விளையாட": 3654,
      "மின": 3655,
      "▁ஞா": 3656,
      "▁அசு": 3657,
      "▁இடது": 3658,
      "ையிலும்": 3659,
      "▁ஜூலை": 3660,
      "▁இவற்றை": 3661,
      "▁எழுந்து": 3662,
      "▁ஒத்து": 3663,
      "▁அருங்காட்சிய": 3664,
      "முனை": 3665,
      "▁எடை": 3666,
      "▁வலது": 3667,
      "▁அண்": 3668,
      "▁பாரி": 3669,
      "▁அவசிய": 3670,
      "▁பெருங்": 3671,
      "தழ்": 3672,
      "▁விகித": 3673,
      "▁அடைந்து": 3674,
      "த்தியம்": 3675,
      "ட்டன்": 3676,
      "▁கனடா": 3677,
      "ாளி": 3678,
      "த்தக": 3679,
      "▁பன்": 3680,
      "▁அவசர": 3681,
      "▁குற்றம்": 3682,
      "லகம்": 3683,
      "▁நந்த": 3684,
      "பாளையம்": 3685,
      "▁தோன்றி": 3686,
      "▁மொழிபெயர்": 3687,
      "▁நகைச்": 3688,
      "ிடும்": 3689,
      "டனே": 3690,
      "ோரு": 3691,
      "முன்": 3692,
      "▁சொன்னார்": 3693,
      "ate": 3694,
      "▁இரண்டும்": 3695,
      "ட்டே": 3696,
      "ணியில்": 3697,
      "ோயில": 3698,
      "▁மாதிர": 3699,
      "ஸில்": 3700,
      "▁கேட்டார்": 3701,
      "▁ஷா": 3702,
      "பிய": 3703,
      "▁நாம": 3704,
      "▁உரையா": 3705,
      "▁அண்ணா": 3706,
      "▁நேரடியாக": 3707,
      "தமிழ்": 3708,
      "ள்தொகை": 3709,
      "▁பிரம்ம": 3710,
      "புறம்": 3711,
      "▁எளிதில்": 3712,
      "▁திடீர": 3713,
      "▁ஆதலால்": 3714,
      "▁உடன": 3715,
      "▁நதி": 3716,
      "ாலோ": 3717,
      "ine": 3718,
      "கையின்": 3719,
      "▁கோண": 3720,
      "த்திரை": 3721,
      "மேற்கு": 3722,
      "ரூர்": 3723,
      "▁பன்னாட்டுத்": 3724,
      "▁தோற்றம்": 3725,
      "மையைக்": 3726,
      "▁புள்ள": 3727,
      "▁தூர": 3728,
      "ாடல்": 3729,
      "▁திசு": 3730,
      "ிள்ளை": 3731,
      "▁சேலம்": 3732,
      "▁பாலி": 3733,
      "ஃது": 3734,
      "▁காவல": 3735,
      "ியலில்": 3736,
      "▁நுண்ண": 3737,
      "▁வருகின்றனர்": 3738,
      "யிட்டார்": 3739,
      "த்திக்": 3740,
      "▁சல்": 3741,
      "▁மாதத்தில்": 3742,
      "▁வளைய": 3743,
      "ேய": 3744,
      "ைபெற்றது": 3745,
      "வகு": 3746,
      "▁அலுவ": 3747,
      "▁செவ்": 3748,
      "▁நன்றாக": 3749,
      "▁கிட்டத்தட்ட": 3750,
      "ிருத்த": 3751,
      "und": 3752,
      "ரங்க": 3753,
      "ீட்ட": 3754,
      "ைந்து": 3755,
      "▁குன்ற": 3756,
      "றள்": 3757,
      "▁மாறாக": 3758,
      "மாற்றம்": 3759,
      "▁குண்டு": 3760,
      "ell": 3761,
      "மங்": 3762,
      "னூர்": 3763,
      "▁நூறு": 3764,
      "ட்டேன்": 3765,
      "▁இவ்வளவு": 3766,
      "▁ஒழுங்கு": 3767,
      "வண்டி": 3768,
      "▁பிள்ள": 3769,
      "▁நேரங்களில்": 3770,
      "▁எத்தனை": 3771,
      "▁ஆலய": 3772,
      "▁மகே": 3773,
      "▁சிர": 3774,
      "ுரம்": 3775,
      "▁சொத்து": 3776,
      "பந்த": 3777,
      "▁அசோ": 3778,
      "▁டொ": 3779,
      "▁வின்": 3780,
      "ையெல்லாம்": 3781,
      "▁யாரு": 3782,
      "லிலும்": 3783,
      "▁சமன்": 3784,
      "வனம்": 3785,
      "ஆங்கில": 3786,
      "▁கோய": 3787,
      "ant": 3788,
      "லைத்": 3789,
      "காலத்தில்": 3790,
      "தூர்": 3791,
      "▁அவளுடைய": 3792,
      "▁பாராட்ட": 3793,
      "ியத்துவம்": 3794,
      "▁வெங்": 3795,
      "ந்தோ": 3796,
      "த்திட்ட": 3797,
      "▁முதலி": 3798,
      "ுகிறார்": 3799,
      "▁வம்ச": 3800,
      "▁முற்று": 3801,
      "▁துடி": 3802,
      "மியர்": 3803,
      "▁ஓய்வு": 3804,
      "▁பள்ளியில்": 3805,
      "▁தொண்டை": 3806,
      "டுவதில்லை": 3807,
      "▁பசி": 3808,
      "▁கொன்று": 3809,
      "ah": 3810,
      "ெண்": 3811,
      "▁குடியிரு": 3812,
      "▁காங்கிரஸ்": 3813,
      "ானே": 3814,
      "▁விசை": 3815,
      "▁சங்கம்": 3816,
      "ரப்": 3817,
      "பிக்": 3818,
      "கம": 3819,
      "▁திறந்த": 3820,
      "வுத்": 3821,
      "▁வள்ள": 3822,
      "்டா": 3823,
      "னெ": 3824,
      "▁பங்க": 3825,
      "▁எண்க": 3826,
      "பவரால்": 3827,
      "தாலும்": 3828,
      "ிலு": 3829,
      "▁டு": 3830,
      "லையில்": 3831,
      "▁சோழன்": 3832,
      "பெற்று": 3833,
      "விலுள்ள": 3834,
      "ங்ங": 3835,
      "▁ஒன்றில்": 3836,
      "▁பாண்ட": 3837,
      "▁பத்": 3838,
      "▁ஏதே": 3839,
      "▁தூய்": 3840,
      "▁இழை": 3841,
      "ess": 3842,
      "ன்ட்": 3843,
      "▁தியாக": 3844,
      "▁நாளை": 3845,
      "▁ஏழை": 3846,
      "தனால்": 3847,
      "ட்டதாக": 3848,
      "சொ": 3849,
      "ுவ": 3850,
      "சப்": 3851,
      "ct": 3852,
      "▁கொடுத்": 3853,
      "▁சிங்கள": 3854,
      "னவே": 3855,
      "ரைச்": 3856,
      "ுகளும்": 3857,
      "பகு": 3858,
      "▁பிரிட்டி": 3859,
      "▁ட்": 3860,
      "ளிடம்": 3861,
      "▁தனியாக": 3862,
      "ழைய": 3863,
      "▁செயற்ப": 3864,
      "ரங்": 3865,
      "▁பங்களி": 3866,
      "▁கார்பன்": 3867,
      "நாட்டில்": 3868,
      "omm": 3869,
      "▁கோடை": 3870,
      "ாரை": 3871,
      "ாரின்": 3872,
      "▁கோரி": 3873,
      "▁தொடங்கு": 3874,
      "▁உடலில்": 3875,
      "ob": 3876,
      "▁இளைஞர்": 3877,
      "▁கைது": 3878,
      "ht": 3879,
      "▁திறந்து": 3880,
      "▁அர்த்த": 3881,
      "படு": 3882,
      "▁கொன்ற": 3883,
      "ென்ன": 3884,
      "▁மயில": 3885,
      "▁ஏர்": 3886,
      "▁ஒற்ற": 3887,
      "▁கண்டி": 3888,
      "▁படையெடு": 3889,
      "▁கதாபா": 3890,
      "▁உயரம்": 3891,
      "▁g": 3892,
      "▁ராக": 3893,
      "▁v": 3894,
      "கத்தா": 3895,
      "பதா": 3896,
      "வதைக்": 3897,
      "if": 3898,
      "▁பாலை": 3899,
      "ண்ணா": 3900,
      "காசி": 3901,
      "▁அலெ": 3902,
      "ச்சர்": 3903,
      "▁தூத்து": 3904,
      "▁அயோ": 3905,
      "டத்": 3906,
      "▁தற்கால": 3907,
      "ill": 3908,
      "▁வறு": 3909,
      "ுரிமை": 3910,
      "சூர்": 3911,
      "ல்களை": 3912,
      "▁குரோ": 3913,
      "▁ஆகஸ்ட்": 3914,
      "ங்கர": 3915,
      "▁நிச்ச": 3916,
      "கசிய": 3917,
      "▁சென்னையில்": 3918,
      "▁வேளை": 3919,
      "னிக்": 3920,
      "▁கொல்": 3921,
      "▁கண்காணி": 3922,
      "▁எதிரி": 3923,
      "▁கண்ணாடி": 3924,
      "லமை": 3925,
      "ொண்டார்": 3926,
      "▁சின்": 3927,
      "டக்": 3928,
      "▁தாய": 3929,
      "ுகின்றன": 3930,
      "ூல்": 3931,
      "ாளையம்": 3932,
      "ாரன்": 3933,
      "▁காலங்களில்": 3934,
      "இல": 3935,
      "்லவ": 3936,
      "▁முட்டை": 3937,
      "▁நேபாள": 3938,
      "▁நாடகம்": 3939,
      "▁பொருட்களை": 3940,
      "▁பாடி": 3941,
      "வரே": 3942,
      "▁இதழ": 3943,
      "▁கூட்டமை": 3944,
      "▁கிராமத்தில்": 3945,
      "▁சூழல்": 3946,
      "மில்": 3947,
      "ணிய": 3948,
      "்சியாளர்": 3949,
      "ெழுத்து": 3950,
      "வனே": 3951,
      "▁நூல்களை": 3952,
      "கையான": 3953,
      "▁கொடிய": 3954,
      "கான்": 3955,
      "▁மருத்துவம்": 3956,
      "ற்கரை": 3957,
      "▁சூழ்நிலை": 3958,
      "▁மேலாண்மை": 3959,
      "ard": 3960,
      "தலைப்": 3961,
      "▁நானும்": 3962,
      "▁தீய": 3963,
      "▁எலி": 3964,
      "▁இவ்வி": 3965,
      "▁வேண்டி": 3966,
      "ian": 3967,
      "ங்கின": 3968,
      "▁வேர்": 3969,
      "▁கேட்டான்": 3970,
      "த்தொடர்": 3971,
      "லிங்க": 3972,
      "ிலிருந்தும்": 3973,
      "▁அலுவலக": 3974,
      "▁பச்சை": 3975,
      "▁இனிய": 3976,
      "ந்திருந்த": 3977,
      "▁திருவள்ளு": 3978,
      "தூ": 3979,
      "யக்": 3980,
      "னாட்சி": 3981,
      "்டிய": 3982,
      "▁இரை": 3983,
      "▁மெது": 3984,
      "▁ஆனார்": 3985,
      "ங்கொ": 3986,
      "ச்சியை": 3987,
      "ப்ட்": 3988,
      "▁அலி": 3989,
      "மானிய": 3990,
      "▁விரிவு": 3991,
      "னொலி": 3992,
      "▁பான": 3993,
      "நான": 3994,
      "▁தொல்கா": 3995,
      "▁சாத": 3996,
      "திகளை": 3997,
      "▁e": 3998,
      "▁ஒளிபர": 3999,
      "பந்து": 4000,
      "▁அத்தகைய": 4001,
      "▁மைக்": 4002,
      "▁மாநிலம்": 4003,
      "▁திரவ": 4004,
      "லையே": 4005,
      "▁ராஜ்": 4006,
      "▁விளங்கிய": 4007,
      "▁நந்தி": 4008,
      "ாவு": 4009,
      "▁ஆரா": 4010,
      "▁சுத்த": 4011,
      "▁மூச்சு": 4012,
      "▁இனம்": 4013,
      "▁ராணி": 4014,
      "▁தலைமையில்": 4015,
      "னைச்": 4016,
      "▁உணர": 4017,
      "பிள்": 4018,
      "▁சீர": 4019,
      "டுத்துகிறது": 4020,
      "த்திருந்": 4021,
      "ோவில்": 4022,
      "▁விருந்த": 4023,
      "ர்ட்ட": 4024,
      "▁செங்கு": 4025,
      "மேன்": 4026,
      "▁ஆராய்": 4027,
      "▁வளரும்": 4028,
      "▁சேமி": 4029,
      "▁பிரதிநிதி": 4030,
      "ீப": 4031,
      "▁மையம்": 4032,
      "▁புதை": 4033,
      "▁இசுலாமிய": 4034,
      "▁மிரு": 4035,
      "▁ஐதர": 4036,
      "்சிய": 4037,
      "▁வயத": 4038,
      "▁மத்தியில்": 4039,
      "▁வக": 4040,
      "▁உயரத்தில்": 4041,
      "▁உரிமைய": 4042,
      "ியான்": 4043,
      "The": 4044,
      "வய": 4045,
      "ூரு": 4046,
      "▁வளாக": 4047,
      "▁செல்லு": 4048,
      "▁விளையாட்ட": 4049,
      "▁Ch": 4050,
      "டுத்திய": 4051,
      "▁பாவ": 4052,
      "▁பொதும": 4053,
      "▁நாட்களில்": 4054,
      "ற்றே": 4055,
      "▁வினா": 4056,
      "ிற்கான": 4057,
      "▁அவரின்": 4058,
      "▁நிகழ": 4059,
      "ழிவு": 4060,
      "our": 4061,
      "▁துய": 4062,
      "▁தலைவன்": 4063,
      "வல்ல": 4064,
      "▁இலா": 4065,
      "▁நாணய": 4066,
      "நிக": 4067,
      "ையன்": 4068,
      "▁உத்த": 4069,
      "▁அலுவல": 4070,
      "▁மேற்பர": 4071,
      "▁தானிய": 4072,
      "ட்டாலும்": 4073,
      "்க்": 4074,
      "▁அட்": 4075,
      "▁கலந்த": 4076,
      "▁ஆகையால்": 4077,
      "▁கொல": 4078,
      "▁விசார": 4079,
      "ov": 4080,
      "▁அன்னை": 4081,
      "பூர்வ": 4082,
      "ெருமாள்": 4083,
      "ராச": 4084,
      "▁ஏராள": 4085,
      "▁குறைந்து": 4086,
      "▁இயற்பியல்": 4087,
      "தலும்": 4088,
      "ல்த": 4089,
      "▁மண்டலம்": 4090,
      "▁r": 4091,
      "ாகச்": 4092,
      "யிலான": 4093,
      "▁ஆர்வம்": 4094,
      "▁மகிழ்ச்ச": 4095,
      "க்சா": 4096,
      "ேற்ப": 4097,
      "ாற்ற": 4098,
      "ச்சிற": 4099,
      "தத்தை": 4100,
      "▁தென்ப": 4101,
      "ர்ஸ்": 4102,
      "art": 4103,
      "▁நிலம்": 4104,
      "▁மகளிர்": 4105,
      "ங்கினார்": 4106,
      "ary": 4107,
      "▁பொருளை": 4108,
      "▁டீ": 4109,
      "▁காவிரி": 4110,
      "▁ஆப்": 4111,
      "▁உபச": 4112,
      "▁வளர": 4113,
      "▁நார்": 4114,
      "ென்றும்": 4115,
      "ராந்த": 4116,
      "▁குறுகிய": 4117,
      "▁வித்தியா": 4118,
      "▁பயன்படுத்தும்": 4119,
      "▁டால": 4120,
      "ய்ப்": 4121,
      "மண்டல": 4122,
      "▁ஒட்ட": 4123,
      "தித்": 4124,
      "காலம்": 4125,
      "யீடு": 4126,
      "த்தீன்": 4127,
      "▁துர்": 4128,
      "ற்றிக்": 4129,
      "▁உயிரு": 4130,
      "மாகி": 4131,
      "▁தரை": 4132,
      "▁குவி": 4133,
      "▁ஒற்றை": 4134,
      "▁கோபுர": 4135,
      "ணத்தில்": 4136,
      "▁கொஞ்ச": 4137,
      "▁பிரச்சினை": 4138,
      "▁எக்ஸ்": 4139,
      "▁இவ்வு": 4140,
      "ாச": 4141,
      "▁தொல்ல": 4142,
      "டுவதால்": 4143,
      "மரு": 4144,
      "▁நரசி": 4145,
      "ளுமன்ற": 4146,
      "▁உபசன்னதி": 4147,
      "▁சாதனை": 4148,
      "▁எல்லோரும்": 4149,
      "▁பொறுத்து": 4150,
      "▁எறி": 4151,
      "▁பாண்டியன்": 4152,
      "▁வல்லு": 4153,
      "▁பகி": 4154,
      "ளிலும்": 4155,
      "ிரண்டு": 4156,
      "▁தூரம்": 4157,
      "▁அமைத்து": 4158,
      "ினைப்": 4159,
      "▁விஷ்ணு": 4160,
      "▁பாட்டு": 4161,
      "▁நோய்க": 4162,
      "கிருஷ்ண": 4163,
      "ட்பட்ட": 4164,
      "▁படகு": 4165,
      "றான": 4166,
      "ஸ்தா": 4167,
      "▁வேலூர்": 4168,
      "▁துல்ல": 4169,
      "ஃப": 4170,
      "▁நூலக": 4171,
      "▁மென்பொருள்": 4172,
      "ினேன்": 4173,
      "தமான": 4174,
      "▁எட்": 4175,
      "ல்ட்": 4176,
      "▁ரங்க": 4177,
      "▁ஊடு": 4178,
      "டாமல்": 4179,
      "மானு": 4180,
      "ுல": 4181,
      "▁ஆங்கிலம்": 4182,
      "த்தையே": 4183,
      "▁மொழிகளில்": 4184,
      "▁வழியே": 4185,
      "குமா": 4186,
      "வரிசை": 4187,
      "▁பேரரசின்": 4188,
      "கமான": 4189,
      "▁சுற்றிய": 4190,
      "றிஞர்": 4191,
      "▁தந்து": 4192,
      "ide": 4193,
      "ற்றுப்": 4194,
      "▁உணர்ந்து": 4195,
      "க்சு": 4196,
      "▁குகை": 4197,
      "▁சந்தர்": 4198,
      "▁கேட்டது": 4199,
      "▁நுரைய": 4200,
      "ூரின்": 4201,
      "▁அச்சி": 4202,
      "▁தண்ணீ": 4203,
      "ராஜா": 4204,
      "ட்டுச்": 4205,
      "▁முன்பே": 4206,
      "▁தீர்மானி": 4207,
      "லையா": 4208,
      "லார்": 4209,
      "▁மடி": 4210,
      "▁தமிழகத்தில்": 4211,
      "ட்சியின்": 4212,
      "ியம்மன்": 4213,
      "▁அணுகு": 4214,
      "▁சமண": 4215,
      "வொ": 4216,
      "ராட்சி": 4217,
      "▁நிலையான": 4218,
      "பாட்டின்": 4219,
      "▁அமர்": 4220,
      "யுள்ள": 4221,
      "▁பெயரால்": 4222,
      "▁உயிரியல்": 4223,
      "▁கும": 4224,
      "ங்களுள்": 4225,
      "▁குழாய்": 4226,
      "▁தொடரில்": 4227,
      "ித்துள்ளனர்": 4228,
      "▁ஆங்கிலத்தில்": 4229,
      "▁கதாபாத்திர": 4230,
      "▁அசி": 4231,
      "ஸா": 4232,
      "இன்": 4233,
      "▁தில்லி": 4234,
      "ையாளர்": 4235,
      "▁முழுமையாக": 4236,
      "▁தங்கி": 4237,
      "மளி": 4238,
      "ல்ஸ்": 4239,
      "▁அடர்த்தி": 4240,
      "்படுகிறது": 4241,
      "இர": 4242,
      "தைத்": 4243,
      "▁நூலை": 4244,
      "▁காலத்து": 4245,
      "றவு": 4246,
      "ச்சியாக": 4247,
      "ரசர்": 4248,
      "▁தென்ன": 4249,
      "லுடன்": 4250,
      "▁முதலான": 4251,
      "யிலே": 4252,
      "▁இயங்": 4253,
      "களிடையே": 4254,
      "ிருந்தாலும்": 4255,
      "▁தென்கிழ": 4256,
      "பதில்": 4257,
      "▁முதிர்": 4258,
      "ஷே": 4259,
      "▁பாராளுமன்ற": 4260,
      "ட்டிப்": 4261,
      "டைந்து": 4262,
      "▁கூடுதல்": 4263,
      "▁உழ": 4264,
      "மென்று": 4265,
      "▁கேட்டுக்": 4266,
      "▁பெண்களின்": 4267,
      "▁பேரர": 4268,
      "வித்தது": 4269,
      "▁கூடும்": 4270,
      "▁தர்": 4271,
      "▁கருவ": 4272,
      "▁காசு": 4273,
      "▁தண்டனை": 4274,
      "வுட்": 4275,
      "ஆங்கிலம்": 4276,
      "▁தூய": 4277,
      "▁அற்பு": 4278,
      "▁பிராம": 4279,
      "ுவில்": 4280,
      "▁ஊரு": 4281,
      "ுக": 4282,
      "?\"\"\"": 4283,
      "▁தங்களது": 4284,
      "▁தொழிற்சாலை": 4285,
      "லய": 4286,
      "▁கிளர்": 4287,
      "நல்லூர்": 4288,
      "▁பெயர": 4289,
      "▁கூட்டம்": 4290,
      "டுவதற்கு": 4291,
      "▁அளவிலான": 4292,
      "?’": 4293,
      "amil": 4294,
      "வினால்": 4295,
      "ழ்ந்": 4296,
      "▁லு": 4297,
      "ோட": 4298,
      "▁கற்": 4299,
      "▁பிளா": 4300,
      "▁மலேசிய": 4301,
      "▁சோடியம்": 4302,
      "▁பெப்ரவரி": 4303,
      "விள": 4304,
      "▁பெயரிட": 4305,
      "▁எடுத்துச்": 4306,
      "▁ஆகி": 4307,
      "ாய்வு": 4308,
      "▁காற்ற": 4309,
      "▁திருச்சப": 4310,
      "ராகப்": 4311,
      "▁முற்றிலும்": 4312,
      "▁கவனம்": 4313,
      "ருங்": 4314,
      "ரையை": 4315,
      "▁வேண்டுமென்று": 4316,
      "தின்": 4317,
      "▁அங்கிருந்து": 4318,
      "▁மேலாக": 4319,
      "்லா": 4320,
      "மூலம்": 4321,
      "▁ஆனந்த": 4322,
      "▁நிலவு": 4323,
      "▁பிரிட்டிஷ்": 4324,
      "காச": 4325,
      "▁அப்து": 4326,
      "▁பிட": 4327,
      "▁பெர": 4328,
      "▁உதாரணமாக": 4329,
      "▁பிரதேசம்": 4330,
      "மக": 4331,
      "ுத்தூர்": 4332,
      "▁கலாச்சார": 4333,
      "▁சமீப": 4334,
      "நாட்ட": 4335,
      "▁செடி": 4336,
      "ிள்": 4337,
      "ினைக்": 4338,
      "▁பேச்ச": 4339,
      "▁புழு": 4340,
      "தற்க": 4341,
      "▁அகல": 4342,
      "▁ஆசியா": 4343,
      "▁தோழ": 4344,
      "ஜை": 4345,
      "னிட": 4346,
      "▁அபா": 4347,
      "ஜீ": 4348,
      "வரம்": 4349,
      "காவது": 4350,
      "▁பிரிந்து": 4351,
      "▁வது": 4352,
      "▁இயலும்": 4353,
      "▁ஏதேனும்": 4354,
      "்டளை": 4355,
      "்கலைக்": 4356,
      "▁கார்ப": 4357,
      "▁பெண்களு": 4358,
      "▁நேச": 4359,
      "தத்தில்": 4360,
      "ினரும்": 4361,
      "▁சொற்ப": 4362,
      "ith": 4363,
      "வேட்ட": 4364,
      "▁இவ்வகை": 4365,
      "ிராம": 4366,
      "▁அயனி": 4367,
      "ையானது": 4368,
      "்கனவே": 4369,
      "சுவரர்": 4370,
      "▁தெரியாது": 4371,
      "டுகிற": 4372,
      "▁மணம்": 4373,
      "▁இந்நூல்": 4374,
      "ep": 4375,
      "▁விளங்கியது": 4376,
      "ுத்து": 4377,
      "ிற்காக": 4378,
      "▁சித்திரை": 4379,
      "▁சிகிச்ச": 4380,
      "▁திருச்சிரா": 4381,
      "ிணை": 4382,
      "▁இயற்றிய": 4383,
      "▁புரு": 4384,
      "ta": 4385,
      "▁வில்லை": 4386,
      "▁ஆக்": 4387,
      "ரஸ்": 4388,
      "▁நிலு": 4389,
      "▁இழந்து": 4390,
      "ிழமை": 4391,
      "▁புளோ": 4392,
      "பாட": 4393,
      "▁வரலாற்ற": 4394,
      "▁பது": 4395,
      "மையைப்": 4396,
      "▁பேரில்": 4397,
      "▁நற்": 4398,
      "▁மாடு": 4399,
      "ிட்டார்": 4400,
      "▁இச": 4401,
      "▁கருத்த": 4402,
      "யாளர்": 4403,
      "▁சந்": 4404,
      "ரத்": 4405,
      "ூரி": 4406,
      "தானே": 4407,
      "டனான": 4408,
      "▁நம்முடைய": 4409,
      "▁மேன்": 4410,
      "▁விரைவில்": 4411,
      "ரியல்": 4412,
      "நெறி": 4413,
      "▁காட்சிய": 4414,
      "்டனர்": 4415,
      "Ch": 4416,
      "ஹி": 4417,
      "▁விலகி": 4418,
      "பொழுது": 4419,
      "ாகிய": 4420,
      "▁திண்டு": 4421,
      "ராக்": 4422,
      "▁எகிப்த": 4423,
      "்டாய": 4424,
      "▁முருக": 4425,
      "▁சரண": 4426,
      "குளம்": 4427,
      "▁மீதான": 4428,
      "▁புதிதாக": 4429,
      "னான்": 4430,
      "▁முழுமையான": 4431,
      "▁மீற்ற": 4432,
      "▁நிமிட": 4433,
      "▁பாசு": 4434,
      "▁முதலியன": 4435,
      "▁ஊழ": 4436,
      "▁எளிதாக": 4437,
      "▁மண்டபம்": 4438,
      "ணவ": 4439,
      "▁தொடு": 4440,
      "ியலாளர்": 4441,
      "ங்களான": 4442,
      "▁ஏது": 4443,
      "▁வண்ட": 4444,
      "லாள": 4445,
      "▁கன்னியாக": 4446,
      "பெய": 4447,
      "யன": 4448,
      "▁நேரி": 4449,
      "▁தால": 4450,
      "▁கூறினான்": 4451,
      "▁தொழு": 4452,
      "▁ஒழுங்க": 4453,
      "▁நுண்ணு": 4454,
      "▁ஆதரவு": 4455,
      "ect": 4456,
      "▁உலகளா": 4457,
      "▁வேகமாக": 4458,
      "ற்சிய": 4459,
      "▁இத்தொ": 4460,
      "▁கரிகால": 4461,
      "▁காலப்": 4462,
      "▁பெங்கள": 4463,
      "லப்": 4464,
      "ஆர்": 4465,
      "▁கழ": 4466,
      "ical": 4467,
      "▁மனோ": 4468,
      "▁மாசு": 4469,
      "▁குறைபாடு": 4470,
      "▁புரத": 4471,
      "▁கற்பி": 4472,
      "▁கால்பந்து": 4473,
      "▁நல்லது": 4474,
      "▁வரிசையில்": 4475,
      "ேட்டை": 4476,
      "▁தூண்ட": 4477,
      "ள்ளூர்": 4478,
      "▁அநு": 4479,
      "வதிலும்": 4480,
      "▁வருவது": 4481,
      "துறை": 4482,
      "▁பிரதம": 4483,
      "▁தூரத்தில்": 4484,
      "குரு": 4485,
      "aw": 4486,
      "த்தில": 4487,
      "▁லை": 4488,
      "த்ரா": 4489,
      "▁ஆள்": 4490,
      "ந்தாள்": 4491,
      "▁மாகாணத்தில்": 4492,
      "▁லூயி": 4493,
      "▁சுகா": 4494,
      "▁பரந்த": 4495,
      "▁வருடம்": 4496,
      "▁பொறுத்த": 4497,
      "மமா": 4498,
      "ொண்டிரு": 4499,
      "▁பச்ச": 4500,
      "ுர": 4501,
      "▁சென்": 4502,
      "▁அய்யனார்": 4503,
      "▁செட்டி": 4504,
      "திப": 4505,
      "▁சாலையில்": 4506,
      "▁பிரித்தான": 4507,
      "▁கஷ்ட": 4508,
      "▁புல்": 4509,
      "▁நெருங்கிய": 4510,
      "்டீ": 4511,
      "ர்களு": 4512,
      "▁உயிரை": 4513,
      "▁வேட்பா": 4514,
      "▁பள்ளத்தா": 4515,
      "▁வெற்றிகர": 4516,
      "▁பாடல்களை": 4517,
      "▁மங்கோ": 4518,
      "ழ்கின்றனர்": 4519,
      "▁இயற்ற": 4520,
      "▁நாடுகளு": 4521,
      "▁குழி": 4522,
      "லானது": 4523,
      "▁படித்த": 4524,
      "ற்றது": 4525,
      "▁தணி": 4526,
      "▁பண்பாடு": 4527,
      "டுத்தல்": 4528,
      "ல்லாமல்": 4529,
      "▁பண்டி": 4530,
      "ளத்தில்": 4531,
      "குடா": 4532,
      "யாணம்": 4533,
      "▁பேரு": 4534,
      "▁சடங்கு": 4535,
      "னையோ": 4536,
      "தாகவே": 4537,
      "▁மூளை": 4538,
      "▁தோற்": 4539,
      "▁பயனர்": 4540,
      "▁பரிசோ": 4541,
      "▁சுழற்சி": 4542,
      "▁நண்ப": 4543,
      "▁இதழ்க": 4544,
      "▁கோடு": 4545,
      "க்டோ": 4546,
      "▁கறு": 4547,
      "▁கம": 4548,
      "▁கம்": 4549,
      "▁வடகிழ": 4550,
      "ழ்கிறது": 4551,
      "▁விளைவி": 4552,
      "▁காதல": 4553,
      "▁பரம": 4554,
      "▁அவளது": 4555,
      "▁தளபதி": 4556,
      "னியின்": 4557,
      "▁சகோ": 4558,
      "▁சமைய": 4559,
      "▁நிறம்": 4560,
      "யறை": 4561,
      "▁வேட்ட": 4562,
      "▁விசாரி": 4563,
      "▁சனி": 4564,
      "▁ஒளிய": 4565,
      "மூர்த்தி": 4566,
      "தொரு": 4567,
      "தெல்லாம்": 4568,
      "▁நிற்ப": 4569,
      "▁மில்": 4570,
      "▁கற்பனை": 4571,
      "ற்றுக்": 4572,
      "லியில்": 4573,
      "ங்கிப்": 4574,
      "▁திறமை": 4575,
      "▁நிகழும்": 4576,
      "ish": 4577,
      "▁இரயில்": 4578,
      "▁நிறைவேற்ற": 4579,
      "▁ஊட்ட": 4580,
      "▁புதின": 4581,
      "ய்ச்": 4582,
      "▁வருஷ": 4583,
      "ளூ": 4584,
      "டைத்": 4585,
      "▁இஸ்லாமிய": 4586,
      "▁வேண்டியது": 4587,
      "▁எதை": 4588,
      "▁துர": 4589,
      "▁மாவட்டங்களில்": 4590,
      "பியா": 4591,
      "யிட்டு": 4592,
      "▁கன்னி": 4593,
      "டீ": 4594,
      "▁வரா": 4595,
      "ர்த்தா": 4596,
      "▁கூடுதலாக": 4597,
      "▁தடி": 4598,
      "▁வீதி": 4599,
      "▁தொலைவிலும்": 4600,
      "▁II": 4601,
      "ராஜன்": 4602,
      "ித்திருந்தனர்": 4603,
      "லோத்து": 4604,
      "பாண்டிய": 4605,
      "▁நிலைமை": 4606,
      "▁ஒன்றான": 4607,
      "▁கூர்": 4608,
      "▁விளங்": 4609,
      "▁சென்றான்": 4610,
      "▁கன்னியாகும": 4611,
      "▁ஜார்ஜ்": 4612,
      "▁தோன்றுகிறது": 4613,
      "வேல்": 4614,
      "▁சங்கில": 4615,
      "▁பேசிய": 4616,
      "வென்று": 4617,
      "▁தொகையில்": 4618,
      "வெண்": 4619,
      "கியால்": 4620,
      "▁பிரபு": 4621,
      "▁தெற்கே": 4622,
      "▁சம்ம": 4623,
      "▁மேடை": 4624,
      "▁அண்ட்": 4625,
      "▁கங்க": 4626,
      "▁பாடு": 4627,
      "வணை": 4628,
      "▁இதர": 4629,
      "▁மரா": 4630,
      "▁இன்றிய": 4631,
      "ons": 4632,
      "▁கரையில்": 4633,
      "ேடு": 4634,
      "யீ": 4635,
      "வளை": 4636,
      "பேசி": 4637,
      "சக": 4638,
      "ிந்திய": 4639,
      "▁கோபுரம்": 4640,
      "▁மகிழ்ச்சி": 4641,
      "யுடன்": 4642,
      "டுத்திக்": 4643,
      "▁காது": 4644,
      "யாண": 4645,
      "▁கேட்ப": 4646,
      "▁கிருஷ்ணகிரி": 4647,
      "▁களில்": 4648,
      "▁நெஞ்ச": 4649,
      "ok": 4650,
      "▁அரபு": 4651,
      "▁வருகின்றது": 4652,
      "▁இனங்": 4653,
      "ரியன்": 4654,
      "பிரி": 4655,
      "▁குடியேற்ற": 4656,
      "▁படைத்த": 4657,
      "▁தெரிவித்": 4658,
      "வேட்டரைய": 4659,
      "மட்ட": 4660,
      "▁வேளாண்மை": 4661,
      "▁வரத": 4662,
      "ியத்தேவன்": 4663,
      "▁சக": 4664,
      "▁இத்": 4665,
      "▁இளவரசர்": 4666,
      "ானின்": 4667,
      "▁செயலாளர்": 4668,
      "▁ஃபெ": 4669,
      "▁தள்ள": 4670,
      "ரசீ": 4671,
      "மீர்": 4672,
      "▁காரை": 4673,
      "▁பட்டியலில்": 4674,
      "▁ஹார்": 4675,
      "▁அவசியம்": 4676,
      "▁நூல்களில்": 4677,
      "▁இறந்": 4678,
      "▁இயலாது": 4679,
      "▁மலேசியா": 4680,
      "▁உவ": 4681,
      "▁படுத்து": 4682,
      "ண்டே": 4683,
      "மாயிரு": 4684,
      "லங்": 4685,
      "▁ஒவ்வொன்ற": 4686,
      "ானி": 4687,
      "▁மார்ச்சு": 4688,
      "▁கூடி": 4689,
      "்பட": 4690,
      "பட்ச": 4691,
      "▁வலைய": 4692,
      "▁அளித்த": 4693,
      "லாமல்": 4694,
      "▁https": 4695,
      "▁பதினெ": 4696,
      "னோடு": 4697,
      "▁ஆல்ப": 4698,
      "▁திங்": 4699,
      "▁மதம்": 4700,
      "▁விவசாய": 4701,
      "▁சத்திய": 4702,
      "▁ஈரோடு": 4703,
      "ுரை": 4704,
      "ிலிருந்தே": 4705,
      "ஃபி": 4706,
      "ட்டியிட்டு": 4707,
      "▁or": 4708,
      "▁தட்ட": 4709,
      "▁நேரு": 4710,
      "▁வருகை": 4711,
      "▁எண்ணம்": 4712,
      "ார்ட்": 4713,
      "ோக": 4714,
      "▁இங்க": 4715,
      "▁நாவல்": 4716,
      "▁பயங்கர": 4717,
      "டுத்தினார்": 4718,
      "ினுள்": 4719,
      "திற": 4720,
      "▁சமயங்களில்": 4721,
      "▁X": 4722,
      "்சியை": 4723,
      "▁ஏராளமான": 4724,
      "▁கிறிஸ்த": 4725,
      "ுப": 4726,
      "பத்து": 4727,
      "மையானது": 4728,
      "▁கோயிலு": 4729,
      "ாக்ஸ்": 4730,
      "▁பாரசீ": 4731,
      "▁ஊர": 4732,
      "▁அணிய": 4733,
      "▁மாய": 4734,
      "▁கிமு": 4735,
      "▁சேதுபதி": 4736,
      "▁சுற்றுச்சூ": 4737,
      "▁தளர்": 4738,
      "ய்யா": 4739,
      "ிங்": 4740,
      "▁ஹே": 4741,
      "▁மாணி": 4742,
      "லைச்": 4743,
      "▁பழுவேட்டரைய": 4744,
      "சான்": 4745,
      "வடிவ": 4746,
      "▁குந்த": 4747,
      "▁வழிய": 4748,
      "ொளி": 4749,
      "ையிலே": 4750,
      "முதலில்": 4751,
      "▁மனத்தில்": 4752,
      "திறன்": 4753,
      "▁திடீரென்று": 4754,
      "▁காள": 4755,
      "த்தொட": 4756,
      "ந்தல்": 4757,
      "கிறீர்": 4758,
      "▁தொற்று": 4759,
      "▁படித்து": 4760,
      "ங்கால்": 4761,
      "ாகு": 4762,
      "▁குழந்தைகளு": 4763,
      "est": 4764,
      "ial": 4765,
      "தக்": 4766,
      "சியாவின்": 4767,
      "▁அத்தியா": 4768,
      "▁இணைந்த": 4769,
      "▁கோழி": 4770,
      "மத்தின்": 4771,
      "▁வட்டத்தில்": 4772,
      "▁கௌர": 4773,
      "ராலும்": 4774,
      "▁பயிரி": 4775,
      "ாதே": 4776,
      "யுமா": 4777,
      "ன்றும்": 4778,
      "▁மைக்ரோ": 4779,
      "▁பத்த": 4780,
      "▁மெல்லிய": 4781,
      "▁தர்மபுரி": 4782,
      "▁சாமி": 4783,
      "▁கூற்று": 4784,
      "▁நாட்டுப்": 4785,
      "ியங்": 4786,
      "நேர": 4787,
      "▁உறி": 4788,
      "ork": 4789,
      "ையுடன்": 4790,
      "▁ரீதியாக": 4791,
      "▁சுகாதார": 4792,
      "▁உலா": 4793,
      "பகோ": 4794,
      "▁தரம்": 4795,
      "▁கிண": 4796,
      "▁அவற்றுள்": 4797,
      "▁பத்தா": 4798,
      "கந்த": 4799,
      "ங்கின்": 4800,
      "▁கூறலாம்": 4801,
      "▁தஞ்சை": 4802,
      "களாகக்": 4803,
      "ியத்தில்": 4804,
      "▁ஹொ": 4805,
      "ரியை": 4806,
      "வுன்": 4807,
      "▁பெற்றுள்ளது": 4808,
      "▁!": 4809,
      "▁அடைந்": 4810,
      "ric": 4811,
      "மித்": 4812,
      "ொருட்க": 4813,
      "▁மட்டும": 4814,
      "▁ரை": 4815,
      "▁கார்த்தி": 4816,
      "▁தூண்டு": 4817,
      "▁காரியம்": 4818,
      "▁காசி": 4819,
      "செல்": 4820,
      "புரா": 4821,
      "▁மனு": 4822,
      "▁திருவள்ளூர்": 4823,
      "றியா": 4824,
      "▁நிதிய": 4825,
      "▁திருச்சி": 4826,
      "ரித்து": 4827,
      "▁முரண்": 4828,
      "▁விமர்சன": 4829,
      "▁பொருட்டு": 4830,
      "▁\"[": 4831,
      "ீரல்": 4832,
      "▁தடுத்து": 4833,
      "ழ்வில்": 4834,
      "▁அட்டை": 4835,
      "▁செல்வம்": 4836,
      "▁மௌ": 4837,
      "▁உடலு": 4838,
      "ாளரும்": 4839,
      "்டேன்": 4840,
      "ோனே": 4841,
      "▁\"↑": 4842,
      "▁இலவச": 4843,
      "ழகத்தின்": 4844,
      "▁k": 4845,
      "▁மின": 4846,
      "▁St": 4847,
      "▁பக்தி": 4848,
      "▁குலோத்து": 4849,
      "ெண்ண": 4850,
      "்பட்டு": 4851,
      "▁உடலின்": 4852,
      "▁ஆங்கிலேய": 4853,
      "▁இறுதியாக": 4854,
      "▁முயல்": 4855,
      "▁பெல்": 4856,
      "விலேயே": 4857,
      "சவ": 4858,
      "ணாம": 4859,
      "▁கன்னியாகுமரி": 4860,
      "▁சீதா": 4861,
      "▁தொடர்ச்சியாக": 4862,
      "▁மரங்": 4863,
      "▁மாசி": 4864,
      "▁பணியாளர்": 4865,
      "ட்டல்": 4866,
      "எல்": 4867,
      "▁அயர்": 4868,
      "▁வடமொழி": 4869,
      "▁பிரித்து": 4870,
      "தோறும்": 4871,
      "▁கோபம்": 4872,
      "மாண": 4873,
      "▁கணே": 4874,
      "▁உடையது": 4875,
      "▁துளை": 4876,
      "த்தொகு": 4877,
      "▁சூரியன்": 4878,
      "▁அழிந்து": 4879,
      "▁ரசி": 4880,
      "ra": 4881,
      "லஸ்": 4882,
      "்றி": 4883,
      "யேற்ற": 4884,
      "▁செர்": 4885,
      "▁ஒட்டி": 4886,
      "ry": 4887,
      "▁ஆங்கிலேயர்": 4888,
      "▁பெயரி": 4889,
      "▁விண்ண": 4890,
      "▁ஆப்க": 4891,
      "களினால்": 4892,
      "ஆனால்": 4893,
      "ங்ஙனம்": 4894,
      "▁காண்பி": 4895,
      "ிடுகிறது": 4896,
      "றுத்து": 4897,
      "ast": 4898,
      "▁தாக": 4899,
      "▁ரஷ்": 4900,
      "▁வங்காளதேச": 4901,
      "▁தள்ளி": 4902,
      "▁ஆக்சைடு": 4903,
      "▁அங்கீகரி": 4904,
      "▁பேரரசர்": 4905,
      "▁Ind": 4906,
      "▁நம்ம": 4907,
      "▁பில்": 4908,
      "▁கையாள": 4909,
      "▁கூறியது": 4910,
      "▁கிடைத்து": 4911,
      "லிட": 4912,
      "▁சகோதர": 4913,
      "▁ஜேம்ஸ்": 4914,
      "நாட": 4915,
      "▁சென்றது": 4916,
      "ரத்தின்": 4917,
      "ஸ்ஸ": 4918,
      "லக்ட்": 4919,
      "▁ஃப்": 4920,
      "▁உருவம்": 4921,
      "▁சுரங்க": 4922,
      "▁வள்ளு": 4923,
      "▁திருநா": 4924,
      "▁செயற்பாடு": 4925,
      "▁புற்றுநோய்": 4926,
      "ிடுகிறார்": 4927,
      "▁ஆணை": 4928,
      "வுரை": 4929,
      "▁சாய": 4930,
      "▁கொள்வது": 4931,
      "வதற்க": 4932,
      "ாட்டம்": 4933,
      "ug": 4934,
      "சும்": 4935,
      "ழ்த்து": 4936,
      "▁சந்தோ": 4937,
      "▁ஆரோ": 4938,
      "றிச்சி": 4939,
      "▁குடிம": 4940,
      "றல்": 4941,
      "▁பொழு": 4942,
      "hy": 4943,
      "ium": 4944,
      "▁தீர்வு": 4945,
      "ூன்": 4946,
      "ார்த்த": 4947,
      "நிலையை": 4948,
      "▁பதினா": 4949,
      "▁ஐதரசன்": 4950,
      "▁விதமாக": 4951,
      "சனே": 4952,
      "ையுடைய": 4953,
      "ங்களிலிருந்து": 4954,
      "தித்த": 4955,
      "▁கங்கை": 4956,
      "▁ஐயர்": 4957,
      "▁பிரிவில்": 4958,
      "வுப்": 4959,
      "▁கர்நாடக": 4960,
      "டில": 4961,
      "▁கருத்தை": 4962,
      "▁மாளிகை": 4963,
      "▁பெருமானார்": 4964,
      "▁கிளி": 4965,
      "விதமான": 4966,
      "▁தமிழ்ச்": 4967,
      "லக்": 4968,
      "▁உள்நாட்டு": 4969,
      "▁மையமாக": 4970,
      "ிக": 4971,
      "த்தாக": 4972,
      "▁இடங்": 4973,
      "▁டாலர்": 4974,
      "▁சித்தரி": 4975,
      "டில்": 4976,
      "▁மருந்த": 4977,
      "ிருந்தாள்": 4978,
      "▁எல்லாரும்": 4979,
      "▁துண்டு": 4980,
      "▁அச்": 4981,
      "▁எங்க": 4982,
      "▁குரலில்": 4983,
      "▁சார்பில்": 4984,
      "▁°": 4985,
      "▁பாட்ட": 4986,
      "▁சார்ந்து": 4987,
      "படுத்து": 4988,
      "▁சீர்திருத்த": 4989,
      "▁இணைத்து": 4990,
      "கொள்": 4991,
      "▁சத்": 4992,
      "▁இவ்வூர்": 4993,
      "▁அஞ்சல்": 4994,
      "ஷ்க": 4995,
      "▁சுல்": 4996,
      "▁தாழ்": 4997,
      "▁பெட்டி": 4998,
      "▁வயிற்று": 4999,
      "▁துரோ": 5000,
      "▁செல்கிறது": 5001,
      "▁பத்திர": 5002,
      "▁ஸ்டே": 5003,
      "▁முட்ட": 5004,
      "ஸ்வ": 5005,
      "▁அரங்க": 5006,
      "!’": 5007,
      "▁ஏமா": 5008,
      "▁பிரான்சி": 5009,
      "Th": 5010,
      "நாத்": 5011,
      "தாசன்": 5012,
      "▁பஞ்சாப்": 5013,
      "ib": 5014,
      "ித்துக்": 5015,
      "்டாலும்": 5016,
      "▁மகாரா": 5017,
      "்காலத்தில்": 5018,
      "▁உட்பட்டது": 5019,
      "▁நிரூ": 5020,
      "▁முதற்": 5021,
      "யைத்": 5022,
      "▁ஆண்டுகளாக": 5023,
      "▁வெட்டி": 5024,
      "▁மாற்றங்": 5025,
      "▁சொன்னான்": 5026,
      "▁விச": 5027,
      "னியில்": 5028,
      "லாய": 5029,
      "▁கோவி": 5030,
      "▁கழித்து": 5031,
      "யிட்டது": 5032,
      "olog": 5033,
      "▁நூலா": 5034,
      "மையுடைய": 5035,
      "▁இழந்த": 5036,
      "மியா": 5037,
      "▁ஒன்றியம்": 5038,
      "nd": 5039,
      "▁ஆவ": 5040,
      "விகி": 5041,
      "▁குறைவு": 5042,
      "▁விளையாடிய": 5043,
      "▁குட்டி": 5044,
      "▁கோயிலில்": 5045,
      "▁படத்தின்": 5046,
      "▁பிரான்சு": 5047,
      "▁சாளு": 5048,
      "ுவதற்கு": 5049,
      "▁சபா": 5050,
      "▁உட்கார்ந்து": 5051,
      "முழு": 5052,
      "▁இன்பம்": 5053,
      "▁இறங்கி": 5054,
      "த்துறையில்": 5055,
      "▁பண்பாட்டு": 5056,
      "▁தரும": 5057,
      "்டாள்": 5058,
      "▁வெட்ட": 5059,
      "▁பழமையான": 5060,
      "ran": 5061,
      "▁ஓய்": 5062,
      "ஜர்": 5063,
      "கிறாய்": 5064,
      "▁மூழ்க": 5065,
      "lic": 5066,
      "ண்டில்": 5067,
      "த்தொகை": 5068,
      "▁அரசியலமை": 5069,
      "▁காங்கிரசு": 5070,
      "▁காளி": 5071,
      "▁டன்": 5072,
      "▁பெருந்த": 5073,
      "பெற": 5074,
      "ல்லாத": 5075,
      "▁அழற்சி": 5076,
      "oh": 5077,
      "▁இலங்கைத்": 5078,
      "▁சிவபெருமான்": 5079,
      "ிருத": 5080,
      "▁சம்": 5081,
      "▁அதற்காக": 5082,
      "வட": 5083,
      "களிடமிருந்து": 5084,
      "▁மன்": 5085,
      "▁அலுவலர்": 5086,
      "ory": 5087,
      "விச்": 5088,
      "▁இயலாத": 5089,
      "்சிக்": 5090,
      "ட்சியை": 5091,
      "▁தமிழகத்தின்": 5092,
      "களையே": 5093,
      "▁ஓரளவு": 5094,
      "ங்கூர்": 5095,
      "ஜெ": 5096,
      "ண்டின்": 5097,
      "▁வீதம்": 5098,
      "▁பொருளின்": 5099,
      "ணியின்": 5100,
      "▁உயரமான": 5101,
      "▁தோற்றுவி": 5102,
      "▁குடியரசுத்": 5103,
      "ஸ்டு": 5104,
      "ass": 5105,
      "▁ஆலயம்": 5106,
      "▁மாற்றிய": 5107,
      "திகார": 5108,
      "ளிடையே": 5109,
      "▁ரவி": 5110,
      "மேற்க": 5111,
      "▁பயன்பாட்டு": 5112,
      "துடன்": 5113,
      "▁சாம்": 5114,
      "ற்றார்": 5115,
      "▁வற்பு": 5116,
      "▁அவரிடம்": 5117,
      "த்திற்குத்": 5118,
      "ரிசு": 5119,
      "▁விளி": 5120,
      "▁முளை": 5121,
      "காண": 5122,
      "மனி": 5123,
      "ருள்": 5124,
      "▁ஆபத்து": 5125,
      "▁வற": 5126,
      "வீடு": 5127,
      "▁எலக்ட்": 5128,
      "▁உடு": 5129,
      "▁கிறிஸ்து": 5130,
      "லியன்": 5131,
      "ாறை": 5132,
      "டியை": 5133,
      "▁நலம்": 5134,
      "▁மன்னி": 5135,
      "▁முல்லை": 5136,
      "▁கய": 5137,
      "▁யோசி": 5138,
      "த்தினார்": 5139,
      "▁சன்": 5140,
      "மையே": 5141,
      "▁முதலாக": 5142,
      "▁அணிந்து": 5143,
      "▁மாகாணத்தின்": 5144,
      "டையான": 5145,
      "▁காணும்": 5146,
      "ெங்": 5147,
      "யாம்": 5148,
      "சலில்": 5149,
      "படியே": 5150,
      "▁கூட்டி": 5151,
      "சபை": 5152,
      "rom": 5153,
      "ண்டாம்": 5154,
      "▁நம்மை": 5155,
      "▁அண்மையில்": 5156,
      "act": 5157,
      "ங்குழ": 5158,
      "ஸை": 5159,
      "▁குமார": 5160,
      "▁பணியில்": 5161,
      "இய": 5162,
      "லாமா": 5163,
      "▁திரைய": 5164,
      "ொள்ளும்": 5165,
      "▁சிறையில்": 5166,
      "▁நுரையீரல்": 5167,
      "▁நிர்ண": 5168,
      "▁Th": 5169,
      "▁பணிய": 5170,
      "ச்சியில்": 5171,
      "▁அரசாங்கம்": 5172,
      "▁புராணம்": 5173,
      "▁நூற்று": 5174,
      "▁’": 5175,
      "ச்சம்": 5176,
      "▁செங்க": 5177,
      "▁விவில": 5178,
      "▁re": 5179,
      "▁ஐயா": 5180,
      "▁தட்டு": 5181,
      "▁அடங்கு": 5182,
      "iy": 5183,
      "ன்த": 5184,
      "ாற்று": 5185,
      "▁பொருள்களை": 5186,
      "▁நாற்ப": 5187,
      "ாகம": 5188,
      "▁செவி": 5189,
      "சிக்": 5190,
      "▁அமைச்சராக": 5191,
      "▁தெரிந்தது": 5192,
      "▁கனவு": 5193,
      "▁காதலி": 5194,
      "▁நிபு": 5195,
      "▁புத்தி": 5196,
      "▁தெரிவு": 5197,
      "▁பட்டது": 5198,
      "▁பேசிக்": 5199,
      "▁சிவபெருமான": 5200,
      "்கால": 5201,
      "ினு": 5202,
      "▁நாராயண": 5203,
      "▁எத்தனையோ": 5204,
      "▁தெரியாத": 5205,
      "▁புரிய": 5206,
      "ராட்டம்": 5207,
      "ிறீர்": 5208,
      "▁பெற்றுக்": 5209,
      "தமாக": 5210,
      "▁பில்லியன்": 5211,
      "▁?": 5212,
      "வண்ண": 5213,
      "▁இராமன்": 5214,
      "▁வழிவகு": 5215,
      "றிந்த": 5216,
      "க்ஷ": 5217,
      "ுணர்": 5218,
      "கண": 5219,
      "▁சினி": 5220,
      "குழ": 5221,
      "▁நூலின்": 5222,
      "▁திணை": 5223,
      "ுத": 5224,
      "வுடை": 5225,
      "▁சந்தேக": 5226,
      "சங்க": 5227,
      "▁தொடர்ப": 5228,
      "▁ஆத்திரே": 5229,
      "ட்ரா": 5230,
      "▁நாளும்": 5231,
      "ஸ்டா": 5232,
      "கோள்": 5233,
      "▁பத்ம": 5234,
      "▁மாறியது": 5235,
      "▁பாராட்டு": 5236,
      "▁சாய்": 5237,
      "▁மும்": 5238,
      "வற்றைப்": 5239,
      "▁புகழ": 5240,
      "ம்மாள்": 5241,
      "விப்": 5242,
      "▁ஆலை": 5243,
      "▁நன்றி": 5244,
      "rig": 5245,
      "▁முதலமை": 5246,
      "▁காக": 5247,
      "▁இவ்விரு": 5248,
      "மிடத்தில்": 5249,
      "▁பாண்டியர்": 5250,
      "▁தில்லை": 5251,
      "▁டெல்": 5252,
      "▁தாங்கி": 5253,
      "▁அத்": 5254,
      "ைகளில்": 5255,
      "▁புண்ண": 5256,
      "▁துறைகளில்": 5257,
      "▁அப்": 5258,
      "▁கோயிலின்": 5259,
      "▁தங்களுடைய": 5260,
      "▁மேள": 5261,
      "ூடியது": 5262,
      "வுளின்": 5263,
      "▁is": 5264,
      "▁சித்தா": 5265,
      "▁தங்களை": 5266,
      "▁ஏதும்": 5267,
      "ியுள்ளது": 5268,
      "▁தெரியாமல்": 5269,
      "▁இராமநாதபுரம்": 5270,
      "▁பாப": 5271,
      "▁கண்ணு": 5272,
      "eg": 5273,
      "▁தேன்": 5274,
      "▁இராவண": 5275,
      "▁தாவரங்": 5276,
      "டையிலான": 5277,
      "▁விஷயம்": 5278,
      "▁இன்றியமைய": 5279,
      "▁அசா": 5280,
      "▁அவு": 5281,
      "புரத்தில்": 5282,
      "த்தூ": 5283,
      "▁பொலி": 5284,
      "▁கிபி": 5285,
      "▁பழங்குடி": 5286,
      "▁மருத்துவமனை": 5287,
      "▁ன": 5288,
      "நாட்டின்": 5289,
      "க்ர": 5290,
      "ராமன்": 5291,
      "▁கரிய": 5292,
      "▁நினைத்து": 5293,
      "றிந்து": 5294,
      "டப்": 5295,
      "▁சமாதான": 5296,
      "▁பாடசாலை": 5297,
      "த்தானே": 5298,
      "▁உணர்த்த": 5299,
      "ational": 5300,
      "ிற்குப்": 5301,
      "▁உச்சி": 5302,
      "▁பைர": 5303,
      "▁குறைந்தது": 5304,
      "லேயே": 5305,
      "னுள்ள": 5306,
      "▁பிராந்திய": 5307,
      "▁ஸ்டீ": 5308,
      "▁ஈடுபட்டு": 5309,
      "▁வழங்குகிறது": 5310,
      "கின்": 5311,
      "மென": 5312,
      "வீர": 5313,
      "ண்பு": 5314,
      "▁கார்ட": 5315,
      "▁சிவகா": 5316,
      "▁The": 5317,
      "▁உமா": 5318,
      "▁மாநாடு": 5319,
      "▁யாரோ": 5320,
      "லியின்": 5321,
      "▁மொழியாக": 5322,
      "▁நரசிம்ம": 5323,
      "ச்சியம்": 5324,
      "▁கொடுமை": 5325,
      "▁ஆள": 5326,
      "லிங்": 5327,
      "▁வயி": 5328,
      "▁செயலி": 5329,
      "▁வெண்ண": 5330,
      "▁தொண்டு": 5331,
      "விளை": 5332,
      "ich": 5333,
      "▁இவற்றுள்": 5334,
      "மத்": 5335,
      "▁அட்டவணை": 5336,
      "ஸ்டன்": 5337,
      "ிற்று": 5338,
      "க்ட்": 5339,
      "yl": 5340,
      "ற்பா": 5341,
      "ைந்த": 5342,
      "▁காஷ்": 5343,
      "▁நெகி": 5344,
      "▁வெண்க": 5345,
      "ச்சியான": 5346,
      "uth": 5347,
      "▁நேரடி": 5348,
      "▁உற்சாக": 5349,
      "▁மடங்கு": 5350,
      "ல்லாம்": 5351,
      "▁பரிசோதனை": 5352,
      "▁தாண்ட": 5353,
      "for": 5354,
      "▁பரிமாற்ற": 5355,
      "ாதை": 5356,
      "விலே": 5357,
      "▁பிரத": 5358,
      "்லு": 5359,
      "▁மழ": 5360,
      "▁ஃபி": 5361,
      "▁இரவில்": 5362,
      "▁முழுதும்": 5363,
      "▁கில்": 5364,
      "க்டர்": 5365,
      "▁சார்பாக": 5366,
      "மன்ன": 5367,
      "தாகச்": 5368,
      "பவரின்": 5369,
      "▁இத்தனை": 5370,
      "ஜு": 5371,
      "▁பரவ": 5372,
      "▁ஒன்றியத்தில்": 5373,
      "யூனி": 5374,
      "▁நப": 5375,
      "நாட்டுப்": 5376,
      "ாரே": 5377,
      "டையை": 5378,
      "டுவதை": 5379,
      "ச்சத்து": 5380,
      "▁யாக": 5381,
      "▁வேளாண்": 5382,
      "▁வசித்து": 5383,
      "ive": 5384,
      "சியின்": 5385,
      "▁இல்லையா": 5386,
      "▁உடனடியாக": 5387,
      "▁தொல்லியல்": 5388,
      "▁கெடு": 5389,
      "▁எங்களு": 5390,
      "▁நிரந்தர": 5391,
      "யைச்": 5392,
      "ங்டன்": 5393,
      "▁குளம்": 5394,
      "களிலே": 5395,
      "▁நாலு": 5396,
      "▁சிக": 5397,
      "சுர": 5398,
      "▁சூட்ட": 5399,
      "▁மீற்றர்": 5400,
      "ட்சை": 5401,
      "லித்": 5402,
      "▁நெடுஞ்ச": 5403,
      "▁முகம்மது": 5404,
      "ுறு": 5405,
      "ொழுதும்": 5406,
      "▁மங்கோலிய": 5407,
      "பில": 5408,
      "▁தண்டு": 5409,
      "▁அனைத்தை": 5410,
      "▁பெண்ணின்": 5411,
      "யிரி": 5412,
      "▁பாலின": 5413,
      "தல்ல": 5414,
      "பென்": 5415,
      "லாய்": 5416,
      "▁தெளிவு": 5417,
      "▁தோழி": 5418,
      "▁பாய்ந்து": 5419,
      "▁நியாய": 5420,
      "லான்": 5421,
      "டுவதாக": 5422,
      "ட்டியின்": 5423,
      "ுகிறேன்": 5424,
      "ப்தி": 5425,
      "▁வீட்டை": 5426,
      "▁உருசிய": 5427,
      "▁பயின்றார்": 5428,
      "▁தங்கு": 5429,
      "▁கரூர்": 5430,
      "▁ஆற்றலை": 5431,
      "ாயிரம்": 5432,
      "ிடையில்": 5433,
      "▁செங்கோ": 5434,
      "▁இன்றியமையாத": 5435,
      "▁கருதுகின்றனர்": 5436,
      "▁மின்னணு": 5437,
      "▁மாட்டார்": 5438,
      "ற்படை": 5439,
      "▁புன்ன": 5440,
      "வராய": 5441,
      "ure": 5442,
      "▁பக்தர்": 5443,
      "வருகிறது": 5444,
      "▁புதல்": 5445,
      "▁சுட்டி": 5446,
      "▁தலையில்": 5447,
      "ேர": 5448,
      "▁ஒடி": 5449,
      "▁நிறுவனத்தில்": 5450,
      "ேந்திர": 5451,
      "லவில்லை": 5452,
      "ாலான": 5453,
      "▁அன்றைய": 5454,
      "▁மெக்சி": 5455,
      "▁நிறத்தில்": 5456,
      "னியன்": 5457,
      "சியாவில்": 5458,
      "நராக": 5459,
      "ரசன்": 5460,
      "வரில்": 5461,
      "▁பீட்டர்": 5462,
      "▁பொருளாக": 5463,
      "▁வேளையில்": 5464,
      "ெறு": 5465,
      "ated": 5466,
      "ள்ளா": 5467,
      "மானதாக": 5468,
      "முத்து": 5469,
      "ளைச்": 5470,
      "▁வழங்கியது": 5471,
      "▁செழி": 5472,
      "▁கிடந்த": 5473,
      "▁கவிஞ": 5474,
      "▁பெற்றனர்": 5475,
      "ழுத்த": 5476,
      "▁கொதி": 5477,
      "ுமாறு": 5478,
      "பட்டது": 5479,
      "▁ஒன்றே": 5480,
      "▁பிரதேசச்": 5481,
      "▁அநே": 5482,
      "▁தெற்கில்": 5483,
      "▁பொட்டா": 5484,
      "▁காந்திய": 5485,
      "▁மகாத்மா": 5486,
      "▁தெரியுமா": 5487,
      "▁அரிசி": 5488,
      "சேகர": 5489,
      "ிரமணிய": 5490,
      "▁பிரதேசத்தின்": 5491,
      "திக்": 5492,
      "திரா": 5493,
      "▁யோசனை": 5494,
      "த்திற்குள்": 5495,
      "றிக்": 5496,
      "▁எதிர்த்த": 5497,
      "▁விசாரணை": 5498,
      "▁அமர்ந்து": 5499,
      "▁கோள": 5500,
      "▁யூத": 5501,
      "▁இரகசிய": 5502,
      "▁கவ": 5503,
      "▁கெட்ட": 5504,
      "▁மின்னூ": 5505,
      "▁விந": 5506,
      "மையுடன்": 5507,
      "படிய": 5508,
      "▁வள்ளி": 5509,
      "▁தரையில்": 5510,
      "▁தெய்வம்": 5511,
      "▁மூடி": 5512,
      "▁அழகான": 5513,
      "த்தியின்": 5514,
      "▁பூமி": 5515,
      "▁உதயணன்": 5516,
      "▁குறியீ": 5517,
      "▁கொட்ட": 5518,
      "த்திரன்": 5519,
      "▁காரணத்தால்": 5520,
      "▁பிண": 5521,
      "▁கலைஞ": 5522,
      "ாட்டை": 5523,
      "▁நிரூபி": 5524,
      "▁கோர": 5525,
      "▁வரலாற்றை": 5526,
      "ach": 5527,
      "▁இமய": 5528,
      "▁அலுமின": 5529,
      "ோணம்": 5530,
      "▁செது": 5531,
      "▁எதற்காக": 5532,
      "▁துன்பம்": 5533,
      "ew": 5534,
      "▁பிளே": 5535,
      "▁வீழ்த்த": 5536,
      "▁எய்த": 5537,
      "▁நாட்களு": 5538,
      "தென்று": 5539,
      "▁குறைய": 5540,
      "▁இராகம்": 5541,
      "▁முகத்தில்": 5542,
      "ொடி": 5543,
      "திவு": 5544,
      "▁இயேசுவின்": 5545,
      "▁நிழ": 5546,
      "▁வெட்டு": 5547,
      "▁ஆண்டுதோறும்": 5548,
      "▁அவர": 5549,
      "▁பணியாற்றி": 5550,
      "▁\"‘": 5551,
      "ழா": 5552,
      "▁|": 5553,
      "▁பாச": 5554,
      "டியின்": 5555,
      "ரையின்": 5556,
      "▁தாங்க": 5557,
      "்டீரியா": 5558,
      "மென்": 5559,
      "▁முன்னரே": 5560,
      "▁மாறுபட்ட": 5561,
      "குளோ": 5562,
      "்தல்": 5563,
      "்தறிவு": 5564,
      "▁மணிமே": 5565,
      "திமன்றம்": 5566,
      "▁பொருளியல்": 5567,
      "ெற்று": 5568,
      "▁லீக்": 5569,
      "▁வலையமை": 5570,
      "குல": 5571,
      "றாக": 5572,
      "▁வழு": 5573,
      "per": 5574,
      "்டை": 5575,
      "▁கோளா": 5576,
      "டுத்தியது": 5577,
      "▁கேரளா": 5578,
      "▁இழி": 5579,
      "▁கிளா": 5580,
      "▁உபசன்னதிகளும்": 5581,
      "வேண்டு": 5582,
      "▁பிரம்மா": 5583,
      "▁வேட்டையா": 5584,
      "▁ஏவு": 5585,
      "▁ஹீ": 5586,
      "▁தொடர": 5587,
      "▁குளோரைடு": 5588,
      "னையை": 5589,
      "▁சினிமா": 5590,
      "வோடு": 5591,
      "ுள்ளன": 5592,
      "▁\"\"\"\"": 5593,
      "▁கூறுவது": 5594,
      "சனின்": 5595,
      "மயமா": 5596,
      "▁தீமை": 5597,
      "▁உடலை": 5598,
      "▁வேறொரு": 5599,
      "ெனி": 5600,
      "ாற்": 5601,
      "▁தவம்": 5602,
      "▁தவறான": 5603,
      "ேரி": 5604,
      "▁உம்": 5605,
      "பெறு": 5606,
      "வரியில்": 5607,
      "யிலாக": 5608,
      "ீஸ்வரர்": 5609,
      "ட்டான": 5610,
      "ாட்": 5611,
      "▁துணைய": 5612,
      "uc": 5613,
      "ind": 5614,
      "▁ஊழியர்": 5615,
      "ுவே": 5616,
      "▁நுண்": 5617,
      "▁கண்டார்": 5618,
      "▁மகேந்திர": 5619,
      "ாளில்": 5620,
      "▁பூர்": 5621,
      "▁வென்றார்": 5622,
      "யெல்லாம்": 5623,
      "▁திருச்சபை": 5624,
      "ஹெ": 5625,
      "ினரு": 5626,
      "ஃபா": 5627,
      "▁மேரி": 5628,
      "▁மலையில்": 5629,
      "▁புகுந்து": 5630,
      "▁மென்பொரு": 5631,
      "லிலிருந்து": 5632,
      "▁வேல்": 5633,
      "ுமையாக": 5634,
      "▁வெண்பா": 5635,
      "்தா": 5636,
      "▁மேற்கில்": 5637,
      "ிதம்": 5638,
      "▁கன்": 5639,
      "▁திசைய": 5640,
      "▁பெறுகிறது": 5641,
      "▁கணின": 5642,
      "▁இயங்கி": 5643,
      "▁கச": 5644,
      "▁இசைக்": 5645,
      "▁de": 5646,
      "▁தயார": 5647,
      "▁கழிவு": 5648,
      "▁தோல்வி": 5649,
      "▁கேட்டாள்": 5650,
      "ெறும்": 5651,
      "amp": 5652,
      "▁உறுதிய": 5653,
      "▁அதன": 5654,
      "▁அளித்": 5655,
      "▁இவனது": 5656,
      "▁ஆராய்ந்து": 5657,
      "ஜரா": 5658,
      "வீர்": 5659,
      "▁படிக": 5660,
      "▁சொன்னால்": 5661,
      "▁அரசி": 5662,
      "▁செந்த": 5663,
      "▁இவற்று": 5664,
      "Cl": 5665,
      "மானி": 5666,
      "ழ்கின்றன": 5667,
      "▁பயன்படுத்திய": 5668,
      "▁பாபு": 5669,
      "்தோ": 5670,
      "▁நய": 5671,
      "வுள்ள": 5672,
      "ிருந்தும்": 5673,
      "வற்றால்": 5674,
      "▁அலெக்சா": 5675,
      "ையூர்": 5676,
      "கோவில்": 5677,
      "த்திற": 5678,
      "▁வருகிற": 5679,
      "▁ஆண": 5680,
      "▁தொண்ட": 5681,
      "▁இம்மாவட்டத்தின்": 5682,
      "▁நின்": 5683,
      "ச்சியின்": 5684,
      "▁புரிந்த": 5685,
      "▁மந்திரி": 5686,
      "ாமணி": 5687,
      "▁உணர்ந்த": 5688,
      "▁ஒத்தி": 5689,
      "▁நாற்க": 5690,
      "படுகின்றன": 5691,
      "ாபார": 5692,
      "▁துரியோ": 5693,
      "▁விரைந்து": 5694,
      "▁எதிர்கால": 5695,
      "ராவது": 5696,
      "▁தொலைபேசி": 5697,
      "▁வழங்கினார்": 5698,
      "டைக்": 5699,
      "▁மீட்ட": 5700,
      "▁சதவீதம்": 5701,
      "டையின்": 5702,
      "▁தம்மை": 5703,
      "▁ஆழ்ந்த": 5704,
      "▁சுற்றுச்சூழல்": 5705,
      "▁விதமான": 5706,
      "▁நறு": 5707,
      "லகில்": 5708,
      "▁ஆண்டி": 5709,
      "ைசியில்": 5710,
      "▁எரிமலை": 5711,
      "வதைப்": 5712,
      "மில்லாத": 5713,
      "▁பாகு": 5714,
      "▁கண்ணன்": 5715,
      "▁கையெழு": 5716,
      "▁புறம்": 5717,
      "▁விவசாயி": 5718,
      "sh": 5719,
      "▁தலையை": 5720,
      "▁துறவி": 5721,
      "ரைகளை": 5722,
      "▁பண்ணி": 5723,
      "ந்துள்ளது": 5724,
      "▁முன்னதாக": 5725,
      "▁வெற்றிய": 5726,
      "யேற": 5727,
      "aj": 5728,
      "ort": 5729,
      "▁சாஸ்த": 5730,
      "▁கழகத்தின்": 5731,
      "▁பயன்படுத்தலாம்": 5732,
      "▁செங்": 5733,
      "▁வேள்": 5734,
      "▁அவதார": 5735,
      "னேட்டு": 5736,
      "▁அளித்து": 5737,
      "▁மாநிலமான": 5738,
      "▁நெய்": 5739,
      "▁அருகிலுள்ள": 5740,
      "வரிடம்": 5741,
      "▁முதுகு": 5742,
      "ாட்சியில்": 5743,
      "பவரு": 5744,
      "▁மேற்கே": 5745,
      "பொது": 5746,
      "ணியை": 5747,
      "மொழிய": 5748,
      "ினே": 5749,
      "▁அரே": 5750,
      "▁மாகாணம்": 5751,
      "ய்த்": 5752,
      "▁மாட": 5753,
      "ுநாள்": 5754,
      "▁காகி": 5755,
      "▁இனத்த": 5756,
      "ைபெற்று": 5757,
      "▁முன்னில": 5758,
      "▁யூதர்": 5759,
      "▁தென்னிந்த": 5760,
      "ொறி": 5761,
      "▁வினைய": 5762,
      "III": 5763,
      "ரணம்": 5764,
      "▁இரண்டா": 5765,
      "▁all": 5766,
      "▁ஜெர்மான": 5767,
      "▁பருத்தி": 5768,
      "தையை": 5769,
      "▁மதுராந்த": 5770,
      "▁அம்மை": 5771,
      "சப": 5772,
      "▁சப்த": 5773,
      "▁தனித்": 5774,
      "சல": 5775,
      "வெல்": 5776,
      "▁மல்": 5777,
      "▁கம்யூனி": 5778,
      "ன்மார்": 5779,
      "▁தந்திர": 5780,
      "▁கூறுகின்றனர்": 5781,
      "வேக": 5782,
      "▁திபெ": 5783,
      "▁தகுந்த": 5784,
      "▁அலங்கார": 5785,
      "▁தென்னிந்திய": 5786,
      "▁உபயோகி": 5787,
      "ுகின்றனர்": 5788,
      "யற்ற": 5789,
      "ராதி": 5790,
      "ோரும்": 5791,
      "▁தூது": 5792,
      "▁எழுந்தரு": 5793,
      "▁அனைத்துலக": 5794,
      "▁குமார்": 5795,
      "ராக்சைடு": 5796,
      "▁பிரதமர்": 5797,
      "▁அருள": 5798,
      "▁செயல": 5799,
      "வதைத்": 5800,
      "▁டிரை": 5801,
      "▁இசையில்": 5802,
      "்டிக்": 5803,
      "▁ஆகா": 5804,
      "▁தருகிறது": 5805,
      "ாலை": 5806,
      "▁வித்": 5807,
      "▁சுற்றியுள்ள": 5808,
      "ுகின்ற": 5809,
      "காரி": 5810,
      "▁இவள்": 5811,
      "▁குடை": 5812,
      "▁பெரியா": 5813,
      "▁ஆச்": 5814,
      "▁வருமான": 5815,
      "▁கருநாடக": 5816,
      "▁தற்காலி": 5817,
      "ர்வு": 5818,
      "▁அவற்று": 5819,
      "▁விநியோ": 5820,
      "▁திருமா": 5821,
      "மியம்": 5822,
      "▁தேனி": 5823,
      "ஞ்ச்": 5824,
      "▁அனுபவி": 5825,
      "▁உத்திய": 5826,
      "▁பாதையில்": 5827,
      "ட்டைப்": 5828,
      "▁பெற்றுள்ளார்": 5829,
      "leg": 5830,
      "மடைந்த": 5831,
      "▁தாண்டி": 5832,
      "்களை": 5833,
      "்ச்சி": 5834,
      "சித்த": 5835,
      "▁பெற்றன": 5836,
      "்படுத்தும்": 5837,
      "▁பெருமளவில்": 5838,
      "▁அதற்க": 5839,
      "தப்": 5840,
      "▁கலியா": 5841,
      "சட்ட": 5842,
      "ள்களை": 5843,
      "வல்லி": 5844,
      "▁காமா": 5845,
      "த்திற்குச்": 5846,
      "ட்டின": 5847,
      "லறை": 5848,
      "கண்": 5849,
      "▁ஜனதா": 5850,
      "▁டார்": 5851,
      "ாத்திர": 5852,
      "▁சூழலில்": 5853,
      "▁கொடை": 5854,
      "▁பாளைய": 5855,
      "▁குரங்கு": 5856,
      "▁பட்டத்தை": 5857,
      "மொத்த": 5858,
      "னாலும்": 5859,
      "லிங்கம்": 5860,
      "▁பயன்படுகின்றன": 5861,
      "யிலை": 5862,
      "▁வணங்கி": 5863,
      "▁படிய": 5864,
      "▁ஆலோசனை": 5865,
      "த்தெ": 5866,
      "முற்ற": 5867,
      "யிற்சி": 5868,
      "▁வரவில்லை": 5869,
      "மிடம்": 5870,
      "▁இடமாக": 5871,
      "▁வருமாறு": 5872,
      "ட்டியை": 5873,
      "ட்ரி": 5874,
      "▁அர்ச்சு": 5875,
      "▁புத்தகம்": 5876,
      "▁கோர்": 5877,
      "த்தியர்": 5878,
      "▁விருந்து": 5879,
      "மிரு": 5880,
      "oll": 5881,
      "ுகிற": 5882,
      "▁பட்டை": 5883,
      "லயம்": 5884,
      "▁கமல": 5885,
      "▁பொற": 5886,
      "ங்களோடு": 5887,
      "▁நிச்சய": 5888,
      "னணி": 5889,
      "▁by": 5890,
      "▁வளம்": 5891,
      "ies": 5892,
      "தாப": 5893,
      "ணகிரி": 5894,
      "▁மகிழ்": 5895,
      "▁பாண்டி": 5896,
      "▁கையா": 5897,
      "▁கோலா": 5898,
      "▁அப்துல்": 5899,
      "▁இடர்": 5900,
      "▁வணிகர்": 5901,
      "▁எதிர்பா": 5902,
      "iz": 5903,
      "மண்": 5904,
      "▁பொட்டாசியம்": 5905,
      "ோவில": 5906,
      "▁விருதை": 5907,
      "▁வசூ": 5908,
      "ன்றால்": 5909,
      "▁படங்களில்": 5910,
      "▁பட்டா": 5911,
      "▁சல": 5912,
      "ுற்ற": 5913,
      "பாடுகளை": 5914,
      "▁வேற்றுமை": 5915,
      "▁பூங்குழ": 5916,
      "▁மொழியின்": 5917,
      "ிறாய்": 5918,
      "atti": 5919,
      "ட்டதா": 5920,
      "▁படைத்": 5921,
      "▁அணியில்": 5922,
      "▁சென்றனர்": 5923,
      "▁புரட்டா": 5924,
      "ெரும்": 5925,
      "▁அத்தனை": 5926,
      "▁உத்திர": 5927,
      "ைன்": 5928,
      "▁ராணுவ": 5929,
      "கலாம்": 5930,
      "சான": 5931,
      "சித்து": 5932,
      "▁கழகத்தில்": 5933,
      "ublic": 5934,
      "▁அவனிடம்": 5935,
      "▁விமானம்": 5936,
      "▁தாது": 5937,
      "ின்றும்": 5938,
      "▁திட்டமிட": 5939,
      "man": 5940,
      "கலா": 5941,
      "▁சீனி": 5942,
      "▁பிளவு": 5943,
      "▁ஆண்டும்": 5944,
      "▁பன": 5945,
      "▁இடையிலான": 5946,
      "▁வருகின்ற": 5947,
      "▁பங்கா": 5948,
      "▁இவரே": 5949,
      "▁விற": 5950,
      "▁தனிந": 5951,
      "▁விரல்": 5952,
      "வுறு": 5953,
      "ோதைய": 5954,
      "▁வீடியோ": 5955,
      "▁வரிச": 5956,
      "கோண": 5957,
      "▁தஞ்ச": 5958,
      "▁நால்": 5959,
      "▁பாலா": 5960,
      "ரிமை": 5961,
      "ond": 5962,
      "ஞ்சல்": 5963,
      "▁எடுத்": 5964,
      "▁மொழியை": 5965,
      "கமும்": 5966,
      "ரங்கு": 5967,
      "▁அவனைப்": 5968,
      "▁உறவினர்": 5969,
      "▁பூனை": 5970,
      "ுதியாக": 5971,
      "ிரன்": 5972,
      "▁பெயரும்": 5973,
      "டுத்துதல்": 5974,
      "▁சொற்பொழி": 5975,
      "ோதே": 5976,
      "▁தொடர்பாக": 5977,
      "▁குஜரா": 5978,
      "▁பாவம்": 5979,
      "ராத்திரி": 5980,
      "னொ": 5981,
      "▁இஸ்லா": 5982,
      "▁ராபர்ட்": 5983,
      "்ச்சல்": 5984,
      "▁வணங்க": 5985,
      "▁இல்லைய": 5986,
      "▁நூலகம்": 5987,
      "▁இந்நிறு": 5988,
      "end": 5989,
      "மயம்": 5990,
      "▁ஸ்த": 5991,
      "த்தல": 5992,
      "்சன்": 5993,
      "▁உலர்": 5994,
      "ஆமாம்": 5995,
      "▁தொடங்": 5996,
      "▁இயங்க": 5997,
      "னாகிய": 5998,
      "ினின்": 5999,
      "▁இறைய": 6000,
      "▁படுகிறது": 6001,
      "மலர்": 6002,
      "▁கோள்": 6003,
      "▁இளங்க": 6004,
      "▁காலத்தின்": 6005,
      "age": 6006,
      "▁அகற்ற": 6007,
      "த்தியது": 6008,
      "▁ஆந்திரப்": 6009,
      "▁கோவிலில்": 6010,
      "ாலையில்": 6011,
      "▁இரத்தம்": 6012,
      "ஹோ": 6013,
      "்சர்": 6014,
      "▁பகுத்த": 6015,
      "கைக்": 6016,
      "▁புத்தர்": 6017,
      "▁நெஞ்சு": 6018,
      "▁ஈடுபாடு": 6019,
      "▁முன்பாக": 6020,
      "!\"\"\"": 6021,
      "ூகம்": 6022,
      "▁பெண்களும்": 6023,
      "▁சட்டத்தின்": 6024,
      "ens": 6025,
      "மினி": 6026,
      "▁டச்சு": 6027,
      "▁கூட்டணி": 6028,
      "▁ஆஸ்திரேலியா": 6029,
      "▁அருங்காட்சியகம்": 6030,
      "▁சேத": 6031,
      "▁அன்றி": 6032,
      "ர்ண": 6033,
      "ப்ஸ்": 6034,
      "▁சீடர்": 6035,
      "▁திசையில்": 6036,
      "ியத்தின்": 6037,
      "▁கற்றுக்": 6038,
      "மூலத்தில்": 6039,
      "▁பரவி": 6040,
      "▁மாதங்": 6041,
      "▁கதிரிய": 6042,
      "▁பருவத்தில்": 6043,
      "▁தின்": 6044,
      "ட்டமின்": 6045,
      "ராசன்": 6046,
      "புல": 6047,
      "▁வு": 6048,
      "காந்த": 6049,
      "▁பதினை": 6050,
      "ட்டதால்": 6051,
      "வேரி": 6052,
      "▁கவல": 6053,
      "ாணும்": 6054,
      "மாவட்ட": 6055,
      "ப்து": 6056,
      "▁பில": 6057,
      "▁திகை": 6058,
      "▁கிராம்": 6059,
      "கூர்": 6060,
      "▁ஒன்றின்": 6061,
      "ment": 6062,
      "▁பாலு": 6063,
      "▁உணவுப்": 6064,
      "▁கைலா": 6065,
      "▁விரைவு": 6066,
      "▁ஆக்சிசனே": 6067,
      "▁முனைய": 6068,
      "▁மாறும்": 6069,
      "▁சவு": 6070,
      "▁பிரீ": 6071,
      "▁பிரகா": 6072,
      "ence": 6073,
      "right": 6074,
      "யத்தை": 6075,
      "▁விபத்து": 6076,
      "▁at": 6077,
      "த்ததும்": 6078,
      "▁வருத்த": 6079,
      "கலன்": 6080,
      "▁மக்": 6081,
      "தியம்": 6082,
      "▁work": 6083,
      "▁அற்ற": 6084,
      "▁இளைஞ": 6085,
      "▁ஆராய்ச்சியாளர்": 6086,
      "ட்டித்": 6087,
      "▁உலகள": 6088,
      "▁இராச்சியம்": 6089,
      "▁கண்ணீர்": 6090,
      "▁சதுரங்க": 6091,
      "▁முட": 6092,
      "டுத்தலாம்": 6093,
      "்டட": 6094,
      "வகம்": 6095,
      "ிறதே": 6096,
      "முனி": 6097,
      "மெல்லாம்": 6098,
      "▁மோச": 6099,
      "▁கருத்தில்": 6100,
      "ாரோ": 6101,
      "▁வேடி": 6102,
      "சியை": 6103,
      "ங்கரை": 6104,
      "ுகளைக்": 6105,
      "ுள்ளனர்": 6106,
      "ானு": 6107,
      "சக்தி": 6108,
      "பிரான்": 6109,
      "▁மார்க": 6110,
      "முகமானார்": 6111,
      "ff": 6112,
      "▁அனைவரு": 6113,
      "▁காலையில்": 6114,
      "▁மூர்த்தி": 6115,
      "▁அமைகிறது": 6116,
      "ராட": 6117,
      "▁as": 6118,
      "ட்டியா": 6119,
      "மட": 6120,
      "▁மரியாதை": 6121,
      "▁பூச": 6122,
      "▁பதின்": 6123,
      "▁தீவில்": 6124,
      "▁ஐந்தாம்": 6125,
      "ous": 6126,
      "▁சகா": 6127,
      "கத்து": 6128,
      "▁பிட்": 6129,
      "▁மீனாட்சி": 6130,
      "▁பழம்": 6131,
      "சைக்": 6132,
      "▁கொல்கத்தா": 6133,
      "வதாகக்": 6134,
      "▁சித்": 6135,
      "▁முறிய": 6136,
      "▁பாணி": 6137,
      "▁முத்திரை": 6138,
      "▁மேற்கத்திய": 6139,
      "ிமூலத்தில்": 6140,
      "ore": 6141,
      "ாந்து": 6142,
      "▁இலிருந்து": 6143,
      "▁கோல": 6144,
      "▁தொடர்வண்டி": 6145,
      "சாயன": 6146,
      "மாணி": 6147,
      "விஸ்": 6148,
      "▁இயற்": 6149,
      "▁பெருமான": 6150,
      "ிரமி": 6151,
      "▁தேசியப்": 6152,
      "▁பழங்கால": 6153,
      "ினமான": 6154,
      "▁காலத்திற்கு": 6155,
      "CH": 6156,
      "▁Un": 6157,
      "▁வெறி": 6158,
      "வகையான": 6159,
      "▁தாயின்": 6160,
      "▁தாமரை": 6161,
      "நூறு": 6162,
      "▁இதற்காக": 6163,
      "▁வடிவத்தில்": 6164,
      "▁காட்சியளி": 6165,
      "ையோடு": 6166,
      "படுத்தி": 6167,
      "▁சமாளி": 6168,
      "ியிருந்": 6169,
      "அர": 6170,
      "ரசின்": 6171,
      "▁சாரா": 6172,
      "▁தினம்": 6173,
      "▁ஊசி": 6174,
      "த்தியை": 6175,
      "▁கிங்": 6176,
      "டித்து": 6177,
      "ிரதேச": 6178,
      "▁காலா": 6179,
      "▁மரணம்": 6180,
      "▁மோட்டார்": 6181,
      "▁கூறியுள்ளார்": 6182,
      "▁காஞ்ச": 6183,
      "▁அலுவலகம்": 6184,
      "பரி": 6185,
      "▁பொதுத்": 6186,
      "▁மைசூர்": 6187,
      "▁அகா": 6188,
      "நேரம்": 6189,
      "யிரம்": 6190,
      "▁பகிர": 6191,
      "▁வேட்டை": 6192,
      "▁பிரச்சனை": 6193,
      "ism": 6194,
      "▁துன்பு": 6195,
      "▁நிலத்தில்": 6196,
      "Al": 6197,
      "யுள்": 6198,
      "▁லட்ச": 6199,
      "▁வேதா": 6200,
      "பெருமாள்": 6201,
      "▁திண்ம": 6202,
      "த்திறன்": 6203,
      "ந்தொ": 6204,
      "▁இஃது": 6205,
      "▁ஈடுபட்ட": 6206,
      "▁ஆல்க": 6207,
      "▁சோதன": 6208,
      "▁சாதிய": 6209,
      "]\"": 6210,
      "▁கார்த்திகை": 6211,
      "▁சுட": 6212,
      "▁மரத்தின்": 6213,
      "▁உலகத்தில்": 6214,
      "▁வணிகப்": 6215,
      "▁சங்கீ": 6216,
      "▁கூடுதல": 6217,
      "▁வினைபுரி": 6218,
      "▁ஏனென்றால்": 6219,
      "▁நாடா": 6220,
      "த்தளம்": 6221,
      "▁கத்தி": 6222,
      "▁பெண்ணை": 6223,
      "திலிருந்து": 6224,
      "▁பீட": 6225,
      "யாகக்": 6226,
      "▁அனும": 6227,
      "▁ஹெர்": 6228,
      "one": 6229,
      "பெறும்": 6230,
      "▁நிரல்": 6231,
      "்ந்து": 6232,
      "லிதா": 6233,
      "▁சும்": 6234,
      "ரியர்": 6235,
      "▁இதற்க": 6236,
      "▁காற்ப": 6237,
      "வில்லையே": 6238,
      "▁இத்தாலிய": 6239,
      "▁தகவல்களை": 6240,
      "▁மண்டலத்தில்": 6241,
      "▁இயல்பான": 6242,
      "ue": 6243,
      "▁வயல்": 6244,
      "▁ஸ்ட்": 6245,
      "▁ஆங்கா": 6246,
      "▁கெடில": 6247,
      "▁சதவிகி": 6248,
      "▁மூள": 6249,
      "▁வீரன்": 6250,
      "▁பாக்டீரியா": 6251,
      "▁ரகு": 6252,
      "▁சிரம": 6253,
      "▁பெருமளவு": 6254,
      "▁விஜய்": 6255,
      "uk": 6256,
      "சியில்": 6257,
      "ித்திரு": 6258,
      "▁பாரத": 6259,
      "▁வேணு": 6260,
      "▁படும்": 6261,
      "▁அண்மை": 6262,
      "வனுடைய": 6263,
      "▁பொழி": 6264,
      "▁குன்று": 6265,
      "▁விளங்கினார்": 6266,
      "▁துரை": 6267,
      "ரேட்டு": 6268,
      "▁காவலர்": 6269,
      "▁வேண்டா": 6270,
      "▁இதோ": 6271,
      "▁கலக": 6272,
      "னாதிபதி": 6273,
      "▁இலத்தீன்": 6274,
      "An": 6275,
      "▁அகில": 6276,
      "▁உட்புற": 6277,
      "▁சண்": 6278,
      "முதலாக": 6279,
      "▁சபையின்": 6280,
      "ாழ": 6281,
      "▁மல்ல": 6282,
      "ர்னியா": 6283,
      "▁நரி": 6284,
      "▁படைகளை": 6285,
      "▁கிருஷ்ணன்": 6286,
      "▁கணவன்": 6287,
      "மாட்டார்": 6288,
      "▁இன்றி": 6289,
      "▁பூமியின்": 6290,
      "▁வழிபாட்டு": 6291,
      "▁கியூ": 6292,
      "▁செல்சிய": 6293,
      "ட்டத்தில்": 6294,
      "ivers": 6295,
      "▁உலகு": 6296,
      "▁ராக்": 6297,
      "தியைக்": 6298,
      "▁ஒன்றிணை": 6299,
      "▁நிறுவினார்": 6300,
      "இனி": 6301,
      "▁சமை": 6302,
      "▁பழனி": 6303,
      "▁கண்ணி": 6304,
      "▁பூஜை": 6305,
      "னாய்": 6306,
      "ிகளை": 6307,
      "▁கொங்கு": 6308,
      "ுவண்": 6309,
      "▁ஜு": 6310,
      "▁சோம": 6311,
      "வருடைய": 6312,
      "▁மாமல்ல": 6313,
      "CC": 6314,
      "ode": 6315,
      "▁இளவரச": 6316,
      "▁சுழல்": 6317,
      "▁கையை": 6318,
      "▁தற்ப": 6319,
      "▁கூட்டத்தில்": 6320,
      "ae": 6321,
      "▁பாலூ": 6322,
      "▁பெருமான்": 6323,
      "▁ஆன்மீ": 6324,
      "▁எதிர்மின்": 6325,
      "▁அருணா": 6326,
      "▁அடைந்தது": 6327,
      "்படுத்து": 6328,
      "▁பாஸ்": 6329,
      "▁நாகர்": 6330,
      "▁அழித்து": 6331,
      "ுமிடத்தில்": 6332,
      "ஸ்ரீ": 6333,
      "ியாகப்": 6334,
      "▁அமைத்த": 6335,
      "▁புரட்டாசி": 6336,
      "ெதிர": 6337,
      "▁பாகிஸ்": 6338,
      "▁தலைமையிலான": 6339,
      "ly": 6340,
      "வேலு": 6341,
      "▁ஸ்பெ": 6342,
      "▁அடர்த்த": 6343,
      "▁சாகி": 6344,
      "பான்மை": 6345,
      "▁பகிர்ந்து": 6346,
      "மூல": 6347,
      "▁ஹரி": 6348,
      "▁சூத்திர": 6349,
      "வதற்குப்": 6350,
      "▁சத்தம்": 6351,
      "ரக்": 6352,
      "▁மகனான": 6353,
      "▁கவுன்": 6354,
      "▁லட்சுமி": 6355,
      "▁மீள": 6356,
      "▁தேங்": 6357,
      "▁பரத": 6358,
      "▁மணந்து": 6359,
      "▁ஜெர்மனி": 6360,
      "▁தாழ்த்த": 6361,
      "ert": 6362,
      "▁நெருங்கி": 6363,
      "பத்": 6364,
      "ாரா": 6365,
      "ய்த்த": 6366,
      "▁பொருந்திய": 6367,
      "ank": 6368,
      "ice": 6369,
      "யுடு": 6370,
      "▁தொழில்நுட்பம்": 6371,
      "▁சியா": 6372,
      "▁கோளாறு": 6373,
      "பும்": 6374,
      "ர்களை": 6375,
      "றியது": 6376,
      "▁கதவு": 6377,
      "▁பெற்றுள்ளன": 6378,
      "றது": 6379,
      "▁அருவி": 6380,
      "▁உந்து": 6381,
      "▁வரதராஜ": 6382,
      "ஆவது": 6383,
      "▁உடல": 6384,
      "▁தூண்": 6385,
      "▁தொலைவு": 6386,
      "▁ஒற்றுமை": 6387,
      "▁பாலியல்": 6388,
      "▁அறம்": 6389,
      "▁கோபால": 6390,
      "▁காலமானார்": 6391,
      "ானை": 6392,
      "்டிடம்": 6393,
      "▁அழிவு": 6394,
      "சிவ": 6395,
      "▁மோசமான": 6396,
      "ண்ணன்": 6397,
      "▁ராவ்": 6398,
      "▁பிரசா": 6399,
      "▁ஹோட்ட": 6400,
      "▁நிபந்த": 6401,
      "▁நின்றது": 6402,
      "▁ஆனை": 6403,
      "▁எலக்ட்ரான்": 6404,
      "ைவு": 6405,
      "▁படித்": 6406,
      "▁சமன்பாடு": 6407,
      "lo": 6408,
      "▁பண்ணை": 6409,
      "▁சின": 6410,
      "▁மாட்ட": 6411,
      "▁விண்டோ": 6412,
      "▁மருத்துவமன": 6413,
      "▁உதயண": 6414,
      "▁காரணமா": 6415,
      "ங்களாகப்": 6416,
      "▁தொடரின்": 6417,
      "▁மாவட்டத்திலுள்ள": 6418,
      "யிற்": 6419,
      "▁வம்": 6420,
      "▁ஆஞ்ச": 6421,
      "▁விசே": 6422,
      "▁ஒலிபர": 6423,
      "▁லிங்க": 6424,
      "ழ்நாள்": 6425,
      "▁சுல்த": 6426,
      "▁முள்ள": 6427,
      "▁திட்டங்": 6428,
      "▁அஃ": 6429,
      "ிருந்தேன்": 6430,
      "கீழ்": 6431,
      "ைபெற": 6432,
      "▁புரிந்": 6433,
      "மில": 6434,
      "ீட்டின்": 6435,
      "▁துரியோதன": 6436,
      "▁பயின்று": 6437,
      "▁சத்து": 6438,
      "த்தினம்": 6439,
      "▁சபையில்": 6440,
      "▁சூழ்ந்து": 6441,
      "▁தலைவி": 6442,
      "▁விஞ்ஞானி": 6443,
      "மரி": 6444,
      "்சியா": 6445,
      "▁சஞ்ச": 6446,
      "▁தியான": 6447,
      "மியின்": 6448,
      "▁கதையை": 6449,
      "▁பொதுப்": 6450,
      "ரொ": 6451,
      "சென்": 6452,
      "▁பயிரிட": 6453,
      "▁அதிலிருந்து": 6454,
      "மத": 6455,
      "ோரை": 6456,
      "▁கேட்": 6457,
      "▁இத்தீ": 6458,
      "▁பாலம்": 6459,
      "▁உபயோக": 6460,
      "▁நெல்ல": 6461,
      "ங்கல": 6462,
      "சால்": 6463,
      "▁உலகத்": 6464,
      "ூற": 6465,
      "ெட்டி": 6466,
      "▁முதலீடு": 6467,
      "லீம்": 6468,
      "டங்களை": 6469,
      "▁புகைய": 6470,
      "ந்துள்ள": 6471,
      "பெற்றது": 6472,
      "செய": 6473,
      "ளியம்மன்": 6474,
      "▁கூடியது": 6475,
      "▁நிலையத்தில்": 6476,
      "தென": 6477,
      "▁Ar": 6478,
      "▁கெள": 6479,
      "பதற்காக": 6480,
      "▁சமூகம்": 6481,
      "▁கோயில்களில்": 6482,
      "யுறு": 6483,
      "▁பரவு": 6484,
      "▁பதினெட்ட": 6485,
      "ட்டிருந்தன": 6486,
      "▁எவ்வித": 6487,
      "▁யெல்லாம்": 6488,
      "▁மகர": 6489,
      "யராகப்": 6490,
      "▁பொருளு": 6491,
      "▁ஒட்டுமொத்த": 6492,
      "▁ஜோசப்": 6493,
      "ound": 6494,
      "நாளில்": 6495,
      "▁இளங்கு": 6496,
      "யிலுள்ள": 6497,
      "wik": 6498,
      "உலக": 6499,
      "ங்காத": 6500,
      "▁உத்தி": 6501,
      "▁தனித்துவ": 6502,
      "▁திட்டத்தை": 6503,
      "ச்சோ": 6504,
      "▁யாது": 6505,
      "ாயிரு": 6506,
      "▁ராம்": 6507,
      "▁மூலமும்": 6508,
      "ுரு": 6509,
      "▁சுதந்திரம்": 6510,
      "ாப்": 6511,
      "சிஸ்": 6512,
      "▁கண்டது": 6513,
      "▁தானும்": 6514,
      "புளோ": 6515,
      "முன்ன": 6516,
      "ari": 6517,
      "ிறதா": 6518,
      "ண்டல்": 6519,
      "ச்சாரி": 6520,
      "ியாகக்": 6521,
      "▁அவனைக்": 6522,
      "▁மகாபார": 6523,
      "சித்": 6524,
      "▁மன்னார்": 6525,
      "மைச்": 6526,
      "▁உடற்": 6527,
      "னக்": 6528,
      "▁தோராய": 6529,
      "▁தங்கம்": 6530,
      "▁மன்றம்": 6531,
      "லையை": 6532,
      "பெர்": 6533,
      "ுணர்வு": 6534,
      "▁முற்க": 6535,
      "▁தொடங்கினர்": 6536,
      "iss": 6537,
      "யாகப்": 6538,
      "▁இத்தல": 6539,
      "▁இதற்கான": 6540,
      "ஸன்": 6541,
      "▁தளம்": 6542,
      "▁மீறி": 6543,
      "▁இதழில்": 6544,
      "முரு": 6545,
      "▁தில": 6546,
      "▁சற்றே": 6547,
      "ளிர்": 6548,
      "▁இந்நிக": 6549,
      "▁சுட்டு": 6550,
      "யான்": 6551,
      "▁பனை": 6552,
      "▁அதிசய": 6553,
      "▁வேதனை": 6554,
      "▁நாகரிக": 6555,
      "▁பருவம்": 6556,
      "பாரி": 6557,
      "▁இட்ட": 6558,
      "▁சாமு": 6559,
      "▁தமிழ்க்": 6560,
      "▁இடத்திற்கு": 6561,
      "ரியாக": 6562,
      "▁கிழி": 6563,
      "▁எங்கு": 6564,
      "▁x": 6565,
      "▁ஏக": 6566,
      "▁கிரீ": 6567,
      "▁தோள்": 6568,
      "▁பொருள்படும்": 6569,
      "னரே": 6570,
      "ியாவு": 6571,
      "டத்திற்கு": 6572,
      "▁தாள": 6573,
      "▁இலகு": 6574,
      "▁கதாநாயக": 6575,
      "▁வேட்பாளராக": 6576,
      "்ஞ": 6577,
      "▁பாவி": 6578,
      "▁ஆன்மா": 6579,
      "ூடியதாக": 6580,
      "amb": 6581,
      "ட்ரிக்": 6582,
      "▁யுத்த": 6583,
      "லத்": 6584,
      "்டதாக": 6585,
      "▁ஜன்ன": 6586,
      "▁நிலையங்": 6587,
      "யண": 6588,
      "▁மயிலாடு": 6589,
      "மாறி": 6590,
      "▁தனிநபர்": 6591,
      "▁அண்ணன்": 6592,
      "▁வென்றது": 6593,
      "▁முன்னிலையில்": 6594,
      "ஹீ": 6595,
      "▁பாடகர்": 6596,
      "▁வகைகளில்": 6597,
      "ிரமா": 6598,
      "▁நெதர்": 6599,
      "▁குத்து": 6600,
      "▁முழுவது": 6601,
      "ாறு": 6602,
      "ுமே": 6603,
      "▁அமர்ந்த": 6604,
      "▁இடங்களிலும்": 6605,
      "▁CH": 6606,
      "தொடர்": 6607,
      "ங்குளம்": 6608,
      "கரம்": 6609,
      "▁படங்": 6610,
      "ழ்வின்": 6611,
      "▁ஸ்திர": 6612,
      "▁இயற்கையாக": 6613,
      "▁எல்லையில்": 6614,
      "கின": 6615,
      "▁இடங்களு": 6616,
      "▁இங்கிருந்து": 6617,
      "▁வீட்டிற்கு": 6618,
      "்வு": 6619,
      "▁பட்டின": 6620,
      "▁லட்சம்": 6621,
      "▁அமர்த்த": 6622,
      "▁நினைத்த": 6623,
      "▁குஞ்சு": 6624,
      "▁எண்ணிய": 6625,
      "▁ஆஸ்": 6626,
      "வப்": 6627,
      "சாரம்": 6628,
      "ழற்சி": 6629,
      "▁எதிரே": 6630,
      "▁உயர்வு": 6631,
      "களாகிய": 6632,
      "▁Tamil": 6633,
      "▁வசந்த": 6634,
      "▁பட்டியலிட": 6635,
      "▁பூத": 6636,
      "▁அதற்கான": 6637,
      "▁இராச்சியத்தின்": 6638,
      "▁பணியை": 6639,
      "▁புல்ல": 6640,
      "▁ஆவி": 6641,
      "▁அமைச்சர": 6642,
      "▁யோக": 6643,
      "▁குமு": 6644,
      "▁குடல்": 6645,
      "▁தாமே": 6646,
      "▁வஞ்ச": 6647,
      "▁யெ": 6648,
      "▁per": 6649,
      "▁சிகர": 6650,
      "ற்றிப்": 6651,
      "▁ஊடாக": 6652,
      "னாளில்": 6653,
      "▁ஜெர்மன்": 6654,
      "▁பொருட்களின்": 6655,
      "▁தார": 6656,
      "▁மைக்ரோசா": 6657,
      "சலே": 6658,
      "▁மால்": 6659,
      "பாடும்": 6660,
      "்றுமதி": 6661,
      "ர்களும்": 6662,
      "▁வல்லுநர்": 6663,
      "▁விளையாட்டுப்": 6664,
      "கரை": 6665,
      "னையே": 6666,
      "ிலிரு": 6667,
      "ோயிலின்": 6668,
      "▁வகையைச்": 6669,
      "வரால்": 6670,
      "▁திறனை": 6671,
      "பான்மையான": 6672,
      "▁நிகழ்ச்சியில்": 6673,
      "▁ஒர": 6674,
      "மரன்": 6675,
      "▁சிதைவு": 6676,
      "▁ஐந்தாவது": 6677,
      "ிட்டுள்ளார்": 6678,
      "▁பாடியுள்ளார்": 6679,
      "படம்": 6680,
      "▁சால்": 6681,
      "▁பங்குனி": 6682,
      "கண்ட": 6683,
      "பியர்": 6684,
      "▁அரசியலில்": 6685,
      "▁நாடி": 6686,
      "▁நொதி": 6687,
      "▁பாடினார்": 6688,
      "▁கொள்கிறார்": 6689,
      "▁தொடர்ச்சியான": 6690,
      "ொருட்": 6691,
      "▁நாளி": 6692,
      "▁ஆறாம்": 6693,
      "▁தீங்கு": 6694,
      "▁மனிதனின்": 6695,
      "▁உடற்ப": 6696,
      "▁சங்கிலி": 6697,
      "▁லியோ": 6698,
      "▁தொடங்கின": 6699,
      "?”\"": 6700,
      "வ்வு": 6701,
      "பேட்டை": 6702,
      "▁சுட்ட": 6703,
      "▁மருத்துவக்": 6704,
      "ழம்": 6705,
      "ேட்டு": 6706,
      "▁திணி": 6707,
      "▁கலிங்க": 6708,
      "▁சீனாவின்": 6709,
      "ann": 6710,
      "கிரா": 6711,
      "ைசியாக": 6712,
      "▁பயந்து": 6713,
      "▁சத்த": 6714,
      "▁சந்தோஷ": 6715,
      "▁கற்றார்": 6716,
      "▁பயன்பாட்டில்": 6717,
      "மகா": 6718,
      "▁டான்": 6719,
      "▁கூறுகின்றன": 6720,
      "▁சுற்றிலும்": 6721,
      "டமும்": 6722,
      "ுள்ளி": 6723,
      "ல்டு": 6724,
      "▁பதிய": 6725,
      "▁காலமாக": 6726,
      "▁தேசியக்": 6727,
      "eth": 6728,
      "்படுத்தி": 6729,
      "தாரி": 6730,
      "▁மெகா": 6731,
      "ear": 6732,
      "▁பெருமா": 6733,
      "ark": 6734,
      "ளோடு": 6735,
      "▁புணர்": 6736,
      "▁சும்மா": 6737,
      "▁பணத்தை": 6738,
      "▁திருமலை": 6739,
      "▁வித்தியாச": 6740,
      "ோடி": 6741,
      "▁ரூபா": 6742,
      "▁அவருடன்": 6743,
      "▁காதில்": 6744,
      "▁நாடகங்": 6745,
      "களிலேயே": 6746,
      "▁ஆரணி": 6747,
      "▁சமஸ்க": 6748,
      "umb": 6749,
      "▁மூடிய": 6750,
      "▁ஆற்றில்": 6751,
      "ack": 6752,
      "கையாக": 6753,
      "ுடனும்": 6754,
      "ளன்": 6755,
      "மனித": 6756,
      "ிர்த": 6757,
      "▁கர்த": 6758,
      "▁நலன்": 6759,
      "▁செம்ம": 6760,
      "▁மைதான": 6761,
      "பதிய": 6762,
      "ியச்": 6763,
      "▁உறுதியாக": 6764,
      "ோடும்": 6765,
      "▁சுடு": 6766,
      "ex": 6767,
      "▁மிதி": 6768,
      "ற்காடு": 6769,
      "லாளரும்": 6770,
      "▁நாயுடு": 6771,
      "வில்லையா": 6772,
      "▁தொண்டர்": 6773,
      "▁நிலைகளில்": 6774,
      "ரித்த": 6775,
      "▁இடத்து": 6776,
      "▁வீழ்ச்சி": 6777,
      "▁நாடுகளிலும்": 6778,
      "▁நாத": 6779,
      "பள்ளி": 6780,
      "ருமான": 6781,
      "▁சாஸ்திரி": 6782,
      "சுந்த": 6783,
      "▁பிரதேசத்தில்": 6784,
      "நாயகி": 6785,
      "ள்ளியில்": 6786,
      "▁அளித்தது": 6787,
      "▁வேகத்தில்": 6788,
      "ology": 6789,
      "▁செறி": 6790,
      "▁விதத்தில்": 6791,
      "மஸ்": 6792,
      "ளமான": 6793,
      "tern": 6794,
      "னிலை": 6795,
      "▁கரையோ": 6796,
      "▁இங்ஙனம்": 6797,
      "▁காலி": 6798,
      "▁அலக": 6799,
      "▁குளு": 6800,
      "▁நெட்": 6801,
      "▁ரிச்ச": 6802,
      "▁சந்தேகம்": 6803,
      "▁An": 6804,
      "▁மணல்": 6805,
      "▁மனதில்": 6806,
      "▁பக்": 6807,
      "omain": 6808,
      "ெற்றது": 6809,
      "▁வடிவங்": 6810,
      "னியர்": 6811,
      "▁புண்": 6812,
      "ந்தூர்": 6813,
      "▁முகமது": 6814,
      "▁நிர்ணயி": 6815,
      "▁திருமால்": 6816,
      "யேறு": 6817,
      "ாங்க": 6818,
      "▁புன்": 6819,
      "▁காலத்தை": 6820,
      "பத்தை": 6821,
      "ூச்சி": 6822,
      "ச்சொ": 6823,
      "▁கருணை": 6824,
      "▁விண்க": 6825,
      "oun": 6826,
      "த்திட": 6827,
      "வனைப்": 6828,
      "▁தனியே": 6829,
      "▁பட்டி": 6830,
      "▁மயில்": 6831,
      "மால்": 6832,
      "ஸ்டி": 6833,
      "▁செல்வது": 6834,
      "நாராய": 6835,
      "▁கேடு": 6836,
      "▁மாதா": 6837,
      "னாய்வு": 6838,
      "ுந்தது": 6839,
      "▁காலநிலை": 6840,
      "▁மாற்றியமை": 6841,
      "சிறந்த": 6842,
      "▁இன்றை": 6843,
      "▁மானிட": 6844,
      "▁அரசால்": 6845,
      "த்திலிருந்த": 6846,
      "ிரவு": 6847,
      "▁உயர்நிலை": 6848,
      "▁வேண்டியிரு": 6849,
      "▁பணிகளை": 6850,
      "▁திருவு": 6851,
      "▁ரசிகர்": 6852,
      "▁அருகா": 6853,
      "▁சூழ்ந்த": 6854,
      "▁இட்": 6855,
      "ினதும்": 6856,
      "ொண்டது": 6857,
      "பான்மைய": 6858,
      "ந்துறை": 6859,
      "▁குழந்தையின்": 6860,
      "ளமும்": 6861,
      "▁அபாய": 6862,
      "▁இராமாய": 6863,
      "▁யாராவது": 6864,
      "▁இன்னமும்": 6865,
      "▁எழ": 6866,
      "▁பேய்": 6867,
      "கோட்டை": 6868,
      "▁வேற்று": 6869,
      "▁தளத்தில்": 6870,
      "▁வெற்றிகரமாக": 6871,
      "▁வடு": 6872,
      "சிங்": 6873,
      "ர்வே": 6874,
      "லகிரி": 6875,
      "▁பாகி": 6876,
      "▁விலக": 6877,
      "▁சான்றி": 6878,
      "▁முழுமை": 6879,
      "▁எல்லாவற்றை": 6880,
      "▁சன்னதிகளும்": 6881,
      "ரமை": 6882,
      "ஸ்வரி": 6883,
      "▁இட்டு": 6884,
      "▁மேலான": 6885,
      "▁பழங்கு": 6886,
      "▁சித்தாந்த": 6887,
      "படை": 6888,
      "ினரின்": 6889,
      "▁அவனைத்": 6890,
      "▁மலையின்": 6891,
      "▁மாத்திரம்": 6892,
      "ace": 6893,
      "னராக": 6894,
      "▁சிற்று": 6895,
      "வற்றிலும்": 6896,
      "கைப்": 6897,
      "முறு": 6898,
      "▁தாரா": 6899,
      "▁சந்தித்து": 6900,
      "ிரும்": 6901,
      "னத்தில்": 6902,
      "▁வழிபட்ட": 6903,
      "▁காற்றில்": 6904,
      "ரிஸ்": 6905,
      "அதாவது": 6906,
      "ிருத்தல்": 6907,
      "நை": 6908,
      "மில்லாமல்": 6909,
      "▁நின்றார்": 6910,
      "▁பணிபுரிந்": 6911,
      "ern": 6912,
      "ஜின்": 6913,
      "▁கோபி": 6914,
      "▁பாகை": 6915,
      "களுடனும்": 6916,
      "பதாம்": 6917,
      "▁பரபர": 6918,
      "▁பித்த": 6919,
      "▁மீத": 6920,
      "▁ரீதியான": 6921,
      "▁பொருளில்": 6922,
      "▁இங்கிலாந்தில்": 6923,
      "பகோணம்": 6924,
      "▁பாடுப": 6925,
      "▁பாலைவன": 6926,
      "களெல்லாம்": 6927,
      "▁வடமேற்கு": 6928,
      "லுங்": 6929,
      "▁எர்": 6930,
      "அமெரி": 6931,
      "வத்": 6932,
      "மெய்": 6933,
      "ுத்தர": 6934,
      "▁காட்": 6935,
      "ங்கார்": 6936,
      "்டிடங்": 6937,
      "▁பயன்பாட்ட": 6938,
      "ong": 6939,
      "▁லாக": 6940,
      "ில்லாத": 6941,
      "ாயா": 6942,
      "▁பதினெட்டாம்": 6943,
      "ாலயம்": 6944,
      "ச்சின்": 6945,
      "ூட்டு": 6946,
      "▁ஒலிய": 6947,
      "▁மீள்": 6948,
      "ியானது": 6949,
      "▁பொருந்த": 6950,
      "▁தலங்களில்": 6951,
      "ுறை": 6952,
      "ல்வி": 6953,
      "ர்தல்": 6954,
      "▁அஃது": 6955,
      "▁சதவீத": 6956,
      "▁ஸ்டார்": 6957,
      "வரது": 6958,
      "▁திடு": 6959,
      "▁சங்கு": 6960,
      "▁பயனுள்ள": 6961,
      "ூடாக": 6962,
      "▁ஞானம்": 6963,
      "விலங்கு": 6964,
      "▁தோறும்": 6965,
      "ங்கிணைந்த": 6966,
      "தாயம்": 6967,
      "▁முதலாளி": 6968,
      "▁உகந்த": 6969,
      "▁ஒற்று": 6970,
      "▁வரவேற்ப": 6971,
      "▁ரத்த": 6972,
      "ல்லாது": 6973,
      "▁முதிய": 6974,
      "▁விசைய": 6975,
      "▁தம்முடைய": 6976,
      "த்துள்ளனர்": 6977,
      "▁பளி": 6978,
      "ource": 6979,
      "▁சர்ச்சை": 6980,
      "▁வட்டத்தின்": 6981,
      "ஜன": 6982,
      "மனம்": 6983,
      "லியை": 6984,
      "ானோ": 6985,
      "ஃப்ட்": 6986,
      "ினில்": 6987,
      "▁வணிகம்": 6988,
      "டியானால்": 6989,
      "▁முன்னோர்": 6990,
      "omp": 6991,
      "▁நாயக": 6992,
      "ன்பட்டி": 6993,
      "▁தென்மேற்கு": 6994,
      "ய்ச்ச": 6995,
      "▁மேற்குப்": 6996,
      "த்ரி": 6997,
      "ூறிய": 6998,
      "▁மெக்": 6999,
      "▁பவுல்": 7000,
      "▁நானே": 7001,
      "ூராட்சி": 7002,
      "▁விக்டோ": 7003,
      "மோன்": 7004,
      "▁இலி": 7005,
      "லாந்தின்": 7006,
      "▁மரபுவழி": 7007,
      "▁வருவதற்கு": 7008,
      "▁தற்காலத்தில்": 7009,
      "ளவோ": 7010,
      "▁மிள": 7011,
      "▁பொதி": 7012,
      "▁மத்தியப்": 7013,
      "▁அமீ": 7014,
      "ானில்": 7015,
      "்டின்": 7016,
      "ச்சார்": 7017,
      "▁நேரில்": 7018,
      "ோஸ்": 7019,
      "NA": 7020,
      "ட்தொ": 7021,
      "ஸ்கி": 7022,
      "▁வழிப": 7023,
      "▁மாந்த": 7024,
      "▁கோவிலு": 7025,
      "▁தத்த": 7026,
      "▁தாலு": 7027,
      "வற்றிற்கு": 7028,
      "reat": 7029,
      "▁மார்கழி": 7030,
      "▁காலத்திலும்": 7031,
      "யோடு": 7032,
      "▁துடை": 7033,
      "▁அங்கிருந்த": 7034,
      "▁அவரே": 7035,
      "▁ஆண்களு": 7036,
      "ிரல்": 7037,
      "▁துரி": 7038,
      "▁பெறுகின்றன": 7039,
      "▁உயிரிழ": 7040,
      "▁புறநான": 7041,
      "▁புடை": 7042,
      "▁குண்ட": 7043,
      "▁தமிழை": 7044,
      "▁நந்தினி": 7045,
      "▁பழுவேட்டரையர்": 7046,
      "மரம்": 7047,
      "▁வழித்த": 7048,
      "▁சங்கத்தின்": 7049,
      "▁மருத": 7050,
      "▁வெள்ளம்": 7051,
      "னரும்": 7052,
      "▁கருதிய": 7053,
      "▁கோபால்": 7054,
      "▁தொலைநோ": 7055,
      "▁வீழ்ச்ச": 7056,
      "ld": 7057,
      "ைகளும்": 7058,
      "▁பையன்": 7059,
      "▁ஓரி": 7060,
      "ுமலர்": 7061,
      "ய்யர்": 7062,
      "▁எஞ்சிய": 7063,
      "▁விவசாயம்": 7064,
      "▁இம்மாவட்டம்": 7065,
      "சோழ": 7066,
      "ம்மு": 7067,
      "கரமான": 7068,
      "மன்றி": 7069,
      "▁இறைவனை": 7070,
      "▁கர்நாட": 7071,
      "▁இயல்பாக": 7072,
      "cl": 7073,
      "ோன": 7074,
      "▁நிலா": 7075,
      "▁பயிற்று": 7076,
      "▁அத்தியாயம்": 7077,
      "ey": 7078,
      "ite": 7079,
      "ராடி": 7080,
      "யத்தின்": 7081,
      "▁கற்றல்": 7082,
      "ூரை": 7083,
      "▁up": 7084,
      "டித்த": 7085,
      "▁செரி": 7086,
      "▁இத்தா": 7087,
      "▁பிரார்த்த": 7088,
      "சைப்": 7089,
      "்டளைய": 7090,
      "▁மார்க்": 7091,
      "▁மையத்தில்": 7092,
      "திப்": 7093,
      "யெ": 7094,
      "▁with": 7095,
      "▁ஆதித்த": 7096,
      "▁கண்ணா": 7097,
      "ையிலுள்ள": 7098,
      "புறமும்": 7099,
      "In": 7100,
      "▁எகிப்து": 7101,
      "தென்": 7102,
      "▁கீழ்க": 7103,
      "▁தூய்மை": 7104,
      "▁இரத்தின": 7105,
      "▁பெய்": 7106,
      "▁குணம்": 7107,
      "வுக்": 7108,
      "▁பகா": 7109,
      "▁சிறந்து": 7110,
      "▁மாநிலங்களில்": 7111,
      "▁குளிர": 7112,
      "▁பெயரு": 7113,
      "ராட்டிர": 7114,
      "▁பன்னிரண்டு": 7115,
      "▁மஹ": 7116,
      "▁வருடங்களு": 7117,
      "▁பயன்படுத்திக்": 7118,
      "ர்ப்": 7119,
      "சாம": 7120,
      "டைந்": 7121,
      "▁சகல": 7122,
      "▁துயர": 7123,
      "ண்டார்": 7124,
      "ாட்சித்": 7125,
      "ாட்டின்": 7126,
      "கெலு": 7127,
      "த்தடி": 7128,
      "▁சேரு": 7129,
      "வற": 7130,
      "▁திரிபு": 7131,
      "▁அமைகின்றன": 7132,
      "மலே": 7133,
      "▁லக்": 7134,
      "▁முந்திய": 7135,
      "CO": 7136,
      "பஞ்ச": 7137,
      "▁முன்னோடி": 7138,
      "▁தவி": 7139,
      "ட்டிற்": 7140,
      "▁வறுமை": 7141,
      "▁ஆஸ்திரேலிய": 7142,
      "ual": 7143,
      "▁பெள": 7144,
      "▁இசுலா": 7145,
      "▁வருந்த": 7146,
      "▁ஆண்களின்": 7147,
      "▁முற்பட்ட": 7148,
      "ன்றே": 7149,
      "▁ஆய்வில்": 7150,
      "▁அந": 7151,
      "ட்டைக்": 7152,
      "ெற": 7153,
      "▁சமசு": 7154,
      "▁பொங்": 7155,
      "ச்சிக்": 7156,
      "▁ஆணையம்": 7157,
      "rap": 7158,
      "தீன்": 7159,
      "▁மீன": 7160,
      "இல்லை": 7161,
      "▁முன்னேற்றக்": 7162,
      "விற": 7163,
      "புரோ": 7164,
      "களாம்": 7165,
      "ூர்வமாக": 7166,
      "▁பன்னிர": 7167,
      "▁ஸ்திரீ": 7168,
      "ாி": 7169,
      "ீனா": 7170,
      "▁அனி": 7171,
      "▁வயதான": 7172,
      "▁பொருளாதாரம்": 7173,
      "▁பதினான்": 7174,
      "▁தத்துவம்": 7175,
      "ஐயா": 7176,
      "▁பரா": 7177,
      "ரிடமிருந்து": 7178,
      "▁பாதா": 7179,
      "▁ஆஞ்சநே": 7180,
      "▁முயன்று": 7181,
      "▁கொரியா": 7182,
      "ட்ஜ": 7183,
      "பைடு": 7184,
      "ிடலாம்": 7185,
      "▁பாஸ்க": 7186,
      "மத்தில்": 7187,
      "▁மின்னோ": 7188,
      "▁கஜ": 7189,
      "ஷ்டி": 7190,
      "ந்திரி": 7191,
      "ியத்தை": 7192,
      "▁கன்னட": 7193,
      "படியால்": 7194,
      "▁கொல்லி": 7195,
      "▁மாதங்களில்": 7196,
      "ோய்": 7197,
      "கங்களை": 7198,
      "ங்கித்": 7199,
      "▁காவல்துறை": 7200,
      "▁தற்பொழுது": 7201,
      "ீழ": 7202,
      "▁கொசு": 7203,
      "குமார்": 7204,
      "▁தோன்றின": 7205,
      "▁அனைத்துப்": 7206,
      "▁பொருத்தமான": 7207,
      "னுள்": 7208,
      "ைகளு": 7209,
      "▁டால்": 7210,
      "ித்தல்": 7211,
      "▁இதயம்": 7212,
      "▁மண்டபத்தில்": 7213,
      "ஸு": 7214,
      "த்தீவு": 7215,
      "▁பெட்ரோ": 7216,
      "ணர": 7217,
      "னமா": 7218,
      "ியிலும்": 7219,
      "▁கண்ணகி": 7220,
      "▁அறையில்": 7221,
      "▁நிபுணர்": 7222,
      "▁நாகரிகம்": 7223,
      "களையெல்லாம்": 7224,
      "pt": 7225,
      "ற்றொ": 7226,
      "▁காளை": 7227,
      "▁ஆளுநர்": 7228,
      "டைப்": 7229,
      "▁பெண்ணு": 7230,
      "▁உச்": 7231,
      "மடைந்து": 7232,
      "▁இடத்தைப்": 7233,
      "ொன்": 7234,
      "▁சிக்": 7235,
      "▁இறங்க": 7236,
      "மையாகக்": 7237,
      "▁சொன்னாள்": 7238,
      "▁இரண்டை": 7239,
      "ழ்ந்தனர்": 7240,
      "ுலி": 7241,
      "்சின்": 7242,
      "▁முடு": 7243,
      "▁ஆபிரி": 7244,
      "▁சொற்களை": 7245,
      "▁மட்டுமல்ல": 7246,
      "ook": 7247,
      "▁தந்": 7248,
      "ியதாக": 7249,
      "▁செம்": 7250,
      "▁நல்லா": 7251,
      "த்துள்ள": 7252,
      "▁செறிவு": 7253,
      "▁எவ்வளவோ": 7254,
      "▁தலைமையிட": 7255,
      "▁அமினோ": 7256,
      "▁வீற்ற": 7257,
      "ச்சந்திரன்": 7258,
      "▁பூங்குழலி": 7259,
      "ord": 7260,
      "கணை": 7261,
      "▁எல்லாப்": 7262,
      "▁துணையாக": 7263,
      "ont": 7264,
      "▁பாடம்": 7265,
      "▁பிரசி": 7266,
      "▁பிச்சை": 7267,
      "▁ஈடுபட்டார்": 7268,
      "கோல்": 7269,
      "ட்ஜ்": 7270,
      "▁மேலு": 7271,
      "▁யான்": 7272,
      "▁தமிழு": 7273,
      "▁அட்டவண": 7274,
      "▁சிற்பங்": 7275,
      "▁தங்களின்": 7276,
      "ாய்க": 7277,
      "ுநிலை": 7278,
      "ommons": 7279,
      "படியாக": 7280,
      "▁இறுதிப்": 7281,
      "னார": 7282,
      "▁சமையல்": 7283,
      "▁சுண்ணா": 7284,
      "▁ஜனங்": 7285,
      "▁சிறிதும்": 7286,
      "▁சுழற்சிய": 7287,
      "▁அந்ந": 7288,
      "ோருடன்": 7289,
      "▁கூடுதலான": 7290,
      "▁மணிமேகலை": 7291,
      "ிகார": 7292,
      "வதோடு": 7293,
      "▁பியூ": 7294,
      "சார்ந்த": 7295,
      "▁அவி": 7296,
      "சக்": 7297,
      "மத்தை": 7298,
      "▁அயல்": 7299,
      "▁லண்டன்": 7300,
      "தற்குப்": 7301,
      "▁எண்ணற்ற": 7302,
      "▁Vol": 7303,
      "▁வகையா": 7304,
      "ாத்": 7305,
      "▁வேட": 7306,
      "ெட்டு": 7307,
      "▁பூரண": 7308,
      "▁புகழை": 7309,
      "ஸ்டோ": 7310,
      "▁மார": 7311,
      "▁முசு": 7312,
      "மையைத்": 7313,
      "▁இத்தாலி": 7314,
      "▁மாறுதல்": 7315,
      "▁அல்லாமல்": 7316,
      "▁ராமநாதபுரம்": 7317,
      "▁டூ": 7318,
      "▁அதிபர்": 7319,
      "▁பாரதிய": 7320,
      "▁பொம்மை": 7321,
      "▁மொழியா": 7322,
      "வற்றுடன்": 7323,
      "▁சந்நிதி": 7324,
      "▁பசிபிக்": 7325,
      "▁காந்தியடி": 7326,
      "தோர்": 7327,
      "▁உடல்நல": 7328,
      "▁st": 7329,
      "யேறி": 7330,
      "▁சாம்ராஜ்": 7331,
      "▁ஊட": 7332,
      "்ந்த": 7333,
      "▁எடுத்துரை": 7334,
      "▁விமர்சகர்": 7335,
      "▁வெல்": 7336,
      "▁நெற": 7337,
      "சமயம்": 7338,
      "▁அதிர": 7339,
      "▁உருளை": 7340,
      "ளிலிருந்து": 7341,
      "ics": 7342,
      "ாடும்": 7343,
      "▁தாத்தா": 7344,
      "துரு": 7345,
      "ோணத்தின்": 7346,
      "▁வீண": 7347,
      "ினைத்": 7348,
      "▁மில்லிய": 7349,
      "வத்தை": 7350,
      "▁உயர்நிலைப்": 7351,
      "ாா்": 7352,
      "▁ac": 7353,
      "▁மாடி": 7354,
      "▁மேற்படி": 7355,
      "▁ஒன்றியத்தின்": 7356,
      "▁விளையாடினார்": 7357,
      "டமான": 7358,
      "▁கொள்கையை": 7359,
      "த்திற்குக்": 7360,
      "▁மதுரையில்": 7361,
      "▁சீத": 7362,
      "▁மோர்": 7363,
      "▁மோதல்": 7364,
      "▁எண்ணிப்": 7365,
      "மப்": 7366,
      "ஸ்க்": 7367,
      "▁நேர்ம": 7368,
      "▁ஒத்துழை": 7369,
      "வனா": 7370,
      "▁தட்ப": 7371,
      "▁ஸ்டு": 7372,
      "▁அஞ்சி": 7373,
      "ற்றியது": 7374,
      "▁படைத்தலை": 7375,
      "ுமை": 7376,
      "▁ex": 7377,
      "▁விசய": 7378,
      "▁சித்தர்": 7379,
      "மைடு": 7380,
      "ெனவே": 7381,
      "▁தழுவி": 7382,
      "▁நிழல்": 7383,
      "ண்டனில்": 7384,
      "▁பாட்டி": 7385,
      "▁வேண்டுமானால்": 7386,
      "▁மெர்": 7387,
      "துள்ளார்": 7388,
      "▁தொடர்ந்த": 7389,
      "தாபி": 7390,
      "▁ஹார": 7391,
      "பத்திர": 7392,
      "ிட்டுப்": 7393,
      "▁தோன்றினார்": 7394,
      "▁சூறா": 7395,
      "்படலாம்": 7396,
      "▁அளவீடு": 7397,
      "▁சமர்": 7398,
      "▁பெயரா": 7399,
      "ட்சியாக": 7400,
      "தத்தின்": 7401,
      "ாணத்தில்": 7402,
      "வலம்": 7403,
      "வனந்த": 7404,
      "ஜென்": 7405,
      "▁நபி": 7406,
      "▁பிரிய": 7407,
      "▁ஆக்சிசன்": 7408,
      "திக": 7409,
      "்கறி": 7410,
      "ியோடு": 7411,
      "▁கூழ்": 7412,
      "▁விசி": 7413,
      "▁பாரசீக": 7414,
      "▁ஹொங்கொ": 7415,
      "▁மயிலாடுதுறை": 7416,
      "ேட்": 7417,
      "▁ஐதரா": 7418,
      "ரானார்": 7419,
      "▁சாட்ட": 7420,
      "▁ரெட்டி": 7421,
      "ult": 7422,
      "▁சய": 7423,
      "▁ஹூ": 7424,
      "▁சாம": 7425,
      "ல்லூரி": 7426,
      "▁கண்களில்": 7427,
      "ணங்": 7428,
      "▁அகன்ற": 7429,
      "▁முகா": 7430,
      "▁ஹில்": 7431,
      "ge": 7432,
      "க்சை": 7433,
      "▁உலை": 7434,
      "▁சுக": 7435,
      "லியூர்": 7436,
      "விளையா": 7437,
      "▁பொற்க": 7438,
      "▁ஹென்றி": 7439,
      "▁பேசினார்": 7440,
      "▁பழங்குடிய": 7441,
      "▁பிரித்தானியர்": 7442,
      "▁நிறுத்து": 7443,
      "லையின்": 7444,
      "▁புலமை": 7445,
      "▁விளையாடி": 7446,
      "கோபால": 7447,
      "▁விவே": 7448,
      "▁தொட்டு": 7449,
      "▁நேர்ந்தது": 7450,
      "▁அரண்மனையில்": 7451,
      "▁கோட": 7452,
      "கர்த்தா": 7453,
      "▁கோவிந்த": 7454,
      "ைமாவட்ட": 7455,
      "▁காரணங்": 7456,
      "▁படத்தை": 7457,
      "▁தினமும்": 7458,
      "▁ஜெர்மானிய": 7459,
      "றிஞ": 7460,
      "ேஷ்": 7461,
      "▁ஓசை": 7462,
      "லியம்": 7463,
      "▁பட்ச": 7464,
      "▁ராய்": 7465,
      "▁சங்கர": 7466,
      "▁முதுகெலு": 7467,
      "குறை": 7468,
      "்டற்ற": 7469,
      "▁முற்": 7470,
      "▁ஐந்தா": 7471,
      "▁விருத": 7472,
      "்டில்": 7473,
      "▁பரந்து": 7474,
      "டமிருந்து": 7475,
      "▁சென்றால்": 7476,
      "ail": 7477,
      "த்தைய": 7478,
      "▁காரி": 7479,
      "▁மாயா": 7480,
      "▁எல்லோரு": 7481,
      "▁மஹா": 7482,
      "▁சிட்": 7483,
      "▁இலட்ச": 7484,
      "▁பாசி": 7485,
      "டைந்தது": 7486,
      "▁சூழ்ச்சி": 7487,
      "▁நிகழ்ந்தது": 7488,
      "▁நாடாக": 7489,
      "▁ரகசிய": 7490,
      "▁பதினாற": 7491,
      "▁எச்ச": 7492,
      "த்துணை": 7493,
      "யினும்": 7494,
      "ie": 7495,
      "▁கத்த": 7496,
      "▁முறு": 7497,
      "▁பழமை": 7498,
      "களாகவே": 7499,
      "ஃபெ": 7500,
      "ாரு": 7501,
      "▁பைய": 7502,
      "▁ஒட்டிய": 7503,
      "▁எடைய": 7504,
      "▁ஆளும்": 7505,
      "▁தந்தது": 7506,
      "ோள": 7507,
      "▁சிறீ": 7508,
      "▁நுணு": 7509,
      "▁மூர்": 7510,
      "வராகப்": 7511,
      "மலைய": 7512,
      "▁தழை": 7513,
      "ண்டிக்": 7514,
      "▁ஆகஸ்டு": 7515,
      "▁மின்சாரம்": 7516,
      "▁காலத்திலேயே": 7517,
      "▁யுரே": 7518,
      "▁அவரால்": 7519,
      "▁இம்மொழி": 7520,
      "▁அலுமினியம்": 7521,
      "வடு": 7522,
      "▁கிருட்டி": 7523,
      "▁பிரித்தெடு": 7524,
      "▁திருச்சபையின்": 7525,
      "ோர": 7526,
      "கொடு": 7527,
      "மோர்": 7528,
      "▁புரூ": 7529,
      "▁வித்து": 7530,
      "ுங்க": 7531,
      "▁ஓலை": 7532,
      "▁பொதுக்": 7533,
      "▁வேண்டுகோ": 7534,
      "▁செந்": 7535,
      "த்திப்": 7536,
      "▁பொதுச்": 7537,
      "▁நோய்த்த": 7538,
      "லிகை": 7539,
      "▁அமோ": 7540,
      "▁குத்த": 7541,
      "▁தொட்ட": 7542,
      "▁நூலாக": 7543,
      "▁நிபந்தனை": 7544,
      "ress": 7545,
      "ருதி": 7546,
      "▁கூலி": 7547,
      "▁சாந்த": 7548,
      "▁சீரமை": 7549,
      "▁விண்டோஸ்": 7550,
      "▁செயலாளராக": 7551,
      "▁சூட": 7552,
      "▁மாற்றாக": 7553,
      "▁pro": 7554,
      "▁ஏழாம்": 7555,
      "▁சண்டி": 7556,
      "▁கரிகாலன்": 7557,
      "▁பாராட்டி": 7558,
      "▁மலையாளம்": 7559,
      "தின": 7560,
      "ரணி": 7561,
      "▁கபில": 7562,
      "டாகிறது": 7563,
      "றையை": 7564,
      "ுற்று": 7565,
      "▁கங்கா": 7566,
      "கத": 7567,
      "ett": 7568,
      "லிஸ்": 7569,
      "▁பூமியில்": 7570,
      "▁நிறுவனத்தை": 7571,
      "!”\"": 7572,
      "்றா": 7573,
      "▁சிம்ம": 7574,
      "▁இரசாயன": 7575,
      "▁மாதங்களு": 7576,
      "adi": 7577,
      "சரா": 7578,
      "ருகே": 7579,
      "▁நெச": 7580,
      "▁எழுச்சி": 7581,
      "மனு": 7582,
      "ய்த்து": 7583,
      "டுகிறான்": 7584,
      "▁கிளர்ச்சி": 7585,
      "இவ்": 7586,
      "ூடு": 7587,
      "சியர்": 7588,
      "ிழமையில்": 7589,
      "AT": 7590,
      "az": 7591,
      "▁புழ": 7592,
      "▁வசன": 7593,
      "புரிய": 7594,
      "ுகின்றது": 7595,
      "▁சந்திரன்": 7596,
      "ளித்": 7597,
      "▁எஞ்ச": 7598,
      "▁பாஸ்ட": 7599,
      "▁இம்மின்ன": 7600,
      "ொண்டிருந்த": 7601,
      "▁பாடல்களில்": 7602,
      "▁பிரதிநிதித்துவ": 7603,
      "ரங்கம்": 7604,
      "▁வெட்க": 7605,
      "▁அறுவடை": 7606,
      "▁பட்டமும்": 7607,
      "▁தலைமையகம்": 7608,
      "▁காத்து": 7609,
      "▁தேர்ச்சி": 7610,
      "▁நின்றான்": 7611,
      "இள": 7612,
      "▁ஒவ்வொன்றும்": 7613,
      "யிருந்த": 7614,
      "▁பாடும்": 7615,
      "ஜோ": 7616,
      "பாடி": 7617,
      "▁ஆழமான": 7618,
      "▁மார்பு": 7619,
      "▁எதிர்பாராத": 7620,
      "வங்": 7621,
      "▁டிரா": 7622,
      "▁மாண்ட": 7623,
      "▁கையால்": 7624,
      "▁al": 7625,
      "ராகிய": 7626,
      "ிலில்": 7627,
      "▁பேட்": 7628,
      "▁விசுவ": 7629,
      "▁வளைகுடா": 7630,
      "▁திருப்தி": 7631,
      "▁தெருவில்": 7632,
      "▁மேற்கோள்": 7633,
      "▁அமைந்திருந்தது": 7634,
      "ிழார்": 7635,
      "▁ஐதரோ": 7636,
      "விருத்தி": 7637,
      "▁தயாரித்து": 7638,
      "▁குறியீட்டு": 7639,
      "எச்": 7640,
      "யரும்": 7641,
      "▁அரசை": 7642,
      "ேற்றார்": 7643,
      "▁மூட்டு": 7644,
      "தமிழ்நாடு": 7645,
      "▁உயிரினங்": 7646,
      "வனான": 7647,
      "▁பஸ்": 7648,
      "▁படலம்": 7649,
      "▁இசைத்தொகு": 7650,
      "▁தொடர்ச்சி": 7651,
      "akk": 7652,
      "ைமுக": 7653,
      "▁விக்": 7654,
      "▁ஆதலின்": 7655,
      "▁தமிழகம்": 7656,
      "▁சந்தையில்": 7657,
      "▁கண்டறிந்து": 7658,
      "ச்சாலை": 7659,
      "ியலின்": 7660,
      "▁புனே": 7661,
      "▁பாய்க": 7662,
      "▁பயின்ற": 7663,
      "▁நினைத்துக்": 7664,
      "தேவன்": 7665,
      "▁குலை": 7666,
      "ள்ளேயே": 7667,
      "லியோ": 7668,
      "வுளு": 7669,
      "▁யில்": 7670,
      "ட்டாள்": 7671,
      "▁விஸ்வ": 7672,
      "▁மாற்றிக்": 7673,
      "▁மருத்துவமனையில்": 7674,
      "லாந்தில்": 7675,
      "▁Al": 7676,
      "▁யுனை": 7677,
      "ியங்களில்": 7678,
      "▁திருவனந்த": 7679,
      "▁விக்டோரியா": 7680,
      "த்க": 7681,
      "ழாய்": 7682,
      "▁ஆயர்": 7683,
      "▁வலம்": 7684,
      "▁அஞ்சு": 7685,
      "▁பன்றி": 7686,
      "▁துவங்க": 7687,
      "▁விளங்கி": 7688,
      "▁கிறிஸ்தவ": 7689,
      "▁பெருங்கு": 7690,
      "▁நிகழ்ச்சிகளை": 7691,
      "தய": 7692,
      "சிறி": 7693,
      "▁தீர": 7694,
      "ருகில்": 7695,
      "▁அலுவல்": 7696,
      "▁கணேசன்": 7697,
      "▁தொல்லை": 7698,
      "பெரிய": 7699,
      "ள்ளும்": 7700,
      "▁நிராக": 7701,
      "ிட்டுக்": 7702,
      "ியுள்ளனர்": 7703,
      "▁ஷே": 7704,
      "டார்": 7705,
      "▁கிண்ண": 7706,
      "▁புற்றுநோ": 7707,
      "▁கால்சியம்": 7708,
      "பாணி": 7709,
      "லூரிய": 7710,
      "நிலைக்": 7711,
      "ுகளைப்": 7712,
      "ாவிலும்": 7713,
      "▁இதனுடைய": 7714,
      "குண்ட": 7715,
      "த்தனை": 7716,
      "▁கர்தினால்": 7717,
      "▁மலி": 7718,
      "த்தப்": 7719,
      "▁வேங்": 7720,
      "▁வளைவு": 7721,
      "▁அதனைத்": 7722,
      "ட்பு": 7723,
      "ட்டளை": 7724,
      "வதற்குத்": 7725,
      "▁புகழ்ந்து": 7726,
      "▁நாடாளுமன்றத்": 7727,
      "oth": 7728,
      "▁Sh": 7729,
      "▁இவ்வித": 7730,
      "▁ஏமாற்ற": 7731,
      "oci": 7732,
      "▁பாப்": 7733,
      "▁அள்ளி": 7734,
      "த்தோடும்": 7735,
      "▁வரவேற்க": 7736,
      "டிர": 7737,
      "த்தனம்": 7738,
      "▁ஆய்வ": 7739,
      "▁சமணர்": 7740,
      "ஸ்வரம்": 7741,
      "▁உருகு": 7742,
      "தமி": 7743,
      "▁நாட்டைச்": 7744,
      "▁வளிமண்டல": 7745,
      "▁மாநாட்டில்": 7746,
      "தைச்": 7747,
      "▁புறா": 7748,
      "திகாரம்": 7749,
      "▁நேர்ந்த": 7750,
      "ட்ர": 7751,
      "லலாம்": 7752,
      "▁பண்டை": 7753,
      "▁புத்தா": 7754,
      "▁உத்தரப்": 7755,
      "ற்கரையில்": 7756,
      "▁விருதுகளை": 7757,
      "தவி": 7758,
      "ரியது": 7759,
      "ழ்கிறார்": 7760,
      "▁குலோத்துங்கன்": 7761,
      "▁குனி": 7762,
      "▁ரோஜா": 7763,
      "மையைச்": 7764,
      "▁முழுவதை": 7765,
      "▁பிரிவினை": 7766,
      "▁ஜோதி": 7767,
      "ர்ட்ஸ்": 7768,
      "▁இவ்வின": 7769,
      "லகு": 7770,
      "▁சுபா": 7771,
      "பிள்ளை": 7772,
      "▁எண்ணு": 7773,
      "▁பெரிதாக": 7774,
      "▁அவற்றைப்": 7775,
      "▁இயற்கையான": 7776,
      "▁பாரதிதாசன்": 7777,
      "யினர்": 7778,
      "▁இடையேயான": 7779,
      "▁பாத்திரத்தில்": 7780,
      "▁தவறாக": 7781,
      "ர்ட்டின்": 7782,
      "▁கூறினாள்": 7783,
      "▁திட்டத்தில்": 7784,
      "out": 7785,
      "ணுவம்": 7786,
      "வெள்ள": 7787,
      "ல்களில்": 7788,
      "▁வருஷம்": 7789,
      "ிரர்": 7790,
      "▁கசி": 7791,
      "▁சுவீ": 7792,
      "▁தடைய": 7793,
      "ரியக்": 7794,
      "▁சிறித": 7795,
      "ஷ்ப": 7796,
      "▁கணபதி": 7797,
      "▁வலைத்தள": 7798,
      "சாலி": 7799,
      "legal": 7800,
      "▁குரூ": 7801,
      "▁தீவின்": 7802,
      "▁எண்ணிக்": 7803,
      "▁உறுதியான": 7804,
      "St": 7805,
      "ase": 7806,
      "புல்": 7807,
      "▁சொந்தமான": 7808,
      "▁தொகுத்து": 7809,
      "▁கொள்கைகளை": 7810,
      "ேச": 7811,
      "▁கரைய": 7812,
      "▁அனுபவம்": 7813,
      "▁பெருமையை": 7814,
      "erv": 7815,
      "ித்தது": 7816,
      "▁பாடலை": 7817,
      "▁புன்னகை": 7818,
      "▁மேக": 7819,
      "▁யிரு": 7820,
      "▁தற்கா": 7821,
      "ள்களின்": 7822,
      "▁பெருகி": 7823,
      "▁உயர்ந்து": 7824,
      "▁எரிபொருள்": 7825,
      "வீக": 7826,
      "னைல்": 7827,
      "வுடைய": 7828,
      "வில்லைய": 7829,
      "▁இணையாக": 7830,
      "▁கருவறை": 7831,
      "▁பொதுநல": 7832,
      "▁எழுந்தது": 7833,
      "ராட்டத்தில்": 7834,
      "நாய்": 7835,
      "▁சன்ன": 7836,
      "▁ஞானி": 7837,
      "▁மலாயா": 7838,
      "சட்டமன்ற": 7839,
      "▁இடைநிலை": 7840,
      "▁பிந்தைய": 7841,
      "▁சீதை": 7842,
      "▁வணங்கு": 7843,
      "தனி": 7844,
      "▁மகிழ": 7845,
      "▁வருப": 7846,
      "▁அத்தி": 7847,
      "ீட்டாளர்": 7848,
      "▁மெய்யியல்": 7849,
      "▁கார்ல்": 7850,
      "்டங்களில்": 7851,
      "ோரால்": 7852,
      "▁கிணறு": 7853,
      "▁மாட்டேன்": 7854,
      "▁பத்தாண்டு": 7855,
      "ou": 7856,
      "தெய்": 7857,
      "▁நூல": 7858,
      "▁பிரச": 7859,
      "▁ரஷ்யா": 7860,
      "▁குற்றச்ச": 7861,
      "▁பழை": 7862,
      "மையிலேயே": 7863,
      "▁காஷ்மீர்": 7864,
      "▁நுழைந்து": 7865,
      "▁புயல்": 7866,
      "வரர்": 7867,
      "▁நஞ்சு": 7868,
      "ோட்": 7869,
      "ம்மி": 7870,
      "வதம்": 7871,
      "வென்": 7872,
      "▁சங்": 7873,
      "ியிடம்": 7874,
      "ையாவது": 7875,
      "▁கருத்தா": 7876,
      "▁சக்தியை": 7877,
      "▁தொடர்ந்": 7878,
      "▁திவ்": 7879,
      "ூர்த்தி": 7880,
      "்படுத்தியது": 7881,
      "▁மலேசியாவில்": 7882,
      "தலா": 7883,
      "ott": 7884,
      "▁ஒல்லா": 7885,
      "டமாக": 7886,
      "மாகிறது": 7887,
      "சலம்": 7888,
      "▁மின்த": 7889,
      "▁சின்னம்": 7890,
      "▁குடியேறிய": 7891,
      "யொரு": 7892,
      "ுதிய": 7893,
      "ிட்டது": 7894,
      "▁பொருந்தும்": 7895,
      "▁காணி": 7896,
      "மொழியில்": 7897,
      "▁மாந்தர்": 7898,
      "▁சீனாவில்": 7899,
      "▁இந்நூலில்": 7900,
      "ெரி": 7901,
      "▁அசோக": 7902,
      "▁மூதா": 7903,
      "▁புருஷ": 7904,
      "isource": 7905,
      "▁உங்களை": 7906,
      "▁சிங்கம்": 7907,
      "ci": 7908,
      "are": 7909,
      "்ஸ்": 7910,
      "யரின்": 7911,
      "▁நச்சுத்": 7912,
      "▁உணர்த்து": 7913,
      "சிதை": 7914,
      "மக்": 7915,
      "▁யாத": 7916,
      "கொள்க": 7917,
      "சிங்க": 7918,
      "▁அடையலாம்": 7919,
      "wikisource": 7920,
      "பஸ்": 7921,
      "யச்": 7922,
      "▁அமர": 7923,
      "▁பேறு": 7924,
      "▁சமமான": 7925,
      "ொண்டான்": 7926,
      "▁மண்ணில்": 7927,
      "▁குழந்தைகளின்": 7928,
      "app": 7929,
      "னில": 7930,
      "ம்சு": 7931,
      "ராது": 7932,
      "▁தமிழீழ": 7933,
      "▁சாதாரணமாக": 7934,
      "▁பாத்திரம்": 7935,
      "▁பெற்றுள்ள": 7936,
      "ைத்து": 7937,
      "▁தாழி": 7938,
      "▁சுட்டிக்": 7939,
      "▁இயற்பெயர்": 7940,
      "▁முன்னேற்றம்": 7941,
      "்சிப்": 7942,
      "தியைப்": 7943,
      "▁இவ்வமை": 7944,
      "லோக": 7945,
      "்டே": 7946,
      "▁அமைத்": 7947,
      "▁காண்ட": 7948,
      "▁திருநாவு": 7949,
      "▁India": 7950,
      "▁அட்லா": 7951,
      "▁கைலாச": 7952,
      "▁ஆய்வுக்": 7953,
      "▁திரௌ": 7954,
      "▁தொகைக்": 7955,
      "டகை": 7956,
      "சோன்": 7957,
      "▁மேலோ": 7958,
      "டியிரு": 7959,
      "▁வஞ்சி": 7960,
      "▁இளவரசி": 7961,
      "▁துறைமுகம்": 7962,
      "ுட": 7963,
      "▁ஞாப": 7964,
      "மைந்த": 7965,
      "▁கணம்": 7966,
      "மெண்ட்": 7967,
      "ாமலும்": 7968,
      "▁தயாராக": 7969,
      "▁எரிபொரு": 7970,
      "கவு": 7971,
      "▁பேண": 7972,
      "ஷ்டிர": 7973,
      "▁மர்ம": 7974,
      "▁அணிந்த": 7975,
      "ந்திரா": 7976,
      "டுத்துவது": 7977,
      "படுத்தும்": 7978,
      "▁உரிமையாளர்": 7979,
      "▁an": 7980,
      "▁ஆறாவது": 7981,
      "▁நிலையிலும்": 7982,
      "ாகோ": 7983,
      "▁பாண": 7984,
      "▁பாருங்": 7985,
      "▁புள்ளிய": 7986,
      "த்துடனும்": 7987,
      "ிடமிருந்து": 7988,
      "▁நுண்ணுயிர்": 7989,
      "▁இக": 7990,
      "ஜினி": 7991,
      "ய்ட்": 7992,
      "▁பழங்": 7993,
      "▁இங்கிலாந்தின்": 7994,
      "னையாக": 7995,
      "▁ஆளாக": 7996,
      "மூன்று": 7997,
      "▁அமைதியாக": 7998,
      "ost": 7999,
      "சாலா": 8000,
      "▁பட்": 8001,
      "ொன்றை": 8002,
      "ோரில்": 8003,
      "▁அற்புத": 8004,
      "▁சான்றோர்": 8005,
      "▁வருகிறேன்": 8006,
      "ox": 8007,
      "ன்சு": 8008,
      "▁Univers": 8009,
      "அம்மா": 8010,
      "டைவில்": 8011,
      "▁சிந்தன": 8012,
      "▁இவ்வூரின்": 8013,
      "▁விளைவுகளை": 8014,
      "▁ஐசோ": 8015,
      "▁திண்ண": 8016,
      "▁பெறலாம்": 8017,
      "ys": 8018,
      "பகற்ப": 8019,
      "▁இவனு": 8020,
      "▁சொர்": 8021,
      "▁வோல்": 8022,
      "யிலேயே": 8023,
      "▁அவனும்": 8024,
      "▁டென்னி": 8025,
      "ிம்": 8026,
      "▁மெலி": 8027,
      "த்துள்": 8028,
      "▁நிறுவனங்களின்": 8029,
      "eb": 8030,
      "orld": 8031,
      "▁அரா": 8032,
      "தலைக்": 8033,
      "▁குலோத்துங்க": 8034,
      "▁சர்மா": 8035,
      "▁நாடகத்தில்": 8036,
      "னாகப்": 8037,
      "▁குழா": 8038,
      "▁ch": 8039,
      "வனிடம்": 8040,
      "▁உமார்": 8041,
      "▁காத்த": 8042,
      "▁காலனி": 8043,
      "யிட்": 8044,
      "பேட்டு": 8045,
      "மாற்று": 8046,
      "▁கிராமங்": 8047,
      "▁விரிவடை": 8048,
      "▁தனித்தனி": 8049,
      "▁pp": 8050,
      "நலம்": 8051,
      "ரிலிருந்து": 8052,
      "▁மூன்றா": 8053,
      "தானி": 8054,
      "மேடு": 8055,
      "ணத்தை": 8056,
      "▁தந்தி": 8057,
      "▁விசாக": 8058,
      "▁அரங்கே": 8059,
      "▁சிறிதளவு": 8060,
      "▁கூட்டுறவு": 8061,
      "▁சார்ந்தது": 8062,
      "▁அகர": 8063,
      "▁சமமாக": 8064,
      "▁நேராக": 8065,
      "▁பாலூட்டி": 8066,
      "ுகள": 8067,
      "வுச்": 8068,
      "▁தவறி": 8069,
      "னையின்": 8070,
      "▁அழியா": 8071,
      "ர்களில்": 8072,
      "▁வினையூ": 8073,
      "▁ஆண்களும்": 8074,
      "▁தொழிலில்": 8075,
      "கனம்": 8076,
      "▁டிய": 8077,
      "▁நாட்டிற்கு": 8078,
      "▁சிவன": 8079,
      "▁இராவணன்": 8080,
      "▁உட்படுத்த": 8081,
      "▁சமீபத்தில்": 8082,
      "ளித்த": 8083,
      "▁பிரான்ஸ்": 8084,
      "▁வருமானம்": 8085,
      "கரண": 8086,
      "▁தீர்த்து": 8087,
      "▁பெற்றுத்": 8088,
      "▁வீழ்": 8089,
      "ரினால்": 8090,
      "ுகளால்": 8091,
      "▁பிரயோ": 8092,
      "ுசீ": 8093,
      "▁சகி": 8094,
      "யிண்ட்": 8095,
      "▁அருந்த": 8096,
      "▁கரைசல்": 8097,
      "▁பெண்மணி": 8098,
      "▁நிறைவேற்று": 8099,
      "ராண்டு": 8100,
      "▁இதிலிருந்து": 8101,
      "▁குழந்தையை": 8102,
      "மேனி": 8103,
      "▁கோது": 8104,
      "ண்ணும்": 8105,
      "▁ராயல்": 8106,
      "ற்றினர்": 8107,
      "▁எருசலே": 8108,
      "▁கர்ண": 8109,
      "▁தேசி": 8110,
      "▁இசைத்": 8111,
      "▁எண்ணெ": 8112,
      "▁தலைவரான": 8113,
      "▁நாற்பது": 8114,
      "ஹை": 8115,
      "▁யின்": 8116,
      "▁இராசே": 8117,
      "▁சமநிலை": 8118,
      "▁செலவில்": 8119,
      "▁தீவிரமாக": 8120,
      "▁அமைந்திருந்த": 8121,
      "்சே": 8122,
      "▁ஹு": 8123,
      "▁நாளு": 8124,
      "ைகளின்": 8125,
      "▁கண்களை": 8126,
      "Ar": 8127,
      "ப்ரா": 8128,
      "▁இறகு": 8129,
      "▁கீழை": 8130,
      "▁இல்லையே": 8131,
      "▁நேரத்தை": 8132,
      "▁சுந்தரம்": 8133,
      "▁எஃ": 8134,
      "பாலா": 8135,
      "பதோடு": 8136,
      "▁தரைய": 8137,
      "▁தயாரித்த": 8138,
      "▁புத்தகங்": 8139,
      "▁இந்நிலையில்": 8140,
      "கணி": 8141,
      "▁IS": 8142,
      "நாடி": 8143,
      "தேசம்": 8144,
      "ராஜர்": 8145,
      "▁மிருக": 8146,
      "டெல்": 8147,
      "▁கரோ": 8148,
      "▁நன்கொ": 8149,
      "▁எளிமையான": 8150,
      "\"\"\"\"": 8151,
      "ப்ளி": 8152,
      "ஸ்பெ": 8153,
      "▁நிஜ": 8154,
      "ட்தொகை": 8155,
      "▁உணர்ந்": 8156,
      "▁இம்மாவட்டத்தில்": 8157,
      "▁குழல்": 8158,
      "த்திட்டம்": 8159,
      "▁மையமாகக்": 8160,
      "யாமை": 8161,
      "ெதிர்": 8162,
      "▁நாழி": 8163,
      "▁அதிலும்": 8164,
      "▁இடங்களை": 8165,
      "▁நாட்டிய": 8166,
      "▁ள": 8167,
      "தானா": 8168,
      "கதிர்": 8169,
      "▁குலம்": 8170,
      "ுதி": 8171,
      "▁பரிச": 8172,
      "▁சுந்தரர்": 8173,
      "▁ஜென": 8174,
      "▁இரட்ட": 8175,
      "லிப்": 8176,
      "▁சரு": 8177,
      "மாறன்": 8178,
      "ாளரான": 8179,
      "▁துறைய": 8180,
      "▁புலன்": 8181,
      "டாயிற்று": 8182,
      "ute": 8183,
      "பிட": 8184,
      "▁பான்": 8185,
      "▁பெறவில்லை": 8186,
      "▁கணு": 8187,
      "மாகவோ": 8188,
      "▁சோறு": 8189,
      "▁மணிய": 8190,
      "▁பிராமணர்": 8191,
      "ட்டாக": 8192,
      "▁நாடகக்": 8193,
      "▁புரியா": 8194,
      "▁அலா": 8195,
      "ராமல்": 8196,
      "▁தாமஸ்": 8197,
      "▁கொள்கிறது": 8198,
      "தரு": 8199,
      "▁திருவி": 8200,
      "▁தீபகற்ப": 8201,
      "▁புய": 8202,
      "ாரத்தை": 8203,
      "▁மோகன்": 8204,
      "▁பெருங்க": 8205,
      "▁வரவ": 8206,
      "▁இலாப": 8207,
      "▁சுமதி": 8208,
      "ட்படுத்த": 8209,
      "ியர்களின்": 8210,
      "▁பாகிஸ்தான": 8211,
      "▁மட்டுமல்லாமல்": 8212,
      "்தி": 8213,
      "▁துள": 8214,
      "ட்டுள்ளார்": 8215,
      "டிகை": 8216,
      "▁காவேரி": 8217,
      "▁அடர்ந்த": 8218,
      "rin": 8219,
      "வதான": 8220,
      "▁பள": 8221,
      "ுவதாக": 8222,
      "▁கருதினார்": 8223,
      "▁பரமே": 8224,
      "ர்ச்சு": 8225,
      "▁அதனுடைய": 8226,
      "▁எதிர்த்துப்": 8227,
      "ரித்தது": 8228,
      "▁நாளடைவில்": 8229,
      "▁வேளைகளில்": 8230,
      "▁சமூகத்தில்": 8231,
      "▁தொடங்குகிறது": 8232,
      "ீல்": 8233,
      "கோயில்": 8234,
      "யினை": 8235,
      "▁ரயில்வே": 8236,
      "்டாயம்": 8237,
      "▁உரிமம்": 8238,
      "▁பிராமண": 8239,
      "▁எரிய": 8240,
      "▁சண்டைய": 8241,
      "▁வேண்டுமா": 8242,
      "▁நுண்ணிய": 8243,
      "ந்தீ": 8244,
      "சாலையில்": 8245,
      "ப்க": 8246,
      "alay": 8247,
      "லீரல்": 8248,
      "▁நாச்சி": 8249,
      "▁பஞ்சாய": 8250,
      "ஜூ": 8251,
      "▁ஒவ்": 8252,
      "▁டைய": 8253,
      "▁உரையை": 8254,
      "▁தண்டி": 8255,
      "▁பூண்ட": 8256,
      "▁முனையில்": 8257,
      "▁கிடைத்துள்ளன": 8258,
      "▁மெழு": 8259,
      "▁சேரும்": 8260,
      "மானாலும்": 8261,
      "▁மடம்": 8262,
      "னேன்": 8263,
      "வங்க": 8264,
      "▁குமரி": 8265,
      "▁சமச்ச": 8266,
      "▁பெறுதல்": 8267,
      "▁நிச்சயம்": 8268,
      "▁விற்பனைய": 8269,
      "▁தமிழ்நாட்ட": 8270,
      "▁சதி": 8271,
      "▁புன": 8272,
      "▁எபிர": 8273,
      "▁லாஸ்": 8274,
      "லியிரு": 8275,
      "▁ஆயிற்று": 8276,
      "▁சிவகாமி": 8277,
      "ையாய்": 8278,
      "ொட்டி": 8279,
      "▁முறி": 8280,
      "▁மாமி": 8281,
      "▁வயிறு": 8282,
      "சட்டமன்றத்": 8283,
      "▁சிம்": 8284,
      "ொன்றில்": 8285,
      "▁பெண்களை": 8286,
      "▁மலைத்தொடர்": 8287,
      "▁நேரத்து": 8288,
      "▁மலேரியா": 8289,
      "▁நிறுவனத்தால்": 8290,
      "enn": 8291,
      "சஸ்": 8292,
      "▁அமா": 8293,
      "ராசர்": 8294,
      "▁பர்மா": 8295,
      "▁அவளைப்": 8296,
      "▁கண்டறிந்த": 8297,
      "▁நியமி": 8298,
      "பழ": 8299,
      "uram": 8300,
      "ேற்று": 8301,
      "▁this": 8302,
      "ியல்பு": 8303,
      "ள்களில்": 8304,
      "▁தேர்தல்களில்": 8305,
      "▁நிறுவனங்களில்": 8306,
      "opy": 8307,
      "▁பேரி": 8308,
      "தாள்": 8309,
      "▁அணுக": 8310,
      "பைல்": 8311,
      "தையில்": 8312,
      "ஸ்டின்": 8313,
      "▁தொகைய": 8314,
      "▁விளங்குகின்றது": 8315,
      "▁தலம்": 8316,
      "▁பிரதிநி": 8317,
      "▁ராதா": 8318,
      "ின்றான்": 8319,
      "▁குடியேற": 8320,
      "▁பத்தாம்": 8321,
      "▁அகாத": 8322,
      "ையாகக்": 8323,
      "▁ஆஞ்சநேயர்": 8324,
      "▁இதழ்களில்": 8325,
      "▁இயங்குகிறது": 8326,
      "▁மட்டுமின்றி": 8327,
      "ump": 8328,
      "▁கணிசமான": 8329,
      "▁இத்திட்ட": 8330,
      "▁கண்டறிந்": 8331,
      "▁விலங்குகளின்": 8332,
      "அரு": 8333,
      "தேன்": 8334,
      "தமும்": 8335,
      "மூன்ற": 8336,
      "▁அருணகிரி": 8337,
      "ிடத்": 8338,
      "▁மவு": 8339,
      "ction": 8340,
      "த்திரா": 8341,
      "்கெனவே": 8342,
      "▁பதினே": 8343,
      "▁பழங்க": 8344,
      "▁முழுவதிலும்": 8345,
      "டைமை": 8346,
      "முது": 8347,
      "▁மசூ": 8348,
      "▁கருணா": 8349,
      "▁படையெடுத்து": 8350,
      "ர்ன": 8351,
      "▁மாச": 8352,
      "▁கேலி": 8353,
      "▁நொடி": 8354,
      "ளங்": 8355,
      "பிஷே": 8356,
      "▁சோலை": 8357,
      "▁ஆற்காடு": 8358,
      "▁தோராயமாக": 8359,
      "▁திகழ்கிறது": 8360,
      "pl": 8361,
      "ரத்தை": 8362,
      "▁அஜ": 8363,
      "▁இத்திரு": 8364,
      "▁சுல்தான": 8365,
      "ans": 8366,
      "ட்டோன்": 8367,
      "▁கழுத்து": 8368,
      "▁பிரான்சின்": 8369,
      "ிண": 8370,
      "அமை": 8371,
      "வளம்": 8372,
      "ாரப்": 8373,
      "செல்ல": 8374,
      "▁மென்மையான": 8375,
      "ாலய": 8376,
      "▁எரிந்து": 8377,
      "▁சிந்தனைய": 8378,
      "▁பங்கேற்க": 8379,
      "ேறு": 8380,
      "▁வழிபட": 8381,
      "▁அச்சிட": 8382,
      "▁சுமந்து": 8383,
      "▁வழிகளில்": 8384,
      "பய": 8385,
      "ராளி": 8386,
      "▁கமி": 8387,
      "ோட்டம்": 8388,
      "▁பாகம்": 8389,
      "▁வேணும்": 8390,
      "▁பூர்த்தி": 8391,
      "▁முஸ்லீம்": 8392,
      "▁இவ்வூரில்": 8393,
      "▁குமர": 8394,
      "▁மத்தி": 8395,
      "▁ஏவ": 8396,
      "மையற்ற": 8397,
      "யினால்": 8398,
      "▁இரயில்வே": 8399,
      "▁கிருஷ்ணா": 8400,
      "சிர": 8401,
      "▁நலி": 8402,
      "▁சிநே": 8403,
      "▁சாந்தி": 8404,
      "▁மனிதனு": 8405,
      "▁இலட்சம்": 8406,
      "▁உத்தியோக": 8407,
      "▁காடுகளில்": 8408,
      "ுந்": 8409,
      "▁வத": 8410,
      "▁உயர்த": 8411,
      "▁துருவ": 8412,
      "▁பிரிட்ட": 8413,
      "▁யாத்திரை": 8414,
      "▁பாஷ": 8415,
      "▁மங்கள": 8416,
      "▁நிலத்தை": 8417,
      "சலை": 8418,
      "ொண்டனர்": 8419,
      "▁இயலவில்லை": 8420,
      "▁தனித்துவமான": 8421,
      "▁ஆண்டிலிருந்து": 8422,
      "▁வகித்": 8423,
      "▁வருடங்": 8424,
      "ிள": 8425,
      "முடன்": 8426,
      "▁தாள்": 8427,
      "▁உலகக்": 8428,
      "▁பண்பா": 8429,
      "▁சொன்னேன்": 8430,
      "▁கனக": 8431,
      "▁அலங்கரி": 8432,
      "▁முகத்தை": 8433,
      "▁நானோ": 8434,
      "▁குறிஞ்சி": 8435,
      "▁இந்நிறுவனம்": 8436,
      "திகளு": 8437,
      "தற்குக்": 8438,
      "▁ஒத்திரு": 8439,
      "▁பண்புகளை": 8440,
      "ng": 8441,
      "uv": 8442,
      "ோரி": 8443,
      "வரலா": 8444,
      "த்ததாக": 8445,
      "மாதிரி": 8446,
      "ழுவின்": 8447,
      "▁எல்லைகளாக": 8448,
      "▁மின்காந்த": 8449,
      "▁உற்பத்தியில்": 8450,
      "▁சரோ": 8451,
      "▁கிழமை": 8452,
      "▁செயலிழ": 8453,
      "▁விலங்க": 8454,
      "வரிசையில்": 8455,
      "▁கண்டதும்": 8456,
      "▁நாட்டுத்": 8457,
      "ana": 8458,
      "டனேயே": 8459,
      "▁இளமை": 8460,
      "▁பாக்": 8461,
      "நத்தம்": 8462,
      "▁கிரிக்": 8463,
      "▁புலிகே": 8464,
      "உம்": 8465,
      "ம்த": 8466,
      "வுட": 8467,
      "றேன்": 8468,
      "▁பீர": 8469,
      "▁நூலு": 8470,
      "ணையில்": 8471,
      "▁பிக்ஷ": 8472,
      "▁பெருமூ": 8473,
      "▁உற்பத்த": 8474,
      "▁நல்லூர்": 8475,
      "யூர்": 8476,
      "▁ஃபே": 8477,
      "பாடல்": 8478,
      "ியாய்": 8479,
      "▁கதைய": 8480,
      "▁பிரமி": 8481,
      "▁தாழ்ந்த": 8482,
      "▁நாடகத்தை": 8483,
      "ho": 8484,
      "ூடம்": 8485,
      "▁ஹவு": 8486,
      "ாட்டி": 8487,
      "▁பிரிவின": 8488,
      "டுவதுண்டு": 8489,
      "▁கொடுத்தது": 8490,
      "▁தொடர்பில்": 8491,
      "வழியாக": 8492,
      "▁வரவழை": 8493,
      "திகளும்": 8494,
      "▁மின்னா": 8495,
      "ரசி": 8496,
      "பெண்": 8497,
      "▁பிளாக்": 8498,
      "▁அம்மாள்": 8499,
      "▁மாறுபாடு": 8500,
      "▁அகழ்": 8501,
      "ச்செல்ல": 8502,
      "▁புண்ணிய": 8503,
      "▁உரையாடல்": 8504,
      "▁கணிதத்தில்": 8505,
      "▁be": 8506,
      "▁பரீ": 8507,
      "▁பயன்படுத்தினார்": 8508,
      "▁ஆரு": 8509,
      "▁சார்ப": 8510,
      "▁ஆப்கான": 8511,
      "▁வேள்வி": 8512,
      "▁திடீரென": 8513,
      "▁மாத்திர": 8514,
      "yst": 8515,
      "விற்": 8516,
      "மலும்": 8517,
      "▁கூரை": 8518,
      "ந்தேன்": 8519,
      "▁தட்டி": 8520,
      "▁இறைச்சி": 8521,
      "தத்": 8522,
      "▁பெல்ஜ": 8523,
      "்தோறும்": 8524,
      "ஸ்தி": 8525,
      "▁அமி": 8526,
      "ராயன்": 8527,
      "▁சீனர்": 8528,
      "▁பெருங்கோ": 8529,
      "▁மொத்தமாக": 8530,
      "திமன்றத்தில்": 8531,
      "▁ஜெய்": 8532,
      "▁விவகார": 8533,
      "▁வயதிலேயே": 8534,
      "▁மூலை": 8535,
      "ளாட்சி": 8536,
      "▁ஆயத்த": 8537,
      "▁முதுக": 8538,
      "கின்றான்": 8539,
      "▁பெறுவது": 8540,
      "▁on": 8541,
      "▁புளி": 8542,
      "▁சத்திர": 8543,
      "ங்களிலே": 8544,
      "▁ஆன்மீக": 8545,
      "▁எதிரில்": 8546,
      "▁குழந்தைகளை": 8547,
      "▁பயன்படுத்தினர்": 8548,
      "ரையா": 8549,
      "ோவின்": 8550,
      "▁அருமை": 8551,
      "▁நோயின்": 8552,
      "ியிருந்த": 8553,
      "சியன்": 8554,
      "▁ஒன்ப": 8555,
      "▁தோட்டம்": 8556,
      "்லி": 8557,
      "▁பொறா": 8558,
      "▁கருங்": 8559,
      "▁கோவிலின்": 8560,
      "▁பங்கேற்ற": 8561,
      "உரு": 8562,
      "னப்": 8563,
      "▁உமி": 8564,
      "▁கூடை": 8565,
      "▁கைகளை": 8566,
      "வற்றைத்": 8567,
      "ினின்றும்": 8568,
      "▁மேற்கூறிய": 8569,
      "▁வளாகத்தில்": 8570,
      "ரோட்ட": 8571,
      "▁அழகாக": 8572,
      "▁வசூலி": 8573,
      "▁பணியாற்று": 8574,
      "ரடி": 8575,
      "பிரா": 8576,
      "▁கிரெ": 8577,
      "▁அனந்த": 8578,
      "ையிலேயே": 8579,
      "▁நிமிர்ந்து": 8580,
      "▁ஞாய": 8581,
      "oration": 8582,
      "▁வள்ளல்": 8583,
      "▁இசுலாமியர்": 8584,
      "பதாக": 8585,
      "▁கலீ": 8586,
      "ிலின்": 8587,
      "▁நேரே": 8588,
      "▁குட்ட": 8589,
      "லாக்": 8590,
      "▁அவமான": 8591,
      "▁பாரிய": 8592,
      "வென்றால்": 8593,
      "ாப": 8594,
      "விரி": 8595,
      "▁ஊடுரு": 8596,
      "▁ஊரின்": 8597,
      "▁இந்நோய்": 8598,
      "▁நாடுகளை": 8599,
      "▁வேண்டியிருந்தது": 8600,
      "▁வருடா": 8601,
      "▁கண்டெடு": 8602,
      "வுளை": 8603,
      "▁சதா": 8604,
      "▁ஆண்ட்": 8605,
      "மையுள்ள": 8606,
      "ென்றே": 8607,
      "த்திச்": 8608,
      "ியத்துவ": 8609,
      "▁அகாதமி": 8610,
      "▁ஆதாரங்": 8611,
      "▁முகவரி": 8612,
      "லியாவின்": 8613,
      "▁வயதிற்கு": 8614,
      "ust": 8615,
      "▁கண்டான்": 8616,
      "▁கன்னடம்": 8617,
      "▁வடிவமாக": 8618,
      "▁பொருத்து": 8619,
      "▁முதலமைச்ச": 8620,
      "▁பவள": 8621,
      "பியன்": 8622,
      "▁நாளாக": 8623,
      "▁பரிணாம": 8624,
      "களின்படி": 8625,
      "▁சமுதாயம்": 8626,
      "எஃப்": 8627,
      "▁சுல": 8628,
      "▁நெஞ்": 8629,
      "▁பரஞ்": 8630,
      "ஸ்டிக்": 8631,
      "▁கருவு": 8632,
      "▁தனிமங்": 8633,
      "ிடுகையில்": 8634,
      "▁குடா": 8635,
      "▁மொழிகளை": 8636,
      "சையை": 8637,
      "▁இலண்டன்": 8638,
      "▁உலகளவில்": 8639,
      "▁உள்நாட்டுப்": 8640,
      "▁வடிவங்களில்": 8641,
      "த்ர": 8642,
      "▁சூர்": 8643,
      "▁இறங்கு": 8644,
      "▁திருஞான": 8645,
      "தண்ட": 8646,
      "▁பாடலில்": 8647,
      "edic": 8648,
      "▁வீரா": 8649,
      "▁தேற்ற": 8650,
      "▁முகலா": 8651,
      "லியாவில்": 8652,
      "▁பெயர்களை": 8653,
      "வேர்": 8654,
      "லியல்": 8655,
      "▁நியா": 8656,
      "▁உத்தம": 8657,
      "▁புத்து": 8658,
      "ுவதற்காக": 8659,
      "▁பைத்திய": 8660,
      "ற்றிற்": 8661,
      "▁ஸ்டுடியோ": 8662,
      "களி": 8663,
      "▁டில்": 8664,
      "▁தட்சி": 8665,
      "▁சட்டங்": 8666,
      "▁மேளகர்த்தா": 8667,
      "ick": 8668,
      "லிலே": 8669,
      "▁சட்டை": 8670,
      "ித்தனர்": 8671,
      "▁இலவசமாக": 8672,
      "▁சூறாவளி": 8673,
      "▁நிகழ்கிறது": 8674,
      "▁ஆசி": 8675,
      "அள்ளி": 8676,
      "▁ஹால்": 8677,
      "▁தூண்க": 8678,
      "ட்டதும்": 8679,
      "▁தரவுத்தள": 8680,
      "ணாமூர்த்தி": 8681,
      "▁மட்டத்தில்": 8682,
      "ohn": 8683,
      "▁கந்தக": 8684,
      "▁வெள்ளைய": 8685,
      "ha": 8686,
      "▁இயல்ப": 8687,
      "▁மார்ப": 8688,
      "ச்சாரம்": 8689,
      "▁அரியலூர்": 8690,
      "ைபெறுகின்றன": 8691,
      "்சா": 8692,
      "யுங்": 8693,
      "டியாவது": 8694,
      "▁சித்தி": 8695,
      "▁டைம்ஸ்": 8696,
      "▁நூற்றாண்டுகளில்": 8697,
      "▁மியூ": 8698,
      "▁முதலை": 8699,
      "▁தனித்து": 8700,
      "ாபாரி": 8701,
      "ுகளாக": 8702,
      "▁பசிய": 8703,
      "▁மலாய்": 8704,
      "▁ஏவுகணை": 8705,
      "▁சொற்றொ": 8706,
      "▁பரவலான": 8707,
      "மரா": 8708,
      "வெடு": 8709,
      "ார்ந்த": 8710,
      "▁வண்டு": 8711,
      "▁அமைத்துக்": 8712,
      "சபெ": 8713,
      "வனைக்": 8714,
      "▁தமைய": 8715,
      "▁தாலி": 8716,
      "யீட்டு": 8717,
      "▁இத்தே": 8718,
      "▁கர்நாடகா": 8719,
      "▁வழிபட்டு": 8720,
      "▁உச்சியில்": 8721,
      "ரோஸ்": 8722,
      "விதம்": 8723,
      "த்தின்படி": 8724,
      "பாண்டியன்": 8725,
      "▁வரலாற்றுப்": 8726,
      "ne": 8727,
      "ுறி": 8728,
      "▁புட": 8729,
      "மங்களை": 8730,
      "▁தாவரம்": 8731,
      "▁கூர்ந்து": 8732,
      "▁புத்தகத்தில்": 8733,
      "▁எம": 8734,
      "ெல்ல": 8735,
      "மொன்ற": 8736,
      "▁குள்ள": 8737,
      "▁எட்டாம்": 8738,
      "OH": 8739,
      "ட்டதை": 8740,
      "▁நுழைய": 8741,
      "னார்வலர்": 8742,
      "▁நாயனார்": 8743,
      "▁காற்பந்து": 8744,
      "தரா": 8745,
      "ஹர்": 8746,
      "▁டிஸ்": 8747,
      "நாட்டை": 8748,
      "ரிலும்": 8749,
      "▁இம்மூ": 8750,
      "▁தாங்கிய": 8751,
      "▁நிலைநிறு": 8752,
      "▁பயன்படுத்துவது": 8753,
      "▁திண": 8754,
      "த்தமிழ்": 8755,
      "▁அன்றாட": 8756,
      "▁செயின்": 8757,
      "▁விற்று": 8758,
      "மாயிருந்தது": 8759,
      "▁அவளைக்": 8760,
      "▁காற்றின்": 8761,
      "▁சிறந்தது": 8762,
      "ுமொழி": 8763,
      "▁ஆளுமை": 8764,
      "▁அவளிடம்": 8765,
      "▁கிறித்து": 8766,
      "▁முற்றுகை": 8767,
      "▁துவங்கியது": 8768,
      "ர்சி": 8769,
      "▁காச": 8770,
      "▁அகராதி": 8771,
      "▁சாஸ்திர": 8772,
      "▁பெரியது": 8773,
      "▁மருத்துவப்": 8774,
      "▁மாற்றங்களை": 8775,
      "rit": 8776,
      "ாயே": 8777,
      "ராவி": 8778,
      "ளூர்": 8779,
      "வழிப்": 8780,
      "▁தானாகவே": 8781,
      "▁வெற்றியை": 8782,
      "▁சூழ்நிலையில்": 8783,
      "சமு": 8784,
      "லத்தை": 8785,
      "ளுடைய": 8786,
      "வேந்தர்": 8787,
      "▁சந்தித்": 8788,
      "▁நிறுவனமான": 8789,
      "▁பகுத்தறிவு": 8790,
      "ான்ஸ்": 8791,
      "்டத்தை": 8792,
      "▁கழுகு": 8793,
      "▁அருள்மொழி": 8794,
      "▁அயர்லாந்து": 8795,
      "▁சமயக்": 8796,
      "ந்தோறும்": 8797,
      "ேசி": 8798,
      "தாது": 8799,
      "▁கீழு": 8800,
      "▁நாசி": 8801,
      "ராய்டு": 8802,
      "▁செயலக": 8803,
      "▁திமி": 8804,
      "▁மூர்த்த": 8805,
      "காக": 8806,
      "▁விரோத": 8807,
      "தலே": 8808,
      "நாதசு": 8809,
      "ன்ஸ்ட": 8810,
      "▁படமா": 8811,
      "▁உங்கள": 8812,
      "▁யே": 8813,
      "லானார்": 8814,
      "▁பொதுவுடை": 8815,
      "igh": 8816,
      "தேவ": 8817,
      "னதி": 8818,
      "ானாம்": 8819,
      "▁இல்லற": 8820,
      "ிட்டிரு": 8821,
      "ங்களினால்": 8822,
      "▁த்": 8823,
      "▁டிவி": 8824,
      "சாவின்": 8825,
      "ஷ்டிரா": 8826,
      "▁தமிழா": 8827,
      "ஞ்சியம்": 8828,
      "மையாகப்": 8829,
      "▁சங்ககால": 8830,
      "▁மூன்றும்": 8831,
      "லத்தின்": 8832,
      "▁நினைத்": 8833,
      "ock": 8834,
      "சைன்": 8835,
      "ாமலே": 8836,
      "▁ஞாபக": 8837,
      "▁பதிவே": 8838,
      "▁விகார": 8839,
      "ight": 8840,
      "மடைய": 8841,
      "▁ஏகா": 8842,
      "▁வேல": 8843,
      "▁ஜம்மு": 8844,
      "▁பண்ணு": 8845,
      "▁அச்சம்": 8846,
      "▁விவரங்": 8847,
      "▁உரிமையை": 8848,
      "▁பொருளும்": 8849,
      "▁உற்பத்திய": 8850,
      "erm": 8851,
      "வெடி": 8852,
      "ாலில்": 8853,
      "▁காலக்": 8854,
      "ாரபூர்வ": 8855,
      "▁கூறினர்": 8856,
      "ந்தாலும்": 8857,
      "▁நாட்டுக்": 8858,
      "▁மட்டுமன்றி": 8859,
      "arl": 8860,
      "ீம்": 8861,
      "▁குர்": 8862,
      "▁உபகரண": 8863,
      "▁உரோமை": 8864,
      "▁மீட்க": 8865,
      "ச்சிறந்த": 8866,
      "▁பெற்றிருந்த": 8867,
      "ஞ்ஞ": 8868,
      "▁தகை": 8869,
      "▁களின்": 8870,
      "ையினால்": 8871,
      "▁துணைக்": 8872,
      "▁தென்னை": 8873,
      "▁வடமேற்க": 8874,
      "▁இயந்திரம்": 8875,
      "்ப்": 8876,
      "ண்டெ": 8877,
      "▁கோயிலை": 8878,
      "▁ஞாயிற்று": 8879,
      "▁முன்மொழி": 8880,
      "▁can": 8881,
      "▁மில்லி": 8882,
      "▁பெற்றான்": 8883,
      "▁கூறுகின்றது": 8884,
      "▁நிறுவனங்களு": 8885,
      "யுத": 8886,
      "▁வோ": 8887,
      "▁குத": 8888,
      "▁தாங்கு": 8889,
      "▁வீதியில்": 8890,
      "ise": 8891,
      "▁டெக்": 8892,
      "▁படைகளு": 8893,
      "▁கேட்டால்": 8894,
      "▁குறித்தும்": 8895,
      "▁காரணத்தினால்": 8896,
      "ஆன்": 8897,
      "▁அனா": 8898,
      "▁ரத்": 8899,
      "▁கோவல": 8900,
      "▁புளிய": 8901,
      "ரீதியான": 8902,
      "▁தலைமைப்": 8903,
      "▁முன்னேற": 8904,
      "வணி": 8905,
      "பத்தி": 8906,
      "▁தீர்மானம்": 8907,
      "▁மண்டலத்தின்": 8908,
      "னதாக": 8909,
      "ச்செல்": 8910,
      "▁மூலிகை": 8911,
      "▁முதலமைச்சர்": 8912,
      "சியே": 8913,
      "மடைந்": 8914,
      "▁கென்": 8915,
      "நாயகம்": 8916,
      "▁பதினைந்து": 8917,
      "▁ஆக்சிசனேற்ற": 8918,
      "▁நிரலா": 8919,
      "▁ஆல்பம்": 8920,
      "▁மேற்கொள்": 8921,
      "கிள்": 8922,
      "வுமே": 8923,
      "▁அமுத": 8924,
      "▁எஃப்": 8925,
      "▁மாரி": 8926,
      "▁கொணர்": 8927,
      "▁அர்ச்ச": 8928,
      "▁மின்கல": 8929,
      "▁காரணங்களால்": 8930,
      "▁ஆதீ": 8931,
      "மாவது": 8932,
      "▁அதோடு": 8933,
      "▁சிட்டி": 8934,
      "▁நெட்வொ": 8935,
      "சது": 8936,
      "நம்": 8937,
      "▁ஏடு": 8938,
      "விசை": 8939,
      "ஷ்டம்": 8940,
      "▁தமனி": 8941,
      "▁வீரம்": 8942,
      "டித்தது": 8943,
      "▁பிடாரி": 8944,
      "▁இயற்பிய": 8945,
      "▁நிமிடங்": 8946,
      "▁தண்ணீரில்": 8947,
      "▁உம": 8948,
      "▁கவர": 8949,
      "▁ரிஷ": 8950,
      "வராகக்": 8951,
      "▁பிரமா": 8952,
      "▁அமிர்த": 8953,
      "▁நாராயணன்": 8954,
      "▁சூர": 8955,
      "ஸ்வரன்": 8956,
      "ிழை": 8957,
      "ாலின்": 8958,
      "ங்காடு": 8959,
      "▁விசித்திர": 8960,
      "▁பிரான்சிசு": 8961,
      "▁இச்சி": 8962,
      "▁மிதமான": 8963,
      "▁கண்டேன்": 8964,
      "▁தரிசனம்": 8965,
      "▁துல்லியமாக": 8966,
      "IS": 8967,
      "ளன": 8968,
      "வகைப்": 8969,
      "▁கமலா": 8970,
      "▁வீண்": 8971,
      "▁பாடலா": 8972,
      "▁வருவதாக": 8973,
      "▁நினைவில்": 8974,
      "▁பெயருடன்": 8975,
      "▁மாற்றும்": 8976,
      "னிடமிருந்து": 8977,
      "▁செல்கின்றன": 8978,
      "ile": 8979,
      "னஸ்": 8980,
      "டெட்": 8981,
      "நிலம்": 8982,
      "▁தேய்": 8983,
      "காந்த்": 8984,
      "ொருளாக": 8985,
      "▁பூர்வ": 8986,
      "டுகின்றார்": 8987,
      "▁பொறியாளர்": 8988,
      "▁இயற்கையில்": 8989,
      "நொ": 8990,
      "எதிர்": 8991,
      "▁ஹாரி": 8992,
      "்டினார்": 8993,
      "▁சுத்தி": 8994,
      "▁ஜனநாயக": 8995,
      "▁அர்த்தம்": 8996,
      "▁எக்": 8997,
      "▁எறு": 8998,
      "தியர்": 8999,
      "வீரன்": 9000,
      "்வோர்": 9001,
      "▁எலிசபெ": 9002,
      "▁செலவழி": 9003,
      "▁வீட்டின்": 9004,
      "விதி": 9005,
      "▁சஞ்சி": 9006,
      "▁பந்தய": 9007,
      "மலையில்": 9008,
      "சமய": 9009,
      "புக": 9010,
      "ுறத்தில்": 9011,
      "்பட்டிரு": 9012,
      "த்திருந்தது": 9013,
      "களாய்": 9014,
      "▁மைத்": 9015,
      "▁பூண்டு": 9016,
      "▁பேரரசை": 9017,
      "னியலாளர்": 9018,
      "▁அச்சமயம்": 9019,
      "▁மூன்றில்": 9020,
      "டென்": 9021,
      "▁ஏஞ்ச": 9022,
      "யாட்சி": 9023,
      "▁பிரிந்த": 9024,
      "ஸ்வதி": 9025,
      "▁லால்": 9026,
      "▁வரவு": 9027,
      "▁இசுரே": 9028,
      "்சியைச்": 9029,
      "லிருந்து": 9030,
      "▁நிலைத்து": 9031,
      "▁வீடுகளில்": 9032,
      "மிங்": 9033,
      "▁கலவர": 9034,
      "த்திணை": 9035,
      "▁தமிழின்": 9036,
      "▁பெறுவதற்கு": 9037,
      "ஆக": 9038,
      "ron": 9039,
      "ட்ச்": 9040,
      "▁நிலங்": 9041,
      "▁ஆங்கிலப்": 9042,
      "சலி": 9043,
      "▁வரச்": 9044,
      "தாரணம்": 9045,
      "ியுள்ளன": 9046,
      "▁சட்டத்தை": 9047,
      "▁பொருந்து": 9048,
      "▁அறங்காவலர்களால்": 9049,
      "▁மிர": 9050,
      "டத்து": 9051,
      "▁அதனைக்": 9052,
      "▁கூத்து": 9053,
      "▁தூண்டி": 9054,
      "▁சாகுபடி": 9055,
      "▁தங்கியிரு": 9056,
      "▁மலேசியாவின்": 9057,
      "தில": 9058,
      "ிளை": 9059,
      "▁துளி": 9060,
      "▁தேசம்": 9061,
      "▁மலையா": 9062,
      "ற்றிதழ்": 9063,
      "▁அம்சங்": 9064,
      "▁கணிதம்": 9065,
      "்படுத்திய": 9066,
      "▁அரசாங்கத்தின்": 9067,
      "பெல்": 9068,
      "▁Pro": 9069,
      "▁law": 9070,
      "▁கேட்டேன்": 9071,
      "பள": 9072,
      "▁பிராக": 9073,
      "▁மல்லி": 9074,
      "ரிடமும்": 9075,
      "▁அமிலங்": 9076,
      "▁இராமசாமி": 9077,
      "ளாய்": 9078,
      "்பூர்": 9079,
      "த்திலோ": 9080,
      "நிறுவன": 9081,
      "▁கோலால": 9082,
      "▁தைரிய": 9083,
      "▁புகார்": 9084,
      "▁கருவிகளை": 9085,
      "▁செல்சியசு": 9086,
      "▁குலு": 9087,
      "▁வட்டி": 9088,
      "மாய்ப்": 9089,
      "▁சுருள்": 9090,
      "புறத்தில்": 9091,
      "்படுகின்றன": 9092,
      "▁ஜான": 9093,
      "▁உவமை": 9094,
      "ட்டியே": 9095,
      "ளியின்": 9096,
      "▁பஞ்சாபி": 9097,
      "rid": 9098,
      "லின": 9099,
      "லோடு": 9100,
      "வெள்ளி": 9101,
      "▁துத்த": 9102,
      "▁இதழின்": 9103,
      "▁வீரராக": 9104,
      "▁அருச்சு": 9105,
      "▁காத்துக்": 9106,
      "▁வினையில்": 9107,
      "▁தொழில்துறை": 9108,
      "▁தமிழ்நாட்டு": 9109,
      "கியது": 9110,
      "▁சாக்": 9111,
      "லட்சுமி": 9112,
      "▁சமஸ்தான": 9113,
      "▁மொழிபெய": 9114,
      "▁திட்டங்களை": 9115,
      "▁கற": 9116,
      "▁இமா": 9117,
      "மாட்ட": 9118,
      "்துறைய": 9119,
      "ரீதியாக": 9120,
      "enc": 9121,
      "பிட்": 9122,
      "▁சலு": 9123,
      "ல்களு": 9124,
      "▁பட்டய": 9125,
      "டுவதும்": 9126,
      "▁விளைபொரு": 9127,
      "பணி": 9128,
      "வமை": 9129,
      "வெண்ண": 9130,
      "▁பிடு": 9131,
      "▁மீனா": 9132,
      "கிராம்": 9133,
      "▁தானம்": 9134,
      "▁பிணைய": 9135,
      "▁மதில்": 9136,
      "▁நாட்டார்": 9137,
      "rict": 9138,
      "ண்டது": 9139,
      "▁காட்ச": 9140,
      "▁குடிசை": 9141,
      "▁தனித்தன": 9142,
      "▁சந்தித்த": 9143,
      "▁வரலாற்றுச்": 9144,
      "AS": 9145,
      "ாலு": 9146,
      "▁தாயா": 9147,
      "▁உருது": 9148,
      "ில்லாமல்": 9149,
      "▁சமீபத்திய": 9150,
      "ியிலிருந்து": 9151,
      "யாகத்": 9152,
      "▁மகால": 9153,
      "▁உடைமை": 9154,
      "▁இயற்கணி": 9155,
      "ுழு": 9156,
      "ாரத்தில்": 9157,
      "கிருஷ்ணன்": 9158,
      "▁சுற்றுப்": 9159,
      "▁ஒரி": 9160,
      "▁கொள": 9161,
      "னீசியம்": 9162,
      "த்திற்குரிய": 9163,
      "டானது": 9164,
      "▁படைவீரர்": 9165,
      "son": 9166,
      "▁அதிப": 9167,
      "▁ஸ்தா": 9168,
      "▁ரஞ்சி": 9169,
      "▁யூனியன்": 9170,
      "▁அருகாமையில்": 9171,
      "▁தங்கியிருந்த": 9172,
      "ுல்": 9173,
      "▁நெதர்லாந்து": 9174,
      "நியூ": 9175,
      "▁கூடா": 9176,
      "▁இறைவி": 9177,
      "▁திருச்செ": 9178,
      "ல்லூ": 9179,
      "களாகத்": 9180,
      "▁இராசா": 9181,
      "▁உயரிய": 9182,
      "▁புதர்": 9183,
      "▁விவரம்": 9184,
      "▁பிளாட்ட": 9185,
      "▁நாள்தோறும்": 9186,
      "▁உடற்பயிற்சி": 9187,
      "தமிழ": 9188,
      "ியமானது": 9189,
      "▁ஆரியர்": 9190,
      "லாயிற்று": 9191,
      "▁ஆண்டவன்": 9192,
      "▁வெற்றிட": 9193,
      "▁இனத்தைச்": 9194,
      "▁பயிற்சியா": 9195,
      "யரு": 9196,
      "▁பிய": 9197,
      "▁சீரான": 9198,
      "▁காணாமல்": 9199,
      "▁வகையிலும்": 9200,
      "▁வருகிறான்": 9201,
      "eng": 9202,
      "▁ஊகி": 9203,
      "ச்சியா": 9204,
      "ர்த்தே": 9205,
      "▁வருகின்றார்": 9206,
      "தாஸ்": 9207,
[...]
