{
  "version": "1.0",
  "truncation": null,
  "padding": null,
  "added_tokens": [
    {
      "id": 0,
      "content": "<unk>",
      "single_word": false,
      "lstrip": false,
      "rstrip": false,
      "normalized": true,
      "special": true
    },
    {
      "id": 1,
      "content": "<s>",
      "single_word": false,
      "lstrip": false,
      "rstrip": false,
      "normalized": true,
      "special": true
    },
    {
      "id": 2,
      "content": "</s>",
      "single_word": false,
      "lstrip": false,
      "rstrip": false,
      "normalized": true,
      "special": true
    }
  ],
  "normalizer": {
    "type": "Sequence",
    "normalizers": [
      {
        "type": "Prepend",
        "prepend": "▁"
      },
      {
        "type": "Replace",
        "pattern": {
          "String": " "
        },
        "content": "▁"
      }
    ]
  },
  "pre_tokenizer": null,
  "post_processor": {
    "type": "TemplateProcessing",
    "single": [
      {
        "SpecialToken": {
          "id": "<s>",
          "type_id": 0
        }
      },
      {
        "Sequence": {
          "id": "A",
          "type_id": 0
        }
      }
    ],
    "pair": [
      {
        "SpecialToken": {
          "id": "<s>",
          "type_id": 0
        }
      },
      {
        "Sequence": {
          "id": "A",
          "type_id": 0
        }
      },
      {
        "SpecialToken": {
          "id": "<s>",
          "type_id": 1
        }
      },
      {
        "Sequence": {
          "id": "B",
          "type_id": 1
        }
      }
    ],
    "special_tokens": {
      "<s>": {
        "id": "<s>",
        "ids": [
          1
        ],
        "tokens": [
          "<s>"
        ]
      }
    }
  },
  "decoder": {
    "type": "Sequence",
    "decoders": [
      {
        "type": "Replace",
        "pattern": {
          "String": "▁"
        },
        "content": " "
      },
      {
        "type": "ByteFallback"
      },
      {
        "type": "Fuse"
      },
      {
        "type": "Strip",
        "content": " ",
        "start": 1,
        "stop": 0
      }
    ]
  },
  "model": {
    "type": "BPE",
    "dropout": null,
    "unk_token": "<unk>",
    "continuing_subword_prefix": null,
    "end_of_word_suffix": null,
    "fuse_unk": true,
    "byte_fallback": true,
    "vocab": {
      "<unk>": 0,
      "<s>": 1,
      "</s>": 2,
      "<pad>": 3,
      "<mask>": 4,
      "\n": 5,
      "+": 6,
      "-": 7,
      "*": 8,
      "$": 9,
      "%": 10,
      "^": 11,
      "1": 12,
      "2": 13,
      "3": 14,
      "4": 15,
      "5": 16,
      "6": 17,
      "7": 18,
      "8": 19,
      "9": 20,
      "0": 21,
      "#": 22,
      "@": 23,
      "&": 24,
      "=": 25,
      "~": 26,
      "<": 27,
      ">": 28,
      ":": 29,
      ";": 30,
      "'": 31,
      "(": 32,
      ")": 33,
      ".": 34,
      ",": 35,
      "்க": 36,
      "்த": 37,
      "ம்": 38,
      "▁அ": 39,
      "ரு": 40,
      "ர்": 41,
      "ன்": 42,
      "he": 43,
      "▁t": 44,
      "▁ப": 45,
      "▁க": 46,
      "ல்": 47,
      "▁a": 48,
      "ள்": 49,
      "▁வ": 50,
      "து": 51,
      "▁ம": 52,
      "▁ச": 53,
      "ந்த": 54,
      "க்க": 55,
      "ிய": 56,
      "த்த": 57,
      "ும்": 58,
      "்ட": 59,
      "▁த": 60,
      "▁s": 61,
      "ப்": 62,
      "▁அவ": 63,
      "ார்": 64,
      "nd": 65,
      "▁ந": 66,
      "▁w": 67,
      "ில்": 68,
      "ிற": 69,
      "▁the": 70,
      "ைய": 71,
      "▁ஒ": 72,
      "ப்ப": 73,
      "்கள்": 74,
      "▁இ": 75,
      "ன்ற": 76,
      "▁எ": 77,
      "ed": 78,
      "▁ஒரு": 79,
      "▁b": 80,
      "in": 81,
      "ாக": 82,
      "▁and": 83,
      "▁to": 84,
      "ட்ட": 85,
      "re": 86,
      "டி": 87,
      "ார": 88,
      "▁f": 89,
      "▁h": 90,
      "்ச": 91,
      "▁வி": 92,
      "it": 93,
      "ண்ட": 94,
      "▁உ": 95,
      "\"\"": 96,
      "▁T": 97,
      "er": 98,
      "▁அவர": 99,
      "ou": 100,
      "ருந்த": 101,
      "▁wa": 102,
      "▁c": 103,
      "ுக": 104,
      "▁l": 105,
      "ங்க": 106,
      "▁p": 107,
      "▁d": 108,
      "ar": 109,
      "ற்": 110,
      "on": 111,
      "தை": 112,
      "is": 113,
      "▁m": 114,
      "▁அவர்": 115,
      "▁he": 116,
      "▁செ": 117,
      "ான": 118,
      "ற்ற": 119,
      "om": 120,
      "or": 121,
      "at": 122,
      "க்கு": 123,
      "ின": 124,
      "▁S": 125,
      "ில்ல": 126,
      "ing": 127,
      "வும்": 128,
      "ன்று": 129,
      "▁ஆ": 130,
      "ிக": 131,
      "ay": 132,
      "▁பெ": 133,
      "▁மு": 134,
      "ுவ": 135,
      "en": 136,
      "il": 137,
      "ால்": 138,
      "▁was": 139,
      "ைக": 140,
      "▁g": 141,
      "an": 142,
      "ம்ப": 143,
      "ன்ன": 144,
      "▁நா": 145,
      "es": 146,
      "▁The": 147,
      "▁இருந்த": 148,
      "im": 149,
      "▁தன": 150,
      "ம்ம": 151,
      "▁n": 152,
      "id": 153,
      "▁அவர்கள்": 154,
      "▁கொ": 155,
      "ளை": 156,
      "த்து": 157,
      "▁சிற": 158,
      "்த்த": 159,
      "ருக்க": 160,
      "ங்கள்": 161,
      "ண்": 162,
      "▁\"\"": 163,
      "▁ல": 164,
      "▁“": 165,
      "▁தனது": 166,
      "▁o": 167,
      "▁ha": 168,
      "ார்த்த": 169,
      "ந்து": 170,
      "▁கா": 171,
      "டு": 172,
      "ரும்ப": 173,
      "ளைய": 174,
      "▁sa": 175,
      "al": 176,
      "ுட": 177,
      "ினார்": 178,
      "ரிய": 179,
      "▁மிக": 180,
      "▁கூ": 181,
      "▁it": 182,
      "et": 183,
      "ின்": 184,
      "ிட": 185,
      "ாட": 186,
      "▁th": 187,
      "le": 188,
      "▁லில்ல": 189,
      "▁மிகவும்": 190,
      "▁சு": 191,
      "▁her": 192,
      "ுகிற": 193,
      "ிழ": 194,
      "▁கு": 195,
      "ல்ல": 196,
      "ள்ள": 197,
      "▁in": 198,
      "ir": 199,
      "▁விரும்ப": 200,
      "ய்": 201,
      "ot": 202,
      "▁விளைய": 203,
      "னால்": 204,
      "ிர": 205,
      "னர்": 206,
      "▁H": 207,
      "ிருந்த": 208,
      "ார்கள்": 209,
      "ோது": 210,
      "ாள்": 211,
      "ut": 212,
      "▁ஆனால்": 213,
      "மாக": 214,
      "ce": 215,
      "வு": 216,
      "ச்ச": 217,
      "▁L": 218,
      "டை": 219,
      "ow": 220,
      "▁பு": 221,
      "ில": 222,
      "த்தில்": 223,
      "▁என்று": 224,
      "ri": 225,
      "▁வே": 226,
      "ிப்ப": 227,
      "▁கொண்ட": 228,
      "▁லில்லி": 229,
      "▁கூற": 230,
      "▁A": 231,
      "ிக்க": 232,
      "▁be": 233,
      "ுடன்": 234,
      "am": 235,
      "ily": 236,
      "▁e": 237,
      "▁u": 238,
      "ver": 239,
      "▁டி": 240,
      "▁மக": 241,
      "மான": 242,
      "ck": 243,
      "ித்த": 244,
      "▁\"": 245,
      "்கள": 246,
      "▁மகிழ": 247,
      "ith": 248,
      "▁with": 249,
      "▁பார்த்த": 250,
      "▁of": 251,
      "ண்ப": 252,
      "ன்ப": 253,
      "ச்": 254,
      "்ச்ச": 255,
      "el": 256,
      "▁She": 257,
      "ig": 258,
      "▁தா": 259,
      "▁pl": 260,
      "▁Lily": 261,
      "▁st": 262,
      "oo": 263,
      "▁He": 264,
      "▁மகிழ்ச்ச": 265,
      "ுக்கு": 266,
      "னை": 267,
      "▁They": 268,
      "▁மற்ற": 269,
      "்கு": 270,
      "▁his": 271,
      "▁B": 272,
      "pp": 273,
      "▁r": 274,
      "▁அந்த": 275,
      "ும": 276,
      "ld": 277,
      "▁கே": 278,
      "ிடி": 279,
      "▁நண்ப": 280,
      "▁பொ": 281,
      "▁அது": 282,
      "ke": 283,
      "▁on": 284,
      "▁கதை": 285,
      "ாம்": 286,
      "▁விளையாட": 287,
      "ve": 288,
      "▁பெரிய": 289,
      "▁y": 290,
      "▁என்ற": 291,
      "▁அதை": 292,
      "▁சுருக்க": 293,
      "▁சுருக்கம்": 294,
      "த்தை": 295,
      "▁மகிழ்ச்சிய": 296,
      "ent": 297,
      "ad": 298,
      "▁O": 299,
      "▁கண்ட": 300,
      "▁ட": 301,
      "்கிற": 302,
      "▁play": 303,
      "ைக்": 304,
      "க்": 305,
      "டிய": 306,
      "um": 307,
      "▁பூ": 308,
      "▁said": 309,
      "▁she": 310,
      "று": 311,
      "▁அவரது": 312,
      "ாவ": 313,
      "▁On": 314,
      "nt": 315,
      "▁day": 316,
      "▁வெ": 317,
      "▁நீ": 318,
      "▁கால": 319,
      "▁I": 320,
      "ly": 321,
      "st": 322,
      "▁பா": 323,
      "ில்லை": 324,
      "▁இருந்தது": 325,
      "▁that": 326,
      "திய": 327,
      "▁வா": 328,
      "ரி": 329,
      "▁மற்றும்": 330,
      "ந்தார்": 331,
      "▁நாள்": 332,
      "போது": 333,
      "ஸ்": 334,
      "தற": 335,
      "ையும்": 336,
      "▁செய": 337,
      "▁they": 338,
      "end": 339,
      "ப்பு": 340,
      "த்": 341,
      "ைத்த": 342,
      "my": 343,
      "▁is": 344,
      "ch": 345,
      "▁mom": 346,
      "▁for": 347,
      "ையை": 348,
      "▁பற": 349,
      "ked": 350,
      "ion": 351,
      "ரை": 352,
      "very": 353,
      "▁up": 354,
      "her": 355,
      "▁you": 356,
      "▁அழ": 357,
      "ான்": 358,
      "▁Tim": 359,
      "▁அம்ம": 360,
      "▁so": 361,
      "ைகள்": 362,
      "▁ஜ": 363,
      "ண்டும்": 364,
      "▁ஏ": 365,
      "▁தொ": 366,
      "un": 367,
      "வை": 368,
      "ியை": 369,
      "ll": 370,
      "என்று": 371,
      "ிடம்": 372,
      "▁வீ": 373,
      "▁fri": 374,
      "வில்லை": 375,
      "▁நண்பர": 376,
      "▁M": 377,
      "▁but": 378,
      "▁friend": 379,
      "ங்கள": 380,
      "▁உத": 381,
      "itt": 382,
      "▁என்ப": 383,
      "▁விரும்பினார்": 384,
      "▁re": 385,
      "ருவ": 386,
      "se": 387,
      "▁உண": 388,
      "▁மே": 389,
      "டுத்த": 390,
      "லை": 391,
      "▁மீ": 392,
      "ிட்ட": 393,
      "▁wh": 394,
      "ுக்": 395,
      "ாகவும்": 396,
      "▁happ": 397,
      "வே": 398,
      "ருப்ப": 399,
      "▁காலத்தில்": 400,
      "▁sh": 401,
      "▁இருக்க": 402,
      "▁do": 403,
      "▁we": 404,
      "▁போ": 405,
      "▁சென்ற": 406,
      "ary": 407,
      "▁பய": 408,
      "▁W": 409,
      "ுள்ள": 410,
      "▁had": 411,
      "▁உதவ": 412,
      "▁முடிய": 413,
      "▁சா": 414,
      "out": 415,
      "ory": 416,
      "ind": 417,
      "ittle": 418,
      "▁big": 419,
      "▁பொம்ம": 420,
      "ண்ண": 421,
      "▁little": 422,
      "▁டிம்ம": 423,
      "▁ne": 424,
      "▁நட": 425,
      "▁செய்த": 426,
      "▁ஓ": 427,
      "ould": 428,
      "▁அத": 429,
      "ையில்": 430,
      "ome": 431,
      "▁இருந்தார்": 432,
      "ure": 433,
      "▁k": 434,
      "▁தி": 435,
      "▁want": 436,
      "▁அம்மா": 437,
      "▁என": 438,
      "ter": 439,
      "tory": 440,
      "▁தாய": 441,
      "▁not": 442,
      "றி": 443,
      "▁li": 444,
      "umm": 445,
      "▁an": 446,
      "ரும்": 447,
      "▁செய்": 448,
      "ummary": 449,
      "மைய": 450,
      "ore": 451,
      "▁நிற": 452,
      "▁Story": 453,
      "ேன்": 454,
      "ra": 455,
      "▁tim": 456,
      "ound": 457,
      "▁கேட்ட": 458,
      "▁முடி": 459,
      "▁D": 460,
      "▁கூறிய": 461,
      "ue": 462,
      "ht": 463,
      "ாம": 464,
      "▁E": 465,
      "▁happy": 466,
      "்வ": 467,
      "▁வார்த்த": 468,
      "ds": 469,
      "▁time": 470,
      "▁பே": 471,
      "▁கண்டு": 472,
      "ீர": 473,
      "டிக்க": 474,
      "▁F": 475,
      "▁lo": 476,
      "ைத்து": 477,
      "▁there": 478,
      "▁பிடி": 479,
      "▁விளையா": 480,
      "▁வார்த்தைகள்": 481,
      "▁டிம்": 482,
      "க்கிய": 483,
      "▁அவள்": 484,
      "ur": 485,
      "ுகிறார்": 486,
      "ide": 487,
      "▁as": 488,
      "▁very": 489,
      "ந்தது": 490,
      "ர்ந்து": 491,
      "ளிய": 492,
      "ுக்க": 493,
      "ிற்கு": 494,
      "▁சிறும": 495,
      "all": 496,
      "ake": 497,
      "▁உள்ள": 498,
      "▁An": 499,
      "ுள்ளார்": 500,
      "ற்ச": 501,
      "▁அவள": 502,
      "▁டிம்மி": 503,
      "est": 504,
      "ec": 505,
      "▁கூறியுள்ளார்": 506,
      "▁saw": 507,
      "▁One": 508,
      "▁bo": 509,
      "▁நான்": 510,
      "▁என்பதை": 511,
      "▁Summary": 512,
      "ack": 513,
      "வர": 514,
      "ic": 515,
      "ul": 516,
      "ry": 517,
      "▁கூறினார்": 518,
      "▁என்ன": 519,
      "ற்றி": 520,
      "▁ஒன்ற": 521,
      "▁him": 522,
      "ved": 523,
      "ப்போது": 524,
      "தற்கு": 525,
      "▁சொ": 526,
      "்களை": 527,
      "▁கொண்டிருந்த": 528,
      "▁hel": 529,
      "ப்பட": 530,
      "ish": 531,
      "▁sm": 532,
      "▁சிறிய": 533,
      "▁தொட": 534,
      "▁தே": 535,
      "றை": 536,
      "▁go": 537,
      "▁help": 538,
      "▁பார்த்தார்": 539,
      "ழு": 540,
      "ால": 541,
      "▁friends": 542,
      "▁சென்று": 543,
      "▁நீங்கள்": 544,
      "▁சூ": 545,
      "ug": 546,
      "▁nam": 547,
      "▁சிறுமி": 548,
      "ிருந்து": 549,
      "▁தெ": 550,
      "▁சிறப்ப": 551,
      "கு": 552,
      "▁பூங்க": 553,
      "▁முய": 554,
      "ம்ச": 555,
      "ெய": 556,
      "ப்பட்ட": 557,
      "ித்தார்": 558,
      "▁வெளிய": 559,
      "▁le": 560,
      "▁பி": 561,
      "▁வேண்டும்": 562,
      "ம்சங்கள்": 563,
      "▁து": 564,
      "ங்களை": 565,
      "▁கவ": 566,
      "ிவ": 567,
      "▁j": 568,
      "ைக்க": 569,
      "ருக்கு": 570,
      "▁It": 571,
      "ார்க": 572,
      "▁நே": 573,
      "▁Once": 574,
      "ords": 575,
      "ாத": 576,
      "irl": 577,
      "▁se": 578,
      "▁were": 579,
      "▁named": 580,
      "wer": 581,
      "▁வீட்ட": 582,
      "▁அனை": 583,
      "hen": 584,
      "rom": 585,
      "▁at": 586,
      "▁girl": 587,
      "ain": 588,
      "ill": 589,
      "▁sp": 590,
      "▁நன்ற": 591,
      "▁செய்ய": 592,
      "▁too": 593,
      "▁விளையாடி": 594,
      "வ்வ": 595,
      "▁Timmy": 596,
      "தில்": 597,
      "டைந்தார்": 598,
      "▁ர": 599,
      "▁out": 600,
      "▁upon": 601,
      "▁loo": 602,
      "▁மர": 603,
      "▁வெளியே": 604,
      "ures": 605,
      "ன்னக": 606,
      "▁புன்னக": 607,
      "▁இது": 608,
      "▁பார்க": 609,
      "swer": 610,
      "▁Tom": 611,
      "▁வேடிக்க": 612,
      "ful": 613,
      "▁கற்ற": 614,
      "▁J": 615,
      "!“": 616,
      "▁are": 617,
      "பிடி": 618,
      "ைகள": 619,
      "ark": 620,
      "▁கண்டுபிடி": 621,
      "▁அவர்கள": 622,
      "ிறது": 623,
      "ran": 624,
      "way": 625,
      "▁their": 626,
      "▁நண்பர்கள": 627,
      "▁them": 628,
      "▁எனவே": 629,
      "▁புதிய": 630,
      "ial": 631,
      "art": 632,
      "ation": 633,
      "!\"\"": 634,
      "▁wanted": 635,
      "ard": 636,
      "ுகள்": 637,
      "eat": 638,
      "ித்து": 639,
      "ுகிறார்கள்": 640,
      "▁Answer": 641,
      "▁செல்ல": 642,
      "▁கோ": 643,
      "▁bir": 644,
      "▁can": 645,
      "▁மெ": 646,
      "▁all": 647,
      "▁டாம்": 648,
      "▁have": 649,
      "are": 650,
      "ியும்": 651,
      "ிறார்": 652,
      "▁toy": 653,
      "வர்": 654,
      "டன்": 655,
      "▁did": 656,
      "▁மா": 657,
      "கா": 658,
      "தற்க": 659,
      "get": 660,
      "ியின்": 661,
      "and": 662,
      "▁went": 663,
      "னி": 664,
      "ட்டி": 665,
      "▁விளையாடுவ": 666,
      "▁வைத்த": 667,
      "க்கியம்": 668,
      "▁இருப்ப": 669,
      "▁மொ": 670,
      "▁எடு": 671,
      "ro": 672,
      "▁பிர": 673,
      "▁அழக": 674,
      "▁குற": 675,
      "ைகளை": 676,
      "ருத்த": 677,
      "▁could": 678,
      "▁நின": 679,
      "ஞ்ச": 680,
      "ாக்க": 681,
      "▁மீண்டும்": 682,
      "▁C": 683,
      "▁குழ": 684,
      "▁ex": 685,
      "gl": 686,
      "eatures": 687,
      "லி": 688,
      "மை": 689,
      "▁தோ": 690,
      "as": 691,
      "▁பென்": 692,
      "▁fun": 693,
      "▁சில": 694,
      "ியா": 695,
      "▁மூ": 696,
      "மிழ": 697,
      "▁பறவை": 698,
      "ak": 699,
      "gether": 700,
      "ood": 701,
      "ந்தை": 702,
      "ினர்": 703,
      "▁Words": 704,
      "▁தங்கள்": 705,
      "ிருக்க": 706,
      "▁ஒன்றாக": 707,
      "▁கவன": 708,
      "ட்டு": 709,
      "▁பின்ன": 710,
      "ுகிறது": 711,
      "one": 712,
      "ோம்": 713,
      "▁Ben": 714,
      "ைப்": 715,
      "▁cl": 716,
      "▁together": 717,
      "▁man": 718,
      "ிலிருந்து": 719,
      "ியது": 720,
      "ங்கு": 721,
      "▁குறிப்ப": 722,
      "▁sc": 723,
      "▁அண": 724,
      "op": 725,
      "வுக்கு": 726,
      "ழிப்ப": 727,
      "▁kn": 728,
      "▁சாப்ப": 729,
      "▁bird": 730,
      "▁பேச்ச": 731,
      "ame": 732,
      "rans": 733,
      "hing": 734,
      "ர்ப்பு": 735,
      "▁சிறப்பம்சங்கள்": 736,
      "▁அவருக்கு": 737,
      "▁நேர": 738,
      "தி": 739,
      "்கிறார்": 740,
      "▁En": 741,
      "ence": 742,
      "glish": 743,
      "▁உணர்": 744,
      "lation": 745,
      "ளி": 746,
      "மிழ்": 747,
      "▁முடிவு": 748,
      "ளையும்": 749,
      "▁சே": 750,
      "▁English": 751,
      "▁loved": 752,
      "▁Trans": 753,
      "▁தமிழ்": 754,
      "ெயர்ப்பு": 755,
      "▁மொழிப்ப": 756,
      "▁மொழிப்பெயர்ப்பு": 757,
      "▁Translation": 758,
      "▁find": 759,
      "டைந்த": 760,
      "தால்": 761,
      "ag": 762,
      "og": 763,
      "▁ஆர": 764,
      "▁பூங்காவ": 765,
      "▁வாக்கியம்": 766,
      "round": 767,
      "▁back": 768,
      "hed": 769,
      "ருக": 770,
      "ற்ப": 771,
      "தாக": 772,
      "side": 773,
      "▁சிறுவ": 774,
      "▁me": 775,
      "▁தொடங்க": 776,
      "▁ro": 777,
      "▁காட்ட": 778,
      "டின": 779,
      "ட்": 780,
      "▁bec": 781,
      "ையான": 782,
      "ght": 783,
      "்கிறார்கள்": 784,
      "▁எடுத்து": 785,
      "▁வழ": 786,
      "▁But": 787,
      "▁திரும்ப": 788,
      "▁al": 789,
      "▁ய": 790,
      "▁தாயார்": 791,
      "▁tre": 792,
      "▁இர": 793,
      "▁பல": 794,
      "▁அந்தப்": 795,
      "▁boy": 796,
      "ick": 797,
      "▁park": 798,
      "▁fel": 799,
      "த்திற்கு": 800,
      "ுகள": 801,
      "▁smil": 802,
      "ாது": 803,
      "▁get": 804,
      "▁குறிப்பில்ல": 805,
      "▁நல்ல": 806,
      "டுக்க": 807,
      "uest": 808,
      "ொரு": 809,
      "ியில்": 810,
      "ல்லை": 811,
      "▁கொண்டு": 812,
      "ுவது": 813,
      "சி": 814,
      "▁Features": 815,
      "▁பார்க்க": 816,
      "ிக்": 817,
      "▁பார்த்து": 818,
      "ol": 819,
      "லாம்": 820,
      "?“": 821,
      "uestion": 822,
      "ிறார்கள்": 823,
      "▁அழகான": 824,
      "▁from": 825,
      "ings": 826,
      "▁உங்கள": 827,
      "தையும்": 828,
      "▁new": 829,
      "▁குறிப்பில்லா": 830,
      "us": 831,
      "ong": 832,
      "▁பேச்சுவ": 833,
      "▁பேச்சுவார்த்த": 834,
      "▁பேச்சுவார்த்தை": 835,
      "arn": 836,
      "மையான": 837,
      "ுடைய": 838,
      "▁பிற": 839,
      "▁no": 840,
      "ist": 841,
      "▁நண்பர்கள்": 842,
      "omet": 843,
      "▁பின்னர்": 844,
      "ொண்ட": 845,
      "ாள": 846,
      "▁Q": 847,
      "ice": 848,
      "▁சோ": 849,
      "கி": 850,
      "▁ஒவ்வ": 851,
      "ாய": 852,
      "▁when": 853,
      "▁fe": 854,
      "▁வருத்த": 855,
      "ர்வ": 856,
      "▁fa": 857,
      "▁Question": 858,
      "▁நாய்": 859,
      "▁எப்போது": 860,
      "▁car": 861,
      "ாக்": 862,
      "▁தய": 863,
      "▁விஷ": 864,
      "வில்": 865,
      "▁ஸ்": 866,
      "▁சென்றார்": 867,
      "▁who": 868,
      "▁கட்ட": 869,
      "▁விஷய": 870,
      "ach": 871,
      "▁make": 872,
      "▁see": 873,
      "ையின்": 874,
      "▁dog": 875,
      "▁கட": 876,
      "▁asked": 877,
      "ab": 878,
      "▁start": 879,
      "own": 880,
      "▁அறி": 881,
      "ight": 882,
      "▁சிர": 883,
      "if": 884,
      "ogue": 885,
      "ிருந்தார்": 886,
      "ialogue": 887,
      "▁Dialogue": 888,
      "▁எப்போதும்": 889,
      "ையாக": 890,
      "▁மேல": 891,
      "▁கொள்ள": 892,
      "▁இந்த": 893,
      "▁somet": 894,
      "ாய்": 895,
      "▁முயற்ச": 896,
      "▁முடியும்": 897,
      "▁பிடித்த": 898,
      "▁பூங்காவில்": 899,
      "ோச": 900,
      "ess": 901,
      "▁some": 902,
      "தற்காக": 903,
      "▁ag": 904,
      "▁felt": 905,
      "ther": 906,
      "▁learn": 907,
      "▁playing": 908,
      "▁மேக்": 909,
      "▁wor": 910,
      "ax": 911,
      "▁செல": 912,
      "▁ch": 913,
      "▁sad": 914,
      "ell": 915,
      "ud": 916,
      "த்தம்": 917,
      "▁சிறுவன்": 918,
      "▁cat": 919,
      "▁கீ": 920,
      "ep": 921,
      "▁உய": 922,
      "மி": 923,
      "▁other": 924,
      "▁what": 925,
      "▁like": 926,
      "▁would": 927,
      "▁பறவ": 928,
      "?\"\"": 929,
      "▁டாம": 930,
      "ோத": 931,
      "ென": 932,
      "▁சுவ": 933,
      "▁வில": 934,
      "▁looked": 935,
      "▁away": 936,
      "▁பொம்மை": 937,
      "▁கீழ": 938,
      "ade": 939,
      "ared": 940,
      "▁உருவ": 941,
      "ற்சாக": 942,
      "▁உற்சாக": 943,
      "▁மகிழ்ச்சியாக": 944,
      "You": 945,
      "▁கர": 946,
      "▁R": 947,
      "▁தூ": 948,
      "▁found": 949,
      "▁நாம்": 950,
      "▁ab": 951,
      "ie": 952,
      "ook": 953,
      "▁home": 954,
      "ியாக": 955,
      "▁around": 956,
      "▁பென்ன": 957,
      "▁அனைவ": 958,
      "▁கார": 959,
      "ுகளை": 960,
      "▁குத": 961,
      "ous": 962,
      "ும்ப": 963,
      "▁நன்றி": 964,
      "ிப்பு": 965,
      "▁say": 966,
      "▁Max": 967,
      "ல்வ": 968,
      "ally": 969,
      "▁சாப்பிட": 970,
      "▁நண்பர்": 971,
      "▁சுற்றி": 972,
      "▁fl": 973,
      "▁சி": 974,
      "ம்ம்": 975,
      "▁தாய்": 976,
      "▁வரை": 977,
      "▁பிறகு": 978,
      "▁smiled": 979,
      "▁something": 980,
      "▁கண்டுபிடிக்க": 981,
      "றுதிய": 982,
      "ers": 983,
      "▁started": 984,
      "ட்க": 985,
      "▁பகி": 986,
      "ற்க": 987,
      "▁v": 988,
      "▁இட": 989,
      "▁திற": 990,
      "▁அவரை": 991,
      "pl": 992,
      "தல்": 993,
      "ையுடன்": 994,
      "▁அல்ல": 995,
      "▁புத்த": 996,
      "▁ஒவ்வொரு": 997,
      "▁அவளுக்கு": 998,
      "rou": 999,
      "▁பிடிக்க": 1000,
      "மா": 1001,
      "▁கண்டார்": 1002,
      "▁காண": 1003,
      "ருவரும்": 1004,
      "▁made": 1005,
      "ீர்கள்": 1006,
      "▁கேட்டார்": 1007,
      "▁நாள": 1008,
      "ny": 1009,
      "மாகவும்": 1010,
      "▁செய்தார்": 1011,
      "ாரா": 1012,
      "▁then": 1013,
      "▁சொன்ன": 1014,
      "▁by": 1015,
      "▁பூனை": 1016,
      "▁ball": 1017,
      "ாமல்": 1018,
      "▁again": 1019,
      "ுமா": 1020,
      "▁கற்றுக்க": 1021,
      "ண்டு": 1022,
      "ouse": 1023,
      "▁sent": 1024,
      "மும்": 1025,
      "▁tree": 1026,
      "ant": 1027,
      "▁அன": 1028,
      "ைத்தார்": 1029,
      "▁தெரி": 1030,
      "நாள்": 1031,
      "ிடீர": 1032,
      "ust": 1033,
      "▁every": 1034,
      "▁பெட்ட": 1035,
      "▁dec": 1036,
      "ap": 1037,
      "ட்டை": 1038,
      "ss": 1039,
      "▁தான்": 1040,
      "▁sentence": 1041,
      "▁தெரிய": 1042,
      "ிலும்": 1043,
      "▁good": 1044,
      "▁பகிர்ந்து": 1045,
      "▁உள்ளே": 1046,
      "▁திடீர": 1047,
      "▁அவளுடைய": 1048,
      "▁பாட": 1049,
      "▁things": 1050,
      "ற்று": 1051,
      "▁put": 1052,
      "▁wal": 1053,
      "ரைய": 1054,
      "▁நடந்து": 1055,
      "uck": 1056,
      "▁அனைவரும்": 1057,
      "▁அம்மாவ": 1058,
      "▁மீது": 1059,
      "ும்போது": 1060,
      "▁நி": 1061,
      "▁வந்த": 1062,
      "▁பெரு": 1063,
      "▁இல்லை": 1064,
      "andom": 1065,
      "▁வந்து": 1066,
      "▁feel": 1067,
      "aug": 1068,
      "▁செய்வ": 1069,
      "▁வேண்ட": 1070,
      "▁sw": 1071,
      "▁கற்றுக்": 1072,
      "▁bl": 1073,
      "லில்": 1074,
      "uch": 1075,
      "▁tri": 1076,
      "▁அள": 1077,
      "qu": 1078,
      "▁அறிந்த": 1079,
      "▁சிறந்த": 1080,
      "▁வீட்டிற்கு": 1081,
      "▁தன்ன": 1082,
      "ct": 1083,
      "ுவதை": 1084,
      "▁லில்லியும்": 1085,
      "▁mommy": 1086,
      "▁பெண்": 1087,
      "▁தவ": 1088,
      "▁நாய": 1089,
      "த்தின்": 1090,
      "▁ran": 1091,
      "▁came": 1092,
      "ited": 1093,
      "fter": 1094,
      "ite": 1095,
      "▁about": 1096,
      "கமாக": 1097,
      "▁en": 1098,
      "க்கி": 1099,
      "▁பண": 1100,
      "▁பட": 1101,
      "தன்": 1102,
      "ுகிறேன்": 1103,
      "▁மேக்ஸ்": 1104,
      "▁வய": 1105,
      "ிவப்பு": 1106,
      "ல்ப": 1107,
      "ort": 1108,
      "▁இருவரும்": 1109,
      "ர்ந்த": 1110,
      "த்தைக்": 1111,
      "த்துடன்": 1112,
      "▁Sam": 1113,
      "▁முழ": 1114,
      "▁அதற்கு": 1115,
      "▁look": 1116,
      "▁குட": 1117,
      "▁பைய": 1118,
      "ென்": 1119,
      "▁பயன்ப": 1120,
      "▁பாது": 1121,
      "ப்பா": 1122,
      "▁one": 1123,
      "▁scared": 1124,
      "▁int": 1125,
      "▁பற்றி": 1126,
      "▁பாதுகா": 1127,
      "ile": 1128,
      "▁நக": 1129,
      "fe": 1130,
      "▁care": 1131,
      "▁got": 1132,
      "▁கத": 1133,
      "▁அற": 1134,
      "▁வான": 1135,
      "▁கோப": 1136,
      "▁தீ": 1137,
      "our": 1138,
      "▁நன்றாக": 1139,
      "ves": 1140,
      "▁தெரிவ": 1141,
      "காச": 1142,
      "▁கி": 1143,
      "▁விரை": 1144,
      "▁சாம்": 1145,
      "▁பிரகாச": 1146,
      "ave": 1147,
      "▁exc": 1148,
      "▁உருவாக்க": 1149,
      "▁பயன்படுத்த": 1150,
      "▁அதன்": 1151,
      "▁புன்னகைத்து": 1152,
      "▁மேலும்": 1153,
      "▁toys": 1154,
      "hat": 1155,
      "▁கூட": 1156,
      "▁கொள": 1157,
      "▁வண்ண": 1158,
      "னும்": 1159,
      "ச்சரிய": 1160,
      "ற்றை": 1161,
      "▁திடீரென": 1162,
      "▁பொரு": 1163,
      "▁கவனமாக": 1164,
      "▁ஆச்சரிய": 1165,
      "▁கீழே": 1166,
      "▁சந்த": 1167,
      "▁down": 1168,
      "▁co": 1169,
      "▁pre": 1170,
      "▁You": 1171,
      "▁அதிக": 1172,
      "▁more": 1173,
      "▁didn": 1174,
      "▁அச": 1175,
      "தாகவும்": 1176,
      "ought": 1177,
      "▁தனக்கு": 1178,
      "▁கொண்டார்": 1179,
      "▁உணர்ந்தார்": 1180,
      "▁திருப்ப": 1181,
      "ate": 1182,
      "▁outside": 1183,
      "▁ஊ": 1184,
      "▁பெற": 1185,
      "▁முடியவில்லை": 1186,
      "▁or": 1187,
      "ளவு": 1188,
      "ள்வ": 1189,
      "▁தயார": 1190,
      "ணி": 1191,
      "▁குள": 1192,
      "ive": 1193,
      "▁Mom": 1194,
      "ுகிறாள்": 1195,
      "▁ஓடி": 1196,
      "▁played": 1197,
      "▁ke": 1198,
      "▁இருந்து": 1199,
      "▁அல": 1200,
      "pped": 1201,
      "▁decid": 1202,
      "▁தண்ண": 1203,
      "ise": 1204,
      "▁விலங்க": 1205,
      "▁ஒன்று": 1206,
      "use": 1207,
      "்ப": 1208,
      "▁பூங்கா": 1209,
      "▁hug": 1210,
      "ற்கள்": 1211,
      "▁சாரா": 1212,
      "டைந்து": 1213,
      "▁will": 1214,
      "ுவதும்": 1215,
      "▁அருக": 1216,
      "▁pe": 1217,
      "ுவிட்ட": 1218,
      "▁லில்லியின்": 1219,
      "▁than": 1220,
      "▁com": 1221,
      "ித்தனர்": 1222,
      "ened": 1223,
      "ways": 1224,
      "▁eat": 1225,
      "▁ஒருநாள்": 1226,
      "ace": 1227,
      "▁விரும்பவில்லை": 1228,
      "▁பெய": 1229,
      "▁அன்ன": 1230,
      "▁நிறை": 1231,
      "▁liked": 1232,
      "▁always": 1233,
      "udd": 1234,
      "▁தல": 1235,
      "▁dad": 1236,
      "▁Random": 1237,
      "nder": 1238,
      "ast": 1239,
      "▁உயர": 1240,
      "▁எனக்கு": 1241,
      "▁says": 1242,
      "தைக்": 1243,
      "▁உங்கள்": 1244,
      "ிருந்தது": 1245,
      "iz": 1246,
      "ின்ற": 1247,
      "வாக": 1248,
      "டைய": 1249,
      "ருங்கள்": 1250,
      "ause": 1251,
      "க்குச்": 1252,
      "▁தோட்ட": 1253,
      "▁வாங்க": 1254,
      "ரையாட": 1255,
      "ிகளை": 1256,
      "▁சரி": 1257,
      "்சி": 1258,
      "▁சூரிய": 1259,
      "▁decided": 1260,
      "▁mo": 1261,
      "▁பெற்ற": 1262,
      "▁your": 1263,
      "▁செல்வ": 1264,
      "ில்லி": 1265,
      "ரையாடல்": 1266,
      "▁பந்தை": 1267,
      "▁லூ": 1268,
      "▁im": 1269,
      "here": 1270,
      "▁excited": 1271,
      "ுத்த": 1272,
      "▁கூறுகிறார்": 1273,
      "▁po": 1274,
      "▁இருந்தான்": 1275,
      "ந்தனர்": 1276,
      "▁ad": 1277,
      "த்தைப்": 1278,
      "▁பழ": 1279,
      "▁பாதுகாப்ப": 1280,
      "ிகள்": 1281,
      "▁ப்": 1282,
      "▁into": 1283,
      "ty": 1284,
      "▁தன்": 1285,
      "▁my": 1286,
      "▁அம்சங்கள்": 1287,
      "▁மியா": 1288,
      "▁மல": 1289,
      "▁பத": 1290,
      "▁செய்து": 1291,
      "uc": 1292,
      "▁how": 1293,
      "▁பயண": 1294,
      "▁gra": 1295,
      "▁கொண்டிருந்தபோது": 1296,
      "▁ஏத": 1297,
      "▁house": 1298,
      "▁இருந்தனர்": 1299,
      "ரையில்": 1300,
      "ink": 1301,
      "▁thought": 1302,
      "▁அவளை": 1303,
      "other": 1304,
      "▁took": 1305,
      "ையைப்": 1306,
      "▁உங்களுக்கு": 1307,
      "▁ஆக": 1308,
      "▁அன்ப": 1309,
      "▁Her": 1310,
      "ving": 1311,
      "▁வேடிக்கையாக": 1312,
      "▁bu": 1313,
      "▁வீடு": 1314,
      "▁சக": 1315,
      "▁குடும்ப": 1316,
      "▁te": 1317,
      "▁இன்ன": 1318,
      "▁அவை": 1319,
      "ிருப்ப": 1320,
      "▁show": 1321,
      "▁பூங்காவுக்கு": 1322,
      "▁lot": 1323,
      "ac": 1324,
      "ாவது": 1325,
      "▁விளையாடுவதை": 1326,
      "▁kne": 1327,
      "▁அவர்களுக்கு": 1328,
      "▁நம்ப": 1329,
      "▁விரும்பின": 1330,
      "▁பொம்மைகள": 1331,
      "ப்பி": 1332,
      "▁know": 1333,
      "ென்ச": 1334,
      "த்திர": 1335,
      "▁என்பது": 1336,
      "▁குழந்த": 1337,
      "்கிறது": 1338,
      "▁மகிழ்ச்சி": 1339,
      "▁op": 1340,
      "ந்திர": 1341,
      "▁old": 1342,
      "▁fi": 1343,
      "▁வாழ": 1344,
      "்கிறாள்": 1345,
      "▁many": 1346,
      "ge": 1347,
      "▁So": 1348,
      "▁விளையாடிக்": 1349,
      "▁because": 1350,
      "ங்களில்": 1351,
      "▁பறந்து": 1352,
      "▁நேரம்": 1353,
      "▁When": 1354,
      "ொருவ": 1355,
      "▁ஜாக்": 1356,
      "▁water": 1357,
      "ொள": 1358,
      "▁நண்பர்களுடன்": 1359,
      "▁மத": 1360,
      "ven": 1361,
      "ara": 1362,
      "▁ho": 1363,
      "▁ஆர்வ": 1364,
      "na": 1365,
      "ecial": 1366,
      "▁take": 1367,
      "▁கிட": 1368,
      "▁any": 1369,
      "▁எழு": 1370,
      "ிறேன்": 1371,
      "▁நாளும்": 1372,
      "▁kind": 1373,
      "ect": 1374,
      "urn": 1375,
      "ob": 1376,
      "▁கேட்க": 1377,
      "ிப்பிடி": 1378,
      "ிகள": 1379,
      "▁கட்டிப்பிடி": 1380,
      "▁box": 1381,
      "▁சிவப்பு": 1382,
      "▁br": 1383,
      "▁முடியுமா": 1384,
      "▁மெல்ல": 1385,
      "த்தையும்": 1386,
      "▁கடை": 1387,
      "▁small": 1388,
      "▁பையன்": 1389,
      "▁un": 1390,
      "▁முழுவதும்": 1391,
      "▁கண": 1392,
      "▁போல": 1393,
      "▁அழைத்து": 1394,
      "▁மென்": 1395,
      "▁இன்னும்": 1396,
      "▁இற": 1397,
      "▁போது": 1398,
      "ிக்கிறார்": 1399,
      "டினார்": 1400,
      "▁நோ": 1401,
      "▁sun": 1402,
      "▁much": 1403,
      "▁புத்தக": 1404,
      "▁எடுத்த": 1405,
      "▁அனைத்து": 1406,
      "▁over": 1407,
      "▁நினை": 1408,
      "ாலும்": 1409,
      "▁ஸ்ப": 1410,
      "▁laug": 1411,
      "▁need": 1412,
      "▁அன்ற": 1413,
      "▁sk": 1414,
      "▁எவ்வ": 1415,
      "நான்": 1416,
      "▁”": 1417,
      "▁மனி": 1418,
      "▁ஆரம்ப": 1419,
      "▁பார்": 1420,
      "▁special": 1421,
      "ஸ்க": 1422,
      "▁வேடிக்கை": 1423,
      "▁மற": 1424,
      "▁இனி": 1425,
      "urp": 1426,
      "▁con": 1427,
      "▁mak": 1428,
      "்க்க": 1429,
      "ia": 1430,
      "▁careful": 1431,
      "▁குர": 1432,
      "▁imp": 1433,
      "ies": 1434,
      "ித்தது": 1435,
      "imal": 1436,
      "etter": 1437,
      "மானது": 1438,
      "ber": 1439,
      "▁Sara": 1440,
      "▁each": 1441,
      "▁விழு": 1442,
      "▁ஓட": 1443,
      "▁walk": 1444,
      "ump": 1445,
      "ப்படி": 1446,
      "▁inside": 1447,
      "▁animal": 1448,
      "▁ஏற்ப": 1449,
      "▁gre": 1450,
      "hes": 1451,
      "vent": 1452,
      "ானது": 1453,
      "▁இறுதிய": 1454,
      "▁படுக்க": 1455,
      "ர்ச்ச": 1456,
      "▁sl": 1457,
      "ild": 1458,
      "▁knew": 1459,
      "▁முயன்ற": 1460,
      "▁விச": 1461,
      "▁run": 1462,
      "▁மகிழ்ச்சியடைந்த": 1463,
      "▁உதவி": 1464,
      "▁pret": 1465,
      "▁வர": 1466,
      "ியைப்": 1467,
      "▁முன்ப": 1468,
      "▁ஒன்றை": 1469,
      "▁நண்பர்களாக": 1470,
      "ணை": 1471,
      "▁இள": 1472,
      "▁room": 1473,
      "▁us": 1474,
      "▁cle": 1475,
      "udden": 1476,
      "வர்கள": 1477,
      "▁மன்ன": 1478,
      "▁அவர்களை": 1479,
      "▁யோச": 1480,
      "ine": 1481,
      "▁அன்னா": 1482,
      "ுத": 1483,
      "▁கொண்டிருந்தார்": 1484,
      "▁இப்போது": 1485,
      "▁உரையாடல்": 1486,
      "▁நெ": 1487,
      "ியுடன்": 1488,
      "நீ": 1489,
      "▁பேச": 1490,
      "▁இரண்டு": 1491,
      "விட": 1492,
      "▁இருந்தன": 1493,
      "▁bear": 1494,
      "▁பரி": 1495,
      "os": 1496,
      "ப்படுத்த": 1497,
      "▁கரடி": 1498,
      "oth": 1499,
      "ொருவர்": 1500,
      "▁அமை": 1501,
      "▁From": 1502,
      "dy": 1503,
      "▁எடுத்துச்": 1504,
      "ருடன்": 1505,
      "oy": 1506,
      "ுவதற்கு": 1507,
      "▁கிர": 1508,
      "▁tw": 1509,
      "▁விட": 1510,
      "▁off": 1511,
      "▁வல": 1512,
      "▁அப்போது": 1513,
      "▁அழைத்துச்": 1514,
      "▁if": 1515,
      "uddenly": 1516,
      "▁Anna": 1517,
      "wn": 1518,
      "லம்": 1519,
      "▁told": 1520,
      "▁தரையில்": 1521,
      "ict": 1522,
      "▁சென்றது": 1523,
      "▁அதைப்": 1524,
      "ின்றன": 1525,
      "▁வச": 1526,
      "▁சாக": 1527,
      "▁உணர": 1528,
      "சை": 1529,
      "ma": 1530,
      "▁அம": 1531,
      "▁சாகச": 1532,
      "▁tr": 1533,
      "▁tried": 1534,
      "▁வேடிக்கையான": 1535,
      "▁best": 1536,
      "▁விளையாடினர்": 1537,
      "ச்சல": 1538,
      "ிட்டு": 1539,
      "▁அனு": 1540,
      "▁சேர்ந்து": 1541,
      "▁சிறப்பு": 1542,
      "▁ஹ": 1543,
      "▁ஒருவ": 1544,
      "able": 1545,
      "க்கம்": 1546,
      "▁இழ": 1547,
      "தம்": 1548,
      "▁pick": 1549,
      "▁Sue": 1550,
      "ிச": 1551,
      "▁காய": 1552,
      "ஸ்ட": 1553,
      "▁while": 1554,
      "ged": 1555,
      "▁அணி": 1556,
      "▁சத்த": 1557,
      "▁வந்தார்": 1558,
      "▁கடின": 1559,
      "▁அறிந்திருந்தார்": 1560,
      "urt": 1561,
      "▁சத்தம்": 1562,
      "ிக்கும்": 1563,
      "▁கன": 1564,
      "▁Jo": 1565,
      "▁இருக்கிறது": 1566,
      "ரில்": 1567,
      "em": 1568,
      "▁expl": 1569,
      "ழை": 1570,
      "▁அவற்றை": 1571,
      "▁dis": 1572,
      "ங்கே": 1573,
      "ிறாள்": 1574,
      "▁இருக்கும்": 1575,
      "▁Jack": 1576,
      "▁உட": 1577,
      "▁has": 1578,
      "ர்கள்": 1579,
      "▁தண்ணீ": 1580,
      "▁கொள்வ": 1581,
      "ப்பட்டார்": 1582,
      "▁வந்தது": 1583,
      "▁fo": 1584,
      "▁gave": 1585,
      "▁நில": 1586,
      "▁long": 1587,
      "▁அடைந்தார்": 1588,
      "▁சகோத": 1589,
      "ர்ப": 1590,
      "▁பதில": 1591,
      "▁காத்த": 1592,
      "ுமு": 1593,
      "▁என்": 1594,
      "▁சீ": 1595,
      "▁வைத்து": 1596,
      "roud": 1597,
      "▁எல்ல": 1598,
      "▁proud": 1599,
      "ft": 1600,
      "▁gr": 1601,
      "ip": 1602,
      "▁விரும்பினர்": 1603,
      "▁Then": 1604,
      "▁பார்த்தனர்": 1605,
      "ars": 1606,
      "▁விஷயங்களை": 1607,
      "▁மறை": 1608,
      "▁after": 1609,
      "▁wat": 1610,
      "லா": 1611,
      "ம்ம்ம்ம்": 1612,
      "▁col": 1613,
      "▁புன்னகையுடன்": 1614,
      "▁couldn": 1615,
      "▁learned": 1616,
      "▁உல": 1617,
      "▁flow": 1618,
      "▁திரு": 1619,
      "▁better": 1620,
      "சிய": 1621,
      "gh": 1622,
      "▁திரும்பி": 1623,
      "▁சுவையான": 1624,
      "ank": 1625,
      "▁His": 1626,
      "▁சொற்கள்": 1627,
      "urpr": 1628,
      "▁P": 1629,
      "▁முடியாது": 1630,
      "மே": 1631,
      "▁தூங்க": 1632,
      "▁Tw": 1633,
      "▁பந்து": 1634,
      "▁நேச": 1635,
      "▁டாமும்": 1636,
      "ase": 1637,
      "▁Mia": 1638,
      "Summary": 1639,
      "▁never": 1640,
      "▁தொடங்கினார்": 1641,
      "▁surpr": 1642,
      "ையைக்": 1643,
      "▁நாங்கள்": 1644,
      "▁end": 1645,
      "ream": 1646,
      "▁sn": 1647,
      "ூச்ச": 1648,
      "▁நப": 1649,
      "▁just": 1650,
      "elf": 1651,
      "▁வேண்டிய": 1652,
      "மடைந்தார்": 1653,
      "ople": 1654,
      "▁உள்ளது": 1655,
      "▁fam": 1656,
      "▁கார்": 1657,
      "right": 1658,
      "ொண்டார்": 1659,
      "▁விரைவில்": 1660,
      "▁ஈ": 1661,
      "▁try": 1662,
      "▁தோன்ற": 1663,
      "▁its": 1664,
      "▁தந்த": 1665,
      "▁Suddenly": 1666,
      "▁தொலை": 1667,
      "▁பொம்மைகளுடன்": 1668,
      "ுங்கள்": 1669,
      "▁பொருட": 1670,
      "th": 1671,
      "▁காட்டில்": 1672,
      "▁hand": 1673,
      "▁அங்கு": 1674,
      "▁unt": 1675,
      "▁this": 1676,
      "▁பொம்மையை": 1677,
      "▁உண்": 1678,
      "▁பொம்மைகளை": 1679,
      "▁வேகமாக": 1680,
      "▁மகிழ்ச்சியுடன்": 1681,
      "வர்கள்": 1682,
      "▁பூன": 1683,
      "iny": 1684,
      "ian": 1685,
      "▁until": 1686,
      "▁வைத்திருக்க": 1687,
      "▁அவர்களின்": 1688,
      "▁che": 1689,
      "▁முன்பு": 1690,
      "▁பதில்": 1691,
      "▁கேட்டாள்": 1692,
      "orry": 1693,
      "▁மக்க": 1694,
      "▁கேட்டது": 1695,
      "ance": 1696,
      "▁வைக்க": 1697,
      "▁வீச": 1698,
      "▁share": 1699,
      "aut": 1700,
      "▁முர": 1701,
      "▁விரும்பும்": 1702,
      "▁சுத்தம்": 1703,
      "ல்புகள்": 1704,
      "ஆம்": 1705,
      "ியல்புகள்": 1706,
      "▁animals": 1707,
      "▁Sp": 1708,
      "▁லூசி": 1709,
      "ம்மா": 1710,
      "▁தந்தை": 1711,
      "▁அதில்": 1712,
      "▁சிறி": 1713,
      "igh": 1714,
      "▁ஐ": 1715,
      "▁வழங்க": 1716,
      "▁அன்றிலிருந்து": 1717,
      "ool": 1718,
      "▁போன": 1719,
      "▁rem": 1720,
      "▁உங்களை": 1721,
      "▁முக்கிய": 1722,
      "போதும்": 1723,
      "▁மி": 1724,
      "▁நட்ப": 1725,
      "மாறு": 1726,
      "▁முக": 1727,
      "▁உடை": 1728,
      "arden": 1729,
      "▁We": 1730,
      "ுமுனை": 1731,
      "த்தார்": 1732,
      "▁clean": 1733,
      "▁திருப்புமுனை": 1734,
      "les": 1735,
      "▁And": 1736,
      "▁garden": 1737,
      "▁நிறைய": 1738,
      "▁சரிய": 1739,
      "▁தேவை": 1740,
      "▁red": 1741,
      "▁beaut": 1742,
      "ய்வ": 1743,
      "▁even": 1744,
      "▁கரு": 1745,
      "ub": 1746,
      "▁தொடர்ந்து": 1747,
      "▁கழ": 1748,
      "▁சிறிது": 1749,
      "ாரி": 1750,
      "ிக்கிறது": 1751,
      "▁அறை": 1752,
      "▁கல": 1753,
      "ised": 1754,
      "▁விட்டு": 1755,
      "▁nice": 1756,
      "ang": 1757,
      "▁இருப்பதை": 1758,
      "வேன": 1759,
      "age": 1760,
      "போ": 1761,
      "▁மாற": 1762,
      "fore": 1763,
      "gry": 1764,
      "ில்வேன": 1765,
      "▁திர": 1766,
      "Words": 1767,
      "▁கற்றுக்கொள": 1768,
      "▁people": 1769,
      "▁பெற்றோ": 1770,
      "▁ஒருபோதும்": 1771,
      "▁அர": 1772,
      "மு": 1773,
      "டைக": 1774,
      "▁sorry": 1775,
      "▁heard": 1776,
      "▁import": 1777,
      "▁பிரகாசமான": 1778,
      "ங்": 1779,
      "▁ஏற": 1780,
      "ாட்": 1781,
      "▁under": 1782,
      "▁qu": 1783,
      "▁rock": 1784,
      "ங்களுக்கு": 1785,
      "▁எவ்வளவு": 1786,
      "▁அவரால்": 1787,
      "▁எதி": 1788,
      "▁தலைய": 1789,
      "▁எப்படி": 1790,
      "னுடன்": 1791,
      "ree": 1792,
      "▁விரும்புகிறார்": 1793,
      "ull": 1794,
      "ble": 1795,
      "▁வள": 1796,
      "▁being": 1797,
      "▁family": 1798,
      "பெ": 1799,
      "▁fast": 1800,
      "▁fore": 1801,
      "oud": 1802,
      "▁don": 1803,
      "▁list": 1804,
      "iful": 1805,
      "▁பூங்காவுக்குச்": 1806,
      "▁விளையாடின": 1807,
      "வரை": 1808,
      "▁Every": 1809,
      "▁கொடுத்த": 1810,
      "ady": 1811,
      "ucy": 1812,
      "▁beautiful": 1813,
      "ித்துக்": 1814,
      "▁hurt": 1815,
      "ென்ற": 1816,
      "▁நடன": 1817,
      "▁ஆட": 1818,
      "▁real": 1819,
      "▁jump": 1820,
      "▁Lucy": 1821,
      "▁As": 1822,
      "▁pr": 1823,
      "▁சொன்னார்": 1824,
      "▁சென்றபோது": 1825,
      "▁way": 1826,
      "க்கும்": 1827,
      "▁முதல்": 1828,
      "▁sky": 1829,
      "▁மோச": 1830,
      "joy": 1831,
      "rong": 1832,
      "▁உறுதிய": 1833,
      "▁சென்றனர்": 1834,
      "▁டெ": 1835,
      "ிட்டார்": 1836,
      "ன்னெ": 1837,
      "▁safe": 1838,
      "▁செய்தனர்": 1839,
      "▁both": 1840,
      "▁முடிந்தது": 1841,
      "பவ": 1842,
      "▁பெட்டியை": 1843,
      "▁food": 1844,
      "▁bra": 1845,
      "மையாக": 1846,
      "▁நடந்தது": 1847,
      "▁பிடிக்கும்": 1848,
      "ில்வேனியா": 1849,
      "▁நீல": 1850,
      "lew": 1851,
      "▁keep": 1852,
      "▁fly": 1853,
      "தில்லை": 1854,
      "ning": 1855,
      "▁சமைய": 1856,
      "கமான": 1857,
      "வி": 1858,
      "▁காரை": 1859,
      "▁ar": 1860,
      "▁gl": 1861,
      "▁before": 1862,
      "▁நினைத்தார்": 1863,
      "▁பாற": 1864,
      "▁book": 1865,
      "▁Spot": 1866,
      "கம்": 1867,
      "▁finds": 1868,
      "க்கை": 1869,
      "▁அப்ப": 1870,
      "▁அவரிடம்": 1871,
      "▁அமைதிய": 1872,
      "▁மரத்தின்": 1873,
      "▁விட்ட": 1874,
      "லில்லி": 1875,
      "ock": 1876,
      "▁இல": 1877,
      "▁enjoy": 1878,
      "▁turn": 1879,
      "▁நகர": 1880,
      "ிச்ச": 1881,
      "்களா": 1882,
      "▁என்றார்": 1883,
      "▁தொடங்கியது": 1884,
      "▁அனுபவ": 1885,
      "▁நன்னெ": 1886,
      "▁கை": 1887,
      "▁Hence": 1888,
      "▁நன்னெறி": 1889,
      "▁work": 1890,
      "▁விரும்புகிறேன்": 1891,
      "ுக்காக": 1892,
      "▁பென்னும்": 1893,
      "▁எடுத்துக்": 1894,
      "▁பிடித்து": 1895,
      "▁pretty": 1896,
      "▁lived": 1897,
      "self": 1898,
      "ினாள்": 1899,
      "▁தாயிடம்": 1900,
      "▁இருந்ததால்": 1901,
      "▁laughed": 1902,
      "ff": 1903,
      "▁ac": 1904,
      "ount": 1905,
      "ிசால": 1906,
      "▁யோசனை": 1907,
      "்க்கு": 1908,
      "▁come": 1909,
      "▁மதிப்பு": 1910,
      "▁Bob": 1911,
      "ெட்ட": 1912,
      "▁புத்திசால": 1913,
      "தும்": 1914,
      "pt": 1915,
      "▁இத": 1916,
      "ass": 1917,
      "▁பின்": 1918,
      "▁சோகமாக": 1919,
      "▁டிம்மியின்": 1920,
      "▁மறு": 1921,
      "▁பார்த்துக்": 1922,
      "▁fish": 1923,
      "ress": 1924,
      "▁call": 1925,
      "யிற": 1926,
      "▁war": 1927,
      "▁விள": 1928,
      "▁app": 1929,
      "▁where": 1930,
      "▁hugged": 1931,
      "▁அருகே": 1932,
      "▁கேட": 1933,
      "▁mag": 1934,
      "▁மண": 1935,
      "▁தோட்டத்தில்": 1936,
      "oral": 1937,
      "▁பூக்க": 1938,
      "▁பார்த்தபோது": 1939,
      "▁குளி": 1940,
      "▁பெருமி": 1941,
      "ர்கள": 1942,
      "▁hard": 1943,
      "▁அப்பா": 1944,
      "▁ரோ": 1945,
      "▁tak": 1946,
      "▁cu": 1947,
      "▁வருவ": 1948,
      "Yes": 1949,
      "▁நீண்ட": 1950,
      "லைப்பட": 1951,
      "▁கடி": 1952,
      "▁கொண்டனர்": 1953,
      "ரிக்க": 1954,
      "▁மென்மையான": 1955,
      "மீ": 1956,
      "ியைக்": 1957,
      "▁எதிர்ப": 1958,
      "▁பயந்து": 1959,
      "▁குறி": 1960,
      "▁இரவு": 1961,
      "▁ஏன்": 1962,
      "▁நிர": 1963,
      "▁உற்சாகமாக": 1964,
      "▁பாப்": 1965,
      "ீர்களா": 1966,
      "▁வருந்த": 1967,
      "▁cont": 1968,
      "ich": 1969,
      "ங்கி": 1970,
      "▁ஜோ": 1971,
      "▁உணவு": 1972,
      "xt": 1973,
      "▁பார்ப்ப": 1974,
      "▁wind": 1975,
      "▁உணவை": 1976,
      "▁பெருமிதம்": 1977,
      "▁சுற்ற": 1978,
      "▁சிக்க": 1979,
      "▁போக": 1980,
      "▁stay": 1981,
      "▁ஏன": 1982,
      "▁உணவ": 1983,
      "▁துணி": 1984,
      "▁advent": 1985,
      "▁அல்லது": 1986,
      "ப்பை": 1987,
      "ர்க்க": 1988,
      "▁lots": 1989,
      "ிக்கிறார்கள்": 1990,
      "▁நிறுத்த": 1991,
      "தான்": 1992,
      "▁வயது": 1993,
      "▁After": 1994,
      "sh": 1995,
      "▁let": 1996,
      "▁கிள": 1997,
      "Th": 1998,
      "illy": 1999,
      "▁N": 2000,
      "ely": 2001,
      "ூட்ட": 2002,
      "▁இரு": 2003,
      "▁குழப்ப": 2004,
      "▁shiny": 2005,
      "▁பட்ட": 2006,
      "▁அன்பான": 2007,
      "ினார்கள்": 2008,
      "▁கண்டனர்": 2009,
      "ரமான": 2010,
      "▁bad": 2011,
      "▁பாத": 2012,
      "▁own": 2013,
      "▁loud": 2014,
      "▁அற்ப": 2015,
      "▁ஜெ": 2016,
      "▁ask": 2017,
      "▁ஓடினார்": 2018,
      "▁ஸ்பாட்": 2019,
      "owing": 2020,
      "▁குறித்து": 2021,
      "ting": 2022,
      "▁store": 2023,
      "▁ஒருவருக்க": 2024,
      "▁still": 2025,
      "▁சிந்த": 2026,
      "▁தேவ": 2027,
      "தைப்": 2028,
      "▁does": 2029,
      "ious": 2030,
      "by": 2031,
      "▁ஒருவருக்கொருவர்": 2032,
      "▁became": 2033,
      "▁dra": 2034,
      "▁கொண்டிருந்தது": 2035,
      "▁tra": 2036,
      "▁அற்புத": 2037,
      "▁பயப்பட": 2038,
      "▁மகிழ்": 2039,
      "▁முத": 2040,
      "▁G": 2041,
      "▁மாற்ற": 2042,
      "bed": 2043,
      "▁color": 2044,
      "▁bre": 2045,
      "▁ஏதாவது": 2046,
      "▁மீன": 2047,
      "▁பென்ச": 2048,
      "அவர்": 2049,
      "▁சகோதர": 2050,
      "▁மகிழ்ச்சியான": 2051,
      "▁கடற்க": 2052,
      "ail": 2053,
      "▁அச்ச": 2054,
      "ற்றில்": 2055,
      "indian": 2056,
      "ென்சென்ச": 2057,
      "▁மிட்ட": 2058,
      "▁அன்று": 2059,
      "▁பொருட்களை": 2060,
      "▁சொல்ல": 2061,
      "▁மூலம்": 2062,
      "▁மந்திர": 2063,
      "▁தின": 2064,
      "▁புக": 2065,
      "▁மரத்தில்": 2066,
      "▁முயன்றார்": 2067,
      "சா": 2068,
      "▁வாச": 2069,
      "▁clim": 2070,
      "iss": 2071,
      "▁தன்னை": 2072,
      "▁fin": 2073,
      "▁forest": 2074,
      "▁பூச்ச": 2075,
      "▁இய": 2076,
      "▁சூரியன்": 2077,
      "hn": 2078,
      "▁per": 2079,
      "ண்டை": 2080,
      "▁பாதுகாப்பாக": 2081,
      "▁வந்தபோது": 2082,
      "▁பென்னி": 2083,
      "▁love": 2084,
      "▁விரும்புகிற": 2085,
      "ried": 2086,
      "▁என்றும்": 2087,
      "▁மனித": 2088,
      "▁எனது": 2089,
      "யில": 2090,
      "ுகளில்": 2091,
      "▁ப்ள": 2092,
      "▁நிறைவு": 2093,
      "▁walked": 2094,
      "▁கண்டுபிடித்து": 2095,
      "▁ground": 2096,
      "▁cook": 2097,
      "▁helps": 2098,
      "▁making": 2099,
      "▁காட": 2100,
      "▁thanked": 2101,
      "சு": 2102,
      "▁far": 2103,
      "தா": 2104,
      "▁அதனுடன்": 2105,
      "▁சிறப்பியல்புகள்": 2106,
      "▁flew": 2107,
      "co": 2108,
      "▁John": 2109,
      "▁வீட்டில்": 2110,
      "▁de": 2111,
      "▁எண்ண": 2112,
      "▁கொடுக்க": 2113,
      "▁பொற": 2114,
      "▁பீ": 2115,
      "▁tal": 2116,
      "ியம்": 2117,
      "ched": 2118,
      "Features": 2119,
      "▁கண்டுபிடித்த": 2120,
      "▁திறந்து": 2121,
      "▁அடி": 2122,
      "▁பின": 2123,
      "நீங்கள்": 2124,
      "▁going": 2125,
      "▁clos": 2126,
      "▁உறுதியள": 2127,
      "▁அடைந்த": 2128,
      "ங்களையும்": 2129,
      "▁rain": 2130,
      "▁எதிர்பார": 2131,
      "▁சமையல": 2132,
      "▁நினைவ": 2133,
      "ane": 2134,
      "ணக்கம்": 2135,
      "மையாகவும்": 2136,
      "▁ஜான்": 2137,
      "▁two": 2138,
      "ுடனும்": 2139,
      "▁புத": 2140,
      "▁எல": 2141,
      "பி": 2142,
      "தான": 2143,
      "▁learns": 2144,
      "▁இல்ல": 2145,
      "ரத்த": 2146,
      "▁fr": 2147,
      "▁உள்ளன": 2148,
      "▁பாட்ட": 2149,
      "▁கூடாது": 2150,
      "▁bro": 2151,
      "ாட்ட": 2152,
      "▁ஏதோ": 2153,
      "▁இறுதியில்": 2154,
      "kay": 2155,
      "ப்பட்டது": 2156,
      "ந்துவிட்ட": 2157,
      "▁நீந்த": 2158,
      "▁முயற்சி": 2159,
      "▁அனும": 2160,
      "▁magic": 2161,
      "இல்லை": 2162,
      "▁ஒளி": 2163,
      "▁குக்க": 2164,
      "ைக்கு": 2165,
      "▁அம்மாவுடன்": 2166,
      "▁தெரிவித்தார்": 2167,
      "▁மூன்று": 2168,
      "▁தண்ணீர்": 2169,
      "▁இருக்கிற": 2170,
      "▁எதிர்பாராத": 2171,
      "ேய": 2172,
      "▁நோக்கி": 2173,
      "ாளமான": 2174,
      "ன்றி": 2175,
      "அம்மா": 2176,
      "ொட": 2177,
      "லாக": 2178,
      "▁ரச": 2179,
      "▁mean": 2180,
      "▁ஏர": 2181,
      "றுக்க": 2182,
      "ரிடம்": 2183,
      "▁வேண்டாம்": 2184,
      "bit": 2185,
      "ுவிட": 2186,
      "ater": 2187,
      "ளப": 2188,
      "▁முறை": 2189,
      "▁next": 2190,
      "ied": 2191,
      "டுத்து": 2192,
      "▁feeling": 2193,
      "▁குக்கீ": 2194,
      "▁சூட": 2195,
      "▁உணர்ந்த": 2196,
      "தற்கான": 2197,
      "▁விருந்த": 2198,
      "▁கம்ப": 2199,
      "▁மட்ட": 2200,
      "▁lea": 2201,
      "▁brave": 2202,
      "▁பெண்ண": 2203,
      "eet": 2204,
      "▁தலையச": 2205,
      "ைகளையும்": 2206,
      "irst": 2207,
      "▁வேறு": 2208,
      "யமான": 2209,
      "▁bed": 2210,
      "▁ஏராளமான": 2211,
      "▁தாயும்": 2212,
      "▁place": 2213,
      "▁fav": 2214,
      "▁pict": 2215,
      "▁dif": 2216,
      "▁should": 2217,
      "▁முரண்ப": 2218,
      "▁goes": 2219,
      "னமான": 2220,
      "ிட்டது": 2221,
      "▁happened": 2222,
      "ண்டி": 2223,
      "ளபள": 2224,
      "▁குதித்து": 2225,
      "ாகி": 2226,
      "▁வீட்டுக்கு": 2227,
      "▁அம்மாவிடம்": 2228,
      "▁பளபள": 2229,
      "▁doll": 2230,
      "▁விமான": 2231,
      "▁வருக": 2232,
      "ாச": 2233,
      "▁முதிய": 2234,
      "▁ஆப்பி": 2235,
      "▁Twist": 2236,
      "ாடுகள்": 2237,
      "▁am": 2238,
      "▁del": 2239,
      "வச": 2240,
      "▁வாழ்": 2241,
      "▁கதவை": 2242,
      "▁நேரங்களில்": 2243,
      "▁வைத்திருந்தார்": 2244,
      "ழுவ": 2245,
      "▁தை": 2246,
      "ிடம": 2247,
      "▁listen": 2248,
      "▁பின்த": 2249,
      "▁door": 2250,
      "ished": 2251,
      "▁சிரித்து": 2252,
      "▁பின்தொட": 2253,
      "▁part": 2254,
      "ummy": 2255,
      "ருத்துவ": 2256,
      "▁எத": 2257,
      "▁now": 2258,
      "▁கேட்டு": 2259,
      "orm": 2260,
      "▁ide": 2261,
      "▁great": 2262,
      "▁கரடிய": 2263,
      "oon": 2264,
      "▁நட்பு": 2265,
      "▁In": 2266,
      "▁realiz": 2267,
      "▁தைரிய": 2268,
      "▁குழந்தை": 2269,
      "▁வசித்து": 2270,
      "▁ஆகிய": 2271,
      "▁picked": 2272,
      "▁blue": 2273,
      "▁சொந்த": 2274,
      "unny": 2275,
      "▁அதி": 2276,
      "▁gets": 2277,
      "▁ஒருவர்": 2278,
      "ன்னி": 2279,
      "!\"": 2280,
      "▁மருத்துவ": 2281,
      "▁முயல்": 2282,
      "▁explore": 2283,
      "fl": 2284,
      "▁கட்டிப்பிடித்து": 2285,
      "so": 2286,
      "▁வெற்றி": 2287,
      "▁important": 2288,
      "ைப்ப": 2289,
      "▁வேலை": 2290,
      "ாட்ச": 2291,
      "▁மாக்": 2292,
      "▁தலை": 2293,
      "▁அம்மாவும்": 2294,
      "▁நபர்": 2295,
      "▁முட்ட": 2296,
      "▁angry": 2297,
      "abbit": 2298,
      "▁cry": 2299,
      "கை": 2300,
      "▁பறக்க": 2301,
      "செ": 2302,
      "▁காட்டினார்": 2303,
      "யமாக": 2304,
      "ரம்": 2305,
      "▁நாய்க்கு": 2306,
      "▁புற": 2307,
      "▁சம": 2308,
      "▁give": 2309,
      "▁கீழ்": 2310,
      "ைகளில்": 2311,
      "ய்ய": 2312,
      "▁தாயின்": 2313,
      "▁wo": 2314,
      "▁tell": 2315,
      "▁favor": 2316,
      "▁idea": 2317,
      "▁ஸ்லை": 2318,
      "▁மற்றவர்கள": 2319,
      "▁also": 2320,
      "▁mon": 2321,
      "ough": 2322,
      "▁மோ": 2323,
      "▁பழைய": 2324,
      "▁மட்டும": 2325,
      "▁watch": 2326,
      "▁buy": 2327,
      "ைப்பட": 2328,
      "▁noise": 2329,
      "▁favorite": 2330,
      "க்குள்": 2331,
      "களை": 2332,
      "ங்களைக்": 2333,
      "▁rabbit": 2334,
      "nts": 2335,
      "▁சொன்னாள்": 2336,
      "alue": 2337,
      "▁பயணம்": 2338,
      "▁வீட்டை": 2339,
      "▁near": 2340,
      "▁வடி": 2341,
      "்சத்திர": 2342,
      "▁truck": 2343,
      "▁sto": 2344,
      "day": 2345,
      "▁use": 2346,
      "▁தங்க": 2347,
      "▁â": 2348,
      "▁கற்ப": 2349,
      "▁ஆன": 2350,
      "▁போன்ற": 2351,
      "▁பர": 2352,
      "▁மேக்ஸ": 2353,
      "▁கொடுத்தார்": 2354,
      "டைப்ப": 2355,
      "▁கால்": 2356,
      "leep": 2357,
      "▁called": 2358,
      "▁lost": 2359,
      "▁அடுத்த": 2360,
      "ற்றம்": 2361,
      "▁உரி": 2362,
      "ets": 2363,
      "ுவதற்காக": 2364,
      "்ர": 2365,
      "ிடமிருந்து": 2366,
      "▁high": 2367,
      "▁விலங்குகள": 2368,
      "▁கற்றுக்கொண்டார்": 2369,
      "▁repl": 2370,
      "▁முடிந்த": 2371,
      "▁விளையாடுவதையும்": 2372,
      "thing": 2373,
      "▁ஸ்ட": 2374,
      "▁காத்திருக்க": 2375,
      "▁சிங்க": 2376,
      "ாவை": 2377,
      "▁kept": 2378,
      "ுக்கும்": 2379,
      "ப்பாற்ற": 2380,
      "▁அற்புதமான": 2381,
      "ைத்துக்": 2382,
      "▁squ": 2383,
      "▁மெது": 2384,
      "▁பச": 2385,
      "ear": 2386,
      "gan": 2387,
      "ட்ப": 2388,
      "It": 2389,
      "▁லில்லிக்கு": 2390,
      "▁flowers": 2391,
      "▁butter": 2392,
      "▁டெடி": 2393,
      "▁தேன": 2394,
      "▁opened": 2395,
      "ச்சை": 2396,
      "ர்ச்சிய": 2397,
      "ெடுக்க": 2398,
      "▁அடைய": 2399,
      "▁கூச்சல": 2400,
      "Thank": 2401,
      "▁முக்கியம்": 2402,
      "ுகின்றன": 2403,
      "றுத்த": 2404,
      "ண்ணா": 2405,
      "▁cake": 2406,
      "pect": 2407,
      "▁முரண்பாடுகள்": 2408,
      "ெட்": 2409,
      "▁வலி": 2410,
      "்து": 2411,
      "▁முயற்சிக்க": 2412,
      "▁தொப்ப": 2413,
      "▁gi": 2414,
      "ொள்ள": 2415,
      "▁rest": 2416,
      "▁அணிந்த": 2417,
      "fere": 2418,
      "▁பார்க்கிறார்கள்": 2419,
      "▁தேட": 2420,
      "த்திலிருந்து": 2421,
      "▁நிறைந்த": 2422,
      "ராக": 2423,
      "▁வெளியேற": 2424,
      "▁தோன்றியது": 2425,
      "▁அழகாக": 2426,
      "▁முன்": 2427,
      "ஞ்சள்": 2428,
      "யில்": 2429,
      "▁remem": 2430,
      "▁கடினமாக": 2431,
      "▁தெரியாது": 2432,
      "▁பதிலள": 2433,
      "ிரீ": 2434,
      "ர்த்த": 2435,
      "▁fix": 2436,
      "€": 2437,
      "த்துவ": 2438,
      "▁இணை": 2439,
      "▁strong": 2440,
      "ens": 2441,
      "▁helped": 2442,
      "ஸ்கிரீ": 2443,
      "▁கிடைக்க": 2444,
      "Let": 2445,
      "▁மனிதன்": 2446,
      "▁bel": 2447,
      "▁soon": 2448,
      "▁கொண்டிருந்தனர்": 2449,
      "▁pare": 2450,
      "ிகழ": 2451,
      "▁மஞ்சள்": 2452,
      "மடைந்த": 2453,
      "▁படி": 2454,
      "அது": 2455,
      "ம்மி": 2456,
      "▁நினைக்க": 2457,
      "▁சுழ": 2458,
      "▁which": 2459,
      "▁அருகில்": 2460,
      "▁மட்டுமே": 2461,
      "மாம்": 2462,
      "be": 2463,
      "▁surprised": 2464,
      "▁everyone": 2465,
      "▁ஏறி": 2466,
      "▁wait": 2467,
      "லைப்": 2468,
      "▁pain": 2469,
      "ஞ்சம்": 2470,
      "▁differe": 2471,
      "▁விர": 2472,
      "▁ஒருவர": 2473,
      "▁makes": 2474,
      "ுவார்": 2475,
      "ானை": 2476,
      "டுங்கள்": 2477,
      "இது": 2478,
      "▁வலுவ": 2479,
      "ded": 2480,
      "▁போட": 2481,
      "▁pro": 2482,
      "▁முதலில்": 2483,
      "▁game": 2484,
      "▁தங்கள": 2485,
      "ங்களைப்": 2486,
      "▁இறுதியாக": 2487,
      "uff": 2488,
      "▁மாட்ட": 2489,
      "ted": 2490,
      "▁boat": 2491,
      "▁காகி": 2492,
      "ப்பான": 2493,
      "▁பற்ற": 2494,
      "▁first": 2495,
      "▁ஐஸ்கிரீ": 2496,
      "▁become": 2497,
      "▁மக்கள்": 2498,
      "▁less": 2499,
      "▁ever": 2500,
      "க்குவ": 2501,
      "▁கேக்": 2502,
      "▁வடிவ": 2503,
      "மையாள": 2504,
      "▁stick": 2505,
      "▁res": 2506,
      "டனும்": 2507,
      "ுவதையும்": 2508,
      "▁இருப்பது": 2509,
      "▁நட்சத்திர": 2510,
      "▁நிகழ": 2511,
      "▁உரிமையாள": 2512,
      "▁think": 2513,
      "ெனில்": 2514,
      "▁ஆப": 2515,
      "▁பள்ள": 2516,
      "▁மன்னிப்பு": 2517,
      "▁bunny": 2518,
      "rel": 2519,
      "▁ஏற்படுத்த": 2520,
      "▁அந்தச்": 2521,
      "▁z": 2522,
      "▁தேனீ": 2523,
      "▁தண்ணீர": 2524,
      "▁மாக்ஸ்": 2525,
      "ath": 2526,
      "▁இளவர": 2527,
      "▁பின்ப": 2528,
      "▁மேற்க": 2529,
      "▁talk": 2530,
      "▁வேண்டியிருந்தது": 2531,
      "orn": 2532,
      "▁மரம்": 2533,
      "▁போட்ட": 2534,
      "▁ஓவ": 2535,
      "செய": 2536,
      "▁மேலே": 2537,
      "▁மற்றொரு": 2538,
      "▁வாத்து": 2539,
      "▁dress": 2540,
      "▁காணாமல்": 2541,
      "▁மகிழ்ந்தனர்": 2542,
      "ired": 2543,
      "▁அனுமத": 2544,
      "ins": 2545,
      "்களைப்": 2546,
      "ச்சல்": 2547,
      "▁கொள்கிறார்கள்": 2548,
      "imil": 2549,
      "ப்பட்டு": 2550,
      "▁ஆர்வமாக": 2551,
      "▁foll": 2552,
      "▁bus": 2553,
      "ிலை": 2554,
      "ம்ம்ம்ம்ம்ம்ம்ம்": 2555,
      "▁remember": 2556,
      "What": 2557,
      "ுற": 2558,
      "ாறு": 2559,
      "▁கூறியது": 2560,
      "▁அலம": 2561,
      "▁நடக்க": 2562,
      "ிக்கு": 2563,
      "▁வண்ணம": 2564,
      "▁மழை": 2565,
      "▁என்பதைப்": 2566,
      "▁சாலி": 2567,
      "ித்திர": 2568,
      "▁ey": 2569,
      "▁முக்கியத்துவ": 2570,
      "▁வக": 2571,
      "ose": 2572,
      "anc": 2573,
      "▁warm": 2574,
      "▁ஜாக்க": 2575,
      "▁slide": 2576,
      "டுப்ப": 2577,
      "▁பார்த்தாள்": 2578,
      "▁nod": 2579,
      "என": 2580,
      "வாய": 2581,
      "▁wants": 2582,
      "▁parents": 2583,
      "பட": 2584,
      "நன்றி": 2585,
      "▁showed": 2586,
      "▁K": 2587,
      "▁walking": 2588,
      "▁காற்று": 2589,
      "▁sand": 2590,
      "▁குழந்தைகள": 2591,
      "▁துணிச்சல": 2592,
      "▁replied": 2593,
      "▁அட": 2594,
      "▁cra": 2595,
      "air": 2596,
      "▁Th": 2597,
      "▁பந்த": 2598,
      "வள்": 2599,
      "▁பெருமை": 2600,
      "more": 2601,
      "▁நினைத்த": 2602,
      "▁cre": 2603,
      "▁fro": 2604,
      "த்துப்ப": 2605,
      "▁Mommy": 2606,
      "ient": 2607,
      "▁brother": 2608,
      "▁ஆழ": 2609,
      "▁different": 2610,
      "▁ஸ்க": 2611,
      "▁having": 2612,
      "▁anymore": 2613,
      "▁ஜி": 2614,
      "No": 2615,
      "▁துண்ட": 2616,
      "சரி": 2617,
      "▁நின்று": 2618,
      "▁sees": 2619,
      "▁stopped": 2620,
      "▁நு": 2621,
      "oney": 2622,
      "ாரம்": 2623,
      "ியிடம்": 2624,
      "▁உதவிய": 2625,
      "ign": 2626,
      "▁பெட்டி": 2627,
      "▁yell": 2628,
      "ர்ந்தார்": 2629,
      "டைந்தது": 2630,
      "▁முற்ற": 2631,
      "▁பலூ": 2632,
      "▁உதவுகிறார்": 2633,
      "aring": 2634,
      "▁இன": 2635,
      "ph": 2636,
      "▁looking": 2637,
      "▁விளையாடினார்": 2638,
      "வ்": 2639,
      "▁night": 2640,
      "▁Benny": 2641,
      "▁ஜேன்": 2642,
      "▁child": 2643,
      "▁பொம்மைகள்": 2644,
      "▁பில்லி": 2645,
      "▁Moral": 2646,
      "zy": 2647,
      "▁செல்கிறார்கள்": 2648,
      "க்காக": 2649,
      "▁உயரமான": 2650,
      "▁எடுக்க": 2651,
      "▁ri": 2652,
      "▁அந்தக்": 2653,
      "ாவின்": 2654,
      "வேறு": 2655,
      "க்கார": 2656,
      "▁adventure": 2657,
      "ளிப்ப": 2658,
      "▁கவனித்தார்": 2659,
      "▁fall": 2660,
      "ாமா": 2661,
      "▁தனியாக": 2662,
      "▁contin": 2663,
      "▁உருவா": 2664,
      "row": 2665,
      "என்ன": 2666,
      "▁disco": 2667,
      "▁head": 2668,
      "▁இருங்கள்": 2669,
      "▁பாசா": 2670,
      "▁ஏனெனில்": 2671,
      "▁pu": 2672,
      "த்துப்பூச்ச": 2673,
      "▁அப்போத": 2674,
      "▁forg": 2675,
      "ஞ்சிவப்பு": 2676,
      "▁catch": 2677,
      "cess": 2678,
      "▁செய்கிற": 2679,
      "▁used": 2680,
      "▁பின்னால்": 2681,
      "▁இளஞ்சிவப்பு": 2682,
      "ேயே": 2683,
      "▁தயாரிக்க": 2684,
      "▁kid": 2685,
      "▁right": 2686,
      "▁curi": 2687,
      "▁sing": 2688,
      "▁smile": 2689,
      "▁ஜன்ன": 2690,
      "▁mouse": 2691,
      "▁சாப்பிட்ட": 2692,
      "▁நாட": 2693,
      "ppy": 2694,
      "▁வண்ணத்துப்பூச்ச": 2695,
      "வீ": 2696,
      "ருக்கும்": 2697,
      "▁அவளால்": 2698,
      "▁கொஞ்சம்": 2699,
      "lease": 2700,
      "▁செய்கிறார்கள்": 2701,
      "▁தொட்ட": 2702,
      "▁நம்ம": 2703,
      "▁பாசாங்கு": 2704,
      "Value": 2705,
      "▁prom": 2706,
      "▁இழு": 2707,
      "செய்து": 2708,
      "▁MoralValue": 2709,
      "▁open": 2710,
      "▁தயவு": 2711,
      "▁விழுந்து": 2712,
      "▁இருந்தாள்": 2713,
      "▁டே": 2714,
      "▁okay": 2715,
      "▁jo": 2716,
      "▁விழ": 2717,
      "▁பென்சில்வேனியா": 2718,
      "▁சிறு": 2719,
      "▁கொள்கிறார்": 2720,
      "▁நாளை": 2721,
      "▁உறு": 2722,
      "▁bug": 2723,
      "ியர்": 2724,
      "▁எந்த": 2725,
      "▁நம": 2726,
      "▁ஆராய": 2727,
      "▁உன்ன": 2728,
      "▁விலங்குகள்": 2729,
      "▁விசித்திர": 2730,
      "▁மீன்": 2731,
      "▁கடைக்குச்": 2732,
      "iced": 2733,
      "▁இணைந்து": 2734,
      "ுகளையும்": 2735,
      "ey": 2736,
      "▁prin": 2737,
      "றையில்": 2738,
      "ுமாறு": 2739,
      "▁story": 2740,
      "▁ஒல": 2741,
      "▁சிறப்பான": 2742,
      "்களையும்": 2743,
      "▁மெதுவாக": 2744,
      "▁Dad": 2745,
      "ger": 2746,
      "ுவோம்": 2747,
      "led": 2748,
      "▁fell": 2749,
      "▁ஓட்ட": 2750,
      "itc": 2751,
      "ex": 2752,
      "▁discover": 2753,
      "▁தார்": 2754,
      "▁அவ்வ": 2755,
      "▁sound": 2756,
      "யிலில்": 2757,
      "▁அப்போதிருந்து": 2758,
      "▁தார்மீ": 2759,
      "▁அறையில்": 2760,
      "▁குழந்தைகள்": 2761,
      "ster": 2762,
      "ம்பு": 2763,
      "▁curious": 2764,
      "▁three": 2765,
      "▁வைத்தார்": 2766,
      "▁சரியான": 2767,
      "▁என்பதையும்": 2768,
      "aught": 2769,
      "▁mother": 2770,
      "▁பதிலாக": 2771,
      "ndma": 2772,
      "▁ஆரம்பித்தார்": 2773,
      "▁break": 2774,
      "▁happily": 2775,
      "▁flower": 2776,
      "முள்ள": 2777,
      "▁விளையாட்ட": 2778,
      "▁கவலைப்பட": 2779,
      "▁காப்பாற்ற": 2780,
      "▁stop": 2781,
      "That": 2782,
      "▁Con": 2783,
      "▁நண்பரை": 2784,
      "▁acc": 2785,
      "▁வேல": 2786,
      "▁frog": 2787,
      "▁build": 2788,
      "▁fire": 2789,
      "▁mess": 2790,
      "▁பேச்சைக்": 2791,
      "▁கதையின்": 2792,
      "▁வெளியில்": 2793,
      "▁புன்னகைத்தார்": 2794,
      "▁தினமும்": 2795,
      "ident": 2796,
      "▁லீ": 2797,
      "▁Sarah": 2798,
      "லுக்கு": 2799,
      "▁friendly": 2800,
      "▁indian": 2801,
      "▁ice": 2802,
      "▁காகித": 2803,
      "▁விரைவாக": 2804,
      "▁தவளை": 2805,
      "fly": 2806,
      "ஷ்ட": 2807,
      "maz": 2808,
      "▁birds": 2809,
      "▁புல்ல": 2810,
      "ற்செய": 2811,
      "▁அனைத்தையும்": 2812,
      "ையாகவும்": 2813,
      "▁climb": 2814,
      "▁நண்பர்களும்": 2815,
      "ித்தாள்": 2816,
      "▁குடும்பத்த": 2817,
      "▁amaz": 2818,
      "▁Wh": 2819,
      "▁பாருங்கள்": 2820,
      "▁செல்கிறார்": 2821,
      "eddy": 2822,
      "▁தற்செய": 2823,
      "▁விற": 2824,
      "▁இனிமே": 2825,
      "▁யார": 2826,
      "▁hands": 2827,
      "▁ஜே": 2828,
      "▁தற்செயலாக": 2829,
      "▁ஆர்வம்": 2830,
      "▁ஆராய்": 2831,
      "▁பெட்டியில்": 2832,
      "▁விரும்பினாள்": 2833,
      "uit": 2834,
      "▁தனக்குப்": 2835,
      "▁படுக்கை": 2836,
      "▁பை": 2837,
      "▁பகு": 2838,
      "▁takes": 2839,
      "ைகளைப்": 2840,
      "▁பயந்தார்": 2841,
      "flict": 2842,
      "▁அம்மாவுக்கு": 2843,
      "▁nodded": 2844,
      "▁மோசமான": 2845,
      "ிருந்தனர்": 2846,
      "▁ஓடிச்": 2847,
      "னம்": 2848,
      "imilar": 2849,
      "▁புன்னகைத்த": 2850,
      "▁Billy": 2851,
      "▁lesson": 2852,
      "ually": 2853,
      "சொ": 2854,
      "▁கண்டது": 2855,
      "ியுள்ள": 2856,
      "▁முதியவர்": 2857,
      "்களுடன்": 2858,
      "▁only": 2859,
      "▁திட்ட": 2860,
      "ரின்": 2861,
      "▁thing": 2862,
      "▁நண்பர்களை": 2863,
      "▁விளக்க": 2864,
      "சொற்கள்": 2865,
      "▁Fore": 2866,
      "shad": 2867,
      "நா": 2868,
      "▁அவரைப்": 2869,
      "்று": 2870,
      "ment": 2871,
      "▁quick": 2872,
      "shadowing": 2873,
      "▁eyes": 2874,
      "▁அணிந்து": 2875,
      "▁dro": 2876,
      "nding": 2877,
      "▁நிம": 2878,
      "▁butterfly": 2879,
      "▁cut": 2880,
      "▁read": 2881,
      "▁நினைவில்": 2882,
      "▁யா": 2883,
      "▁inc": 2884,
      "▁Foreshadowing": 2885,
      "தற்கும்": 2886,
      "▁Bad": 2887,
      "▁கோட்ட": 2888,
      "னுக்கு": 2889,
      "ைகளைக்": 2890,
      "▁கிடைத்த": 2891,
      "த்துடனும்": 2892,
      "▁பெயர்": 2893,
      "▁கொண்டிருக்க": 2894,
      "ப்படுகிறது": 2895,
      "▁பார்த்தார்கள்": 2896,
      "▁grab": 2897,
      "▁எதிர": 2898,
      "▁இறுக்க": 2899,
      "▁எச்ச": 2900,
      "▁hop": 2901,
      "▁பிடித்துக்": 2902,
      "▁hat": 2903,
      "ிலேயே": 2904,
      "▁others": 2905,
      "ென்று": 2906,
      "▁yummy": 2907,
      "▁sleep": 2908,
      "▁அவளிடம்": 2909,
      "▁பார்க்கிறார்": 2910,
      "மாட": 2911,
      "ஸி": 2912,
      "▁beh": 2913,
      "ாலி": 2914,
      "ானும்": 2915,
      "▁Conflict": 2916,
      "itchen": 2917,
      "ையையும்": 2918,
      "▁பரிச": 2919,
      "▁follow": 2920,
      "▁BadE": 2921,
      "▁BadEnding": 2922,
      "▁குரல்": 2923,
      "▁green": 2924,
      "▁din": 2925,
      "ிக்கிறேன்": 2926,
      "kes": 2927,
      "▁Amy": 2928,
      "▁kitchen": 2929,
      "▁பச்சை": 2930,
      "▁அணைத்துக்": 2931,
      "▁குதிர": 2932,
      "▁farm": 2933,
      "ity": 2934,
      "▁lady": 2935,
      "▁அலமார": 2936,
      "▁சென்றார்கள்": 2937,
      "▁பழு": 2938,
      "▁வண்ணமயமான": 2939,
      "▁சால": 2940,
      "▁left": 2941,
      "வராக": 2942,
      "▁திறக்க": 2943,
      "▁ஆகும்": 2944,
      "irrel": 2945,
      "▁ate": 2946,
      "▁மாறி": 2947,
      "imes": 2948,
      "▁டாமி": 2949,
      "ிருப்பதை": 2950,
      "▁எலி": 2951,
      "▁vis": 2952,
      "▁சேக": 2953,
      "▁வருத்தப்பட்டார்": 2954,
      "▁loves": 2955,
      "aper": 2956,
      "▁கேர": 2957,
      "per": 2958,
      "▁பன": 2959,
      "றிய": 2960,
      "▁குச்ச": 2961,
      "▁தெரியவில்லை": 2962,
      "▁draw": 2963,
      "▁கூடிய": 2964,
      "▁perf": 2965,
      "▁அக": 2966,
      "▁ஒருவரைய": 2967,
      "▁ஒருவரையொருவர்": 2968,
      "லைக்": 2969,
      "▁Sally": 2970,
      "▁tired": 2971,
      "ாதீர்கள்": 2972,
      "▁உதவுகிறது": 2973,
      "▁noticed": 2974,
      "▁been": 2975,
      "oice": 2976,
      "ென்றால்": 2977,
      "▁face": 2978,
      "▁realized": 2979,
      "▁கட்டி": 2980,
      "▁உயிர": 2981,
      "aybe": 2982,
      "▁டெய": 2983,
      "▁wonder": 2984,
      "▁சுத்த": 2985,
      "▁குளிர": 2986,
      "▁பன்னி": 2987,
      "▁செய்வது": 2988,
      "▁watched": 2989,
      "▁பெயரில்": 2990,
      "▁light": 2991,
      "▁dri": 2992,
      "▁squirrel": 2993,
      "லும்": 2994,
      "▁விஷயங்கள்": 2995,
      "▁block": 2996,
      "▁சவ": 2997,
      "த்தைத்": 2998,
      "rough": 2999,
      "▁கோபு": 3000,
      "▁கடு": 3001,
      "▁சட்ட": 3002,
      "▁sure": 3003,
      "▁விளையாட்டு": 3004,
      "▁உதவியுடன்": 3005,
      "▁kids": 3006,
      "▁ஒப்ப": 3007,
      "▁விளையாடும்போது": 3008,
      "▁பாட்டி": 3009,
      "▁pond": 3010,
      "ுவதாக": 3011,
      "▁காலண": 3012,
      "▁delic": 3013,
      "▁வரும்": 3014,
      "ren": 3015,
      "▁sho": 3016,
      "ாரண": 3017,
      "▁through": 3018,
      "ங்கிருந்து": 3019,
      "▁jumped": 3020,
      "ாவ்": 3021,
      "▁உரு": 3022,
      "▁bright": 3023,
      "▁worry": 3024,
      "▁வானத்தில்": 3025,
      "▁hot": 3026,
      "▁duck": 3027,
      "ears": 3028,
      "▁அதைச்": 3029,
      "isy": 3030,
      "▁பயங்க": 3031,
      "▁கைத": 3032,
      "▁செல்லும்": 3033,
      "▁உணவுக்கு": 3034,
      "▁பிள": 3035,
      "▁தவறு": 3036,
      "▁நடனமாட": 3037,
      "▁flo": 3038,
      "▁sweet": 3039,
      "▁our": 3040,
      "ுவதில்": 3041,
      "▁படக": 3042,
      "▁நடைப்ப": 3043,
      "▁How": 3044,
      "▁hair": 3045,
      "▁mus": 3046,
      "▁இருக்கிறார்கள்": 3047,
      "▁சென்றாள்": 3048,
      "▁அவர்களிடம்": 3049,
      "▁முன": 3050,
      "▁cand": 3051,
      "▁வயதான": 3052,
      "pected": 3053,
      "▁accident": 3054,
      "▁உலக": 3055,
      "▁உட்க": 3056,
      "முட": 3057,
      "omes": 3058,
      "▁quickly": 3059,
      "▁படகு": 3060,
      "TM": 3061,
      "ated": 3062,
      "ெல்ல": 3063,
      "ret": 3064,
      "▁might": 3065,
      "▁Jane": 3066,
      "ன்ஸ்": 3067,
      "வேளை": 3068,
      "▁அஞ்ச": 3069,
      "▁அவருடன்": 3070,
      "▁surprise": 3071,
      "bo": 3072,
      "▁தேடி": 3073,
      "▁டால": 3074,
      "க்கூ": 3075,
      "▁ஆபத்த": 3076,
      "▁soft": 3077,
      "▁Let": 3078,
      "த்திற்குச்": 3079,
      "▁ஒருவேளை": 3080,
      "▁தெரியும்": 3081,
      "▁பனி": 3082,
      "▁tast": 3083,
      "லாமா": 3084,
      "▁ste": 3085,
      "▁வரவே": 3086,
      "▁படிக்க": 3087,
      "வல": 3088,
      "▁swim": 3089,
      "▁கனவு": 3090,
      "bye": 3091,
      "▁துணிச்சலான": 3092,
      "▁bag": 3093,
      "▁நினைத்து": 3094,
      "der": 3095,
      "▁comp": 3096,
      "ையைச்": 3097,
      "▁dream": 3098,
      "▁ஆனார்கள்": 3099,
      "த்தனை": 3100,
      "av": 3101,
      "▁cold": 3102,
      "▁வழியாக": 3103,
      "▁விய": 3104,
      "ர்வு": 3105,
      "▁கேட்ப": 3106,
      "▁hid": 3107,
      "▁பணியா": 3108,
      "▁வெட்ட": 3109,
      "▁hole": 3110,
      "▁விளையாட்டை": 3111,
      "ண்டைய": 3112,
      "▁himself": 3113,
      "ken": 3114,
      "ோடு": 3115,
      "பா": 3116,
      "▁பணம்": 3117,
      "▁தள்ள": 3118,
      "▁dr": 3119,
      "▁closer": 3120,
      "▁மை": 3121,
      "▁shout": 3122,
      "▁ret": 3123,
      "▁funny": 3124,
      "▁உயரமாக": 3125,
      "▁voice": 3126,
      "▁another": 3127,
      "▁செய்தது": 3128,
      "▁dark": 3129,
      "▁pull": 3130,
      "ike": 3131,
      "மடைந்து": 3132,
      "▁ஓய்வ": 3133,
      "Can": 3134,
      "▁தட்ட": 3135,
      "ுகளுக்கு": 3136,
      "ire": 3137,
      "▁புகைப்பட": 3138,
      "▁ஓடின": 3139,
      "▁மரத்தை": 3140,
      "Look": 3141,
      "▁இச": 3142,
      "▁விசித்திரமான": 3143,
      "▁என்னை": 3144,
      "▁காரில்": 3145,
      "ray": 3146,
      "▁world": 3147,
      "▁உற்சாகத்துடன்": 3148,
      "▁லீலா": 3149,
      "▁குவ": 3150,
      "▁met": 3151,
      "▁move": 3152,
      "▁needed": 3153,
      "▁அமர்ந்த": 3154,
      "▁சாத": 3155,
      "▁top": 3156,
      "▁cool": 3157,
      "▁வெப்ப": 3158,
      "▁அவ்வளவு": 3159,
      "▁பொறும": 3160,
      "▁சகோதரர்": 3161,
      "▁மதிப்ப": 3162,
      "▁dir": 3163,
      "▁எது": 3164,
      "ரமாக": 3165,
      "ர்ந்தது": 3166,
      "▁அரக்க": 3167,
      "ட்டியை": 3168,
      "ள்ளை": 3169,
      "க்கொண்ட": 3170,
      "expected": 3171,
      "▁திருப்பி": 3172,
      "▁கிட்ட": 3173,
      "▁unexpected": 3174,
      "ner": 3175,
      "▁துண": 3176,
      "வாயில்லை": 3177,
      "▁நாற்க": 3178,
      "▁There": 3179,
      "ila": 3180,
      "Mom": 3181,
      "யிற்சி": 3182,
      "▁மேக": 3183,
      "▁பயன்படுத்தி": 3184,
      "▁Fin": 3185,
      "▁What": 3186,
      "▁Tommy": 3187,
      "▁picture": 3188,
      "▁tall": 3189,
      "ued": 3190,
      "▁visit": 3191,
      "▁ஸ்வி": 3192,
      "▁புத்திசாலித்த": 3193,
      "▁கலந்து": 3194,
      "ங்களும்": 3195,
      "▁திறந்த": 3196,
      "▁touch": 3197,
      "கவ": 3198,
      "▁வழங்கினார்": 3199,
      "ரே": 3200,
      "▁எல்லா": 3201,
      "▁வெயிலில்": 3202,
      "ியபோது": 3203,
      "ியையும்": 3204,
      "▁டெய்சி": 3205,
      "▁வீர": 3206,
      "Random": 3207,
      "▁திரும்பினார்": 3208,
      "ஞ்சு": 3209,
      "Don": 3210,
      "▁party": 3211,
      "▁நாயை": 3212,
      "▁அணில்": 3213,
      "ons": 3214,
      "▁இருக்கலாம்": 3215,
      "▁ஐஸ்கிரீம்": 3216,
      "▁பெரி": 3217,
      "வசாய": 3218,
      "▁விவசாய": 3219,
      "ப்பது": 3220,
      "▁If": 3221,
      "▁உடைந்த": 3222,
      "▁எவ்வாறு": 3223,
      "▁pretend": 3224,
      "▁grass": 3225,
      "▁Can": 3226,
      "▁மதிய": 3227,
      "▁நூ": 3228,
      "rot": 3229,
      "▁cookies": 3230,
      "▁paper": 3231,
      "ர்ம": 3232,
      "▁pers": 3233,
      "▁rel": 3234,
      "▁broken": 3235,
      "▁மணி": 3236,
      "ையிலிருந்து": 3237,
      "▁trees": 3238,
      "▁தனி": 3239,
      "olly": 3240,
      "▁goodbye": 3241,
      "▁air": 3242,
      "▁At": 3243,
      "▁இறுக்கமாக": 3244,
      "▁plant": 3245,
      "▁fill": 3246,
      "▁உரத்த": 3247,
      "We": 3248,
      "room": 3249,
      "▁குடி": 3250,
      "▁தழுவ": 3251,
      "▁பறவைகள்": 3252,
      "வள": 3253,
      "▁எற": 3254,
      "where": 3255,
      "பென்ச": 3256,
      "▁hun": 3257,
      "அவள்": 3258,
      "▁தொடங்கினர்": 3259,
      "▁scary": 3260,
      "ிச்": 3261,
      "▁எழுந்து": 3262,
      "▁உதவினார்": 3263,
      "▁Lila": 3264,
      "▁yellow": 3265,
      "mb": 3266,
      "aby": 3267,
      "ாம்ப": 3268,
      "▁கொண்டாள்": 3269,
      "னா": 3270,
      "▁தயாராக": 3271,
      "▁கொண்டது": 3272,
      "▁cars": 3273,
      "▁பிடிக்கவில்லை": 3274,
      "ய்வு": 3275,
      "▁விருப்ப": 3276,
      "▁count": 3277,
      "▁here": 3278,
      "▁நின்ற": 3279,
      "▁அசைத்து": 3280,
      "▁வருந்துகிறேன்": 3281,
      "ுகிறான்": 3282,
      "▁ஏமி": 3283,
      "த்திற்குப்": 3284,
      "▁லில்லியை": 3285,
      "னமாக": 3286,
      "▁bow": 3287,
      "▁full": 3288,
      "▁விரும்பிய": 3289,
      "▁நெரு": 3290,
      "▁உணர்ந்து": 3291,
      "ange": 3292,
      "திலும்": 3293,
      "▁underst": 3294,
      "டைபெ": 3295,
      "ென்சென்சென்சென்ச": 3296,
      "▁சிரித்தனர்": 3297,
      "▁ரா": 3298,
      "▁சுற்றிப்": 3299,
      "amp": 3300,
      "▁fair": 3301,
      "ெல": 3302,
      "பார்": 3303,
      "▁எரி": 3304,
      "ப்பாகவும்": 3305,
      "▁புத்திசாலி": 3306,
      "ர்ஷ்ட": 3307,
      "ையிடம்": 3308,
      "ைச்ச": 3309,
      "▁lion": 3310,
      "▁sat": 3311,
      "▁செயல்ப": 3312,
      "னைப்": 3313,
      "▁leaves": 3314,
      "▁ஒவ்வொ": 3315,
      "னின்": 3316,
      "▁doing": 3317,
      "▁செய்கிறார்": 3318,
      "▁pus": 3319,
      "▁பற்றிய": 3320,
      "▁பறவைக்கு": 3321,
      "▁முற்றத்தில்": 3322,
      "▁அழைக்க": 3323,
      "ோக்கிய": 3324,
      "▁கேட்கிறார்": 3325,
      "நிச்ச": 3326,
      "▁பண்ண": 3327,
      "▁inst": 3328,
      "▁பாறை": 3329,
      "▁அணிய": 3330,
      "ெங்க": 3331,
      "நிச்சயமாக": 3332,
      "▁ஊச": 3333,
      "▁hold": 3334,
      "▁someone": 3335,
      "வணக்கம்": 3336,
      "erous": 3337,
      "▁books": 3338,
      "▁வருத்தமடைந்தார்": 3339,
      "▁money": 3340,
      "▁pat": 3341,
      "ஜ்": 3342,
      "▁cream": 3343,
      "asure": 3344,
      "▁டை": 3345,
      "ெல்லாம்": 3346,
      "▁சிற்று": 3347,
      "▁கண்களை": 3348,
      "▁சல": 3349,
      "▁mar": 3350,
      "▁தண்ணீரில்": 3351,
      "▁கடைச": 3352,
      "▁num": 3353,
      "ract": 3354,
      "ுகூ": 3355,
      "▁எறும்ப": 3356,
      "▁சோர்வ": 3357,
      "▁தவற": 3358,
      "▁தன்னுடன்": 3359,
      "▁அறைக்கு": 3360,
      "▁வட்ட": 3361,
      "நாம்": 3362,
      "▁மேஜ": 3363,
      "▁வெள்ளை": 3364,
      "▁கத்த": 3365,
      "▁எதையும்": 3366,
      "▁இதற்கு": 3367,
      "▁teac": 3368,
      "▁thank": 3369,
      "▁நிரம்ப": 3370,
      "பென்சில்வேனியா": 3371,
      "ர்ரி": 3372,
      "▁அழுத": 3373,
      "▁சற்று": 3374,
      "▁அறிய": 3375,
      "▁வரி": 3376,
      "சிரிய": 3377,
      "▁min": 3378,
      "எனக்கு": 3379,
      "▁நல்லது": 3380,
      "▁accidentally": 3381,
      "▁beach": 3382,
      "கசிய": 3383,
      "▁முன்ன": 3384,
      "▁That": 3385,
      "▁அமர்ந்து": 3386,
      "வற்றை": 3387,
      "▁அமைதியாக": 3388,
      "▁நினைவுகூ": 3389,
      "▁ஸ்லைட": 3390,
      "▁புரி": 3391,
      "rew": 3392,
      "▁எங்கே": 3393,
      "▁set": 3394,
      "▁நண்பர்களிடம்": 3395,
      "▁behind": 3396,
      "▁வணக்கம்": 3397,
      "ஷ்": 3398,
      "▁தாம": 3399,
      "ather": 3400,
      "▁மகிழ்ச்சியடைக": 3401,
      "▁ஓடிவ": 3402,
      "▁கயிற": 3403,
      "▁வானில்": 3404,
      "▁ஒழு": 3405,
      "ுவதைக்": 3406,
      "▁விரும்பினது": 3407,
      "▁மிட்டாய்": 3408,
      "ட்டைய": 3409,
      "▁running": 3410,
      "▁wall": 3411,
      "▁தாயை": 3412,
      "fort": 3413,
      "▁laugh": 3414,
      "▁கோபுர": 3415,
      "▁owner": 3416,
      "▁herself": 3417,
      "wl": 3418,
      "▁ready": 3419,
      "▁கேட்கவில்லை": 3420,
      "▁getting": 3421,
      "▁ஆசிரிய": 3422,
      "▁glad": 3423,
      "▁பந்தய": 3424,
      "ached": 3425,
      "▁fight": 3426,
      "▁sec": 3427,
      "வாத": 3428,
      "lect": 3429,
      "அந்த": 3430,
      "Wow": 3431,
      "ிழல்": 3432,
      "▁swing": 3433,
      "lf": 3434,
      "▁Em": 3435,
      "▁வழியில்": 3436,
      "▁பக்க": 3437,
      "▁la": 3438,
      "ards": 3439,
      "▁dinner": 3440,
      "ult": 3441,
      "▁bit": 3442,
      "ead": 3443,
      "▁சீன": 3444,
      "னாக": 3445,
      "ஸை": 3446,
      "▁கருப்பு": 3447,
      "▁குடும்பம்": 3448,
      "▁குளத்தில்": 3449,
      "ணம்": 3450,
      "▁race": 3451,
      "▁feels": 3452,
      "▁புய": 3453,
      "வாவ்": 3454,
      "▁சவாரி": 3455,
      "icy": 3456,
      "oods": 3457,
      "தே": 3458,
      "கவலைப்பட": 3459,
      "▁கண்ண": 3460,
      "▁ஆரஞ்சு": 3461,
      "ask": 3462,
      "▁ca": 3463,
      "ott": 3464,
      "▁balloon": 3465,
      "▁கொண்டே": 3466,
      "▁plan": 3467,
      "▁blocks": 3468,
      "▁delicious": 3469,
      "▁coming": 3470,
      "சிற": 3471,
      "▁pol": 3472,
      "▁song": 3473,
      "▁இடம்": 3474,
      "▁worked": 3475,
      "▁asks": 3476,
      "▁மறுநாள்": 3477,
      "ower": 3478,
      "▁வருவதை": 3479,
      "▁மூல": 3480,
      "ிகளையும்": 3481,
      "▁trying": 3482,
      "▁பூனைக்கு": 3483,
      "▁floor": 3484,
      "▁திரும": 3485,
      "eld": 3486,
      "ries": 3487,
      "oun": 3488,
      "ek": 3489,
      "▁Everyone": 3490,
      "▁seen": 3491,
      "▁miss": 3492,
      "▁கடந்து": 3493,
      "ash": 3494,
      "▁மறைந்து": 3495,
      "ேச": 3496,
      "▁தலையசைத்து": 3497,
      "▁சோக": 3498,
      "▁தாயார": 3499,
      "▁window": 3500,
      "▁நிகழ்ச்ச": 3501,
      "ises": 3502,
      "▁ரகசிய": 3503,
      "ிறான்": 3504,
      "ுகளைப்": 3505,
      "▁டிர": 3506,
      "▁எத்தனை": 3507,
      "▁ஒப்புக்": 3508,
      "▁baby": 3509,
      "▁செல்கிறது": 3510,
      "ventually": 3511,
      "▁அடைக": 3512,
      "ளிப்பு": 3513,
      "▁years": 3514,
      "ெங்கெங்க": 3515,
      "▁name": 3516,
      "டியில்": 3517,
      "astle": 3518,
      "▁remembered": 3519,
      "▁return": 3520,
      "▁தொலைவில்": 3521,
      "ames": 3522,
      "▁சங்க": 3523,
      "ாட்சி": 3524,
      "▁பிரச்ச": 3525,
      "▁சாம்ப": 3526,
      "▁தங்களின்": 3527,
      "▁செய்வத": 3528,
      "ுவதற்கான": 3529,
      "▁done": 3530,
      "▁snow": 3531,
      "▁tow": 3532,
      "▁children": 3533,
      "▁Do": 3534,
      "▁தயவுசெய்து": 3535,
      "▁இவ்வ": 3536,
      "tal": 3537,
      "▁பழுப்பு": 3538,
      "▁பெரும": 3539,
      "▁சண்டைய": 3540,
      "▁சிங்கம்": 3541,
      "thy": 3542,
      "key": 3543,
      "▁பாய்": 3544,
      "▁மேல்": 3545,
      "ரைக்கு": 3546,
      "▁hungry": 3547,
      "▁செங்க": 3548,
      "▁காயப்படுத்த": 3549,
      "▁grandma": 3550,
      "▁stuck": 3551,
      "▁creat": 3552,
      "▁உழ": 3553,
      "ுவதன்": 3554,
      "▁விடைபெ": 3555,
      "▁table": 3556,
      "▁pink": 3557,
      "▁sometimes": 3558,
      "▁அரு": 3559,
      "▁really": 3560,
      "▁பெற்றோர்": 3561,
      "▁போர": 3562,
      "▁ph": 3563,
      "▁mat": 3564,
      "▁total": 3565,
      "▁லாரி": 3566,
      "▁att": 3567,
      "▁அவன": 3568,
      "▁grow": 3569,
      "▁அப்பாவும்": 3570,
      "ப்படும்": 3571,
      "aisy": 3572,
      "ாததால்": 3573,
      "▁மழ": 3574,
      "▁அதிர்ஷ்ட": 3575,
      "▁பயங்கரமான": 3576,
      "▁இதனால்": 3577,
      "▁ride": 3578,
      "▁உங்களால்": 3579,
      "ரைப்": 3580,
      "▁wet": 3581,
      "▁என்னால்": 3582,
      "▁செல்வதை": 3583,
      "ளுக்கு": 3584,
      "கள்": 3585,
      "▁பதிலளித்தார்": 3586,
      "ழி": 3587,
      "▁டிம்மியும்": 3588,
      "ello": 3589,
      "▁Joe": 3590,
      "▁ஏற்பட": 3591,
      "▁why": 3592,
      "▁எங்கு": 3593,
      "▁சூடான": 3594,
      "▁பறவையை": 3595,
      "▁இந்தப்": 3596,
      "▁அணிவ": 3597,
      "▁began": 3598,
      "▁அங்கே": 3599,
      "ross": 3600,
      "▁des": 3601,
      "த்துக்": 3602,
      "ந்துவிட": 3603,
      "ேஷ": 3604,
      "▁turned": 3605,
      "▁agre": 3606,
      "▁சின்ன": 3607,
      "▁hide": 3608,
      "▁ஆமாம்": 3609,
      "▁வாய்": 3610,
      "▁பிறந்த": 3611,
      "▁sear": 3612,
      "red": 3613,
      "▁அவற்ற": 3614,
      "▁tries": 3615,
      "அவர்கள்": 3616,
      "▁cup": 3617,
      "▁grabbed": 3618,
      "▁anything": 3619,
      "chool": 3620,
      "▁hill": 3621,
      "▁able": 3622,
      "▁spot": 3623,
      "லே": 3624,
      "uffy": 3625,
      "▁பெல்": 3626,
      "▁cried": 3627,
      "▁ஊதா": 3628,
      "▁இருந்தார்கள்": 3629,
      "▁கைதட்டி": 3630,
      "▁அவர்களுடன்": 3631,
      "▁இன்று": 3632,
      "▁வருத்தப்பட்ட": 3633,
      "்கிறான்": 3634,
      "▁வேக": 3635,
      "▁becomes": 3636,
      "▁மற்றவர்களுக்கு": 3637,
      "Hello": 3638,
      "▁கேள்வ": 3639,
      "▁helping": 3640,
      "▁இதை": 3641,
      "ியான": 3642,
      "▁wrong": 3643,
      "▁continued": 3644,
      "▁music": 3645,
      "▁சாம": 3646,
      "▁செய்யும்": 3647,
      "லின்": 3648,
      "que": 3649,
      "▁நடைப்பயிற்சி": 3650,
      "vel": 3651,
      "▁உன்னை": 3652,
      "ions": 3653,
      "வெ": 3654,
      "▁|": 3655,
      "▁சிரித்தார்": 3656,
      "குப்ப": 3657,
      "▁தைரியமாக": 3658,
      "▁களை": 3659,
      "▁dance": 3660,
      "▁stran": 3661,
      "▁பின்தொடர்ந்து": 3662,
      "ிக்காக": 3663,
      "▁செய்தாள்": 3664,
      "▁சுட்ட": 3665,
      "▁சர": 3666,
      "▁dang": 3667,
      "▁யாரும்": 3668,
      "▁slow": 3669,
      "▁தொப்பியை": 3670,
      "▁பிடித்திருந்தது": 3671,
      "்களுக்கு": 3672,
      "▁Now": 3673,
      "▁இறக்க": 3674,
      "▁விளை": 3675,
      "▁நாற்கால": 3676,
      "▁என்னுடன்": 3677,
      "▁ஆரோக்கிய": 3678,
      "றும்": 3679,
      "▁குளிய": 3680,
      "▁importance": 3681,
      "▁வைத்திருப்ப": 3682,
      "க்ஸ்": 3683,
      "▁கட்டித்": 3684,
      "▁தாங்கள்": 3685,
      "oom": 3686,
      "▁தலையை": 3687,
      "▁land": 3688,
      "▁x": 3689,
      "app": 3690,
      "ிற்க": 3691,
      "ாமை": 3692,
      "ape": 3693,
      "ிக்கை": 3694,
      "▁mum": 3695,
      "▁பாதகமான": 3696,
      "▁முழங்க": 3697,
      "▁உண்மையான": 3698,
      "▁looks": 3699,
      "ined": 3700,
      "▁என்றால்": 3701,
      "▁close": 3702,
      "▁puppy": 3703,
      "▁வைத்திருந்த": 3704,
      "ளில்": 3705,
      "▁கிண்ண": 3706,
      "ப்படுகிறார்": 3707,
      "▁வகையான": 3708,
      "▁விசேஷ": 3709,
      "▁கரடியை": 3710,
      "▁reached": 3711,
      "▁moral": 3712,
      "▁அனைவர": 3713,
      "▁ref": 3714,
      "▁மோசமாக": 3715,
      "ered": 3716,
      "▁woods": 3717,
      "▁daddy": 3718,
      "▁eating": 3719,
      "ister": 3720,
      "▁win": 3721,
      "வா": 3722,
      "▁மூடி": 3723,
      "▁சாண்ட": 3724,
      "▁பாடத்தை": 3725,
      "▁முகத்தில்": 3726,
      "▁town": 3727,
      "▁school": 3728,
      "▁பார்த்தது": 3729,
      "▁ஆல": 3730,
      "▁அங்கிருந்து": 3731,
      "்கிறேன்": 3732,
      "▁bor": 3733,
      "▁gent": 3734,
      "வின்": 3735,
      "▁hear": 3736,
      "▁தாயாரிடம்": 3737,
      "▁எளி": 3738,
      "▁ஞ": 3739,
      "▁Fl": 3740,
      "▁அவர்களால்": 3741,
      "▁சக்த": 3742,
      "ியால்": 3743,
      "▁அடையாள": 3744,
      "▁pen": 3745,
      "▁இறங்க": 3746,
      "▁குதிக்க": 3747,
      "▁To": 3748,
      "▁சுற்று": 3749,
      "▁நேரத்தை": 3750,
      "▁இருப்பதைக்": 3751,
      "▁number": 3752,
      "லமாக": 3753,
      "ze": 3754,
      "தியாக": 3755,
      "▁உணர்ந்தாள்": 3756,
      "▁பிரச்சின": 3757,
      "man": 3758,
      "▁கழுவ": 3759,
      "▁துளை": 3760,
      "யை": 3761,
      "▁ஏனென்றால்": 3762,
      "▁உதவு": 3763,
      "▁pie": 3764,
      "▁colors": 3765,
      "▁உட்கார்": 3766,
      "ர்ப்ப": 3767,
      "தல்ல": 3768,
      "▁கவனித்துக்": 3769,
      "▁பொருத்த": 3770,
      "ணய": 3771,
      "்களைக்": 3772,
      "▁இசை": 3773,
      "▁தெரிவித்த": 3774,
      "ைக்கி": 3775,
      "▁பிரப": 3776,
      "▁பிரா": 3777,
      "▁இங்கே": 3778,
      "▁நரி": 3779,
      "▁teddy": 3780,
      "ctor": 3781,
      "துக": 3782,
      "வுடன்": 3783,
      "ுகிறோம்": 3784,
      "cle": 3785,
      "ண்ட்": 3786,
      "▁பணியாற்ற": 3787,
      "ateful": 3788,
      "▁All": 3789,
      "▁பான": 3790,
      "▁வழக்க": 3791,
      "▁arm": 3792,
      "▁தூக்கி": 3793,
      "▁likes": 3794,
      "▁குறை": 3795,
      "ாம்பூச்ச": 3796,
      "▁turns": 3797,
      "less": 3798,
      "▁arri": 3799,
      "▁இயந்திர": 3800,
      "▁உரிமையாளர்": 3801,
      "▁தெள": 3802,
      "▁candy": 3803,
      "▁கேக்கை": 3804,
      "ைச்": 3805,
      "▁colorful": 3806,
      "▁grateful": 3807,
      "me": 3808,
      "▁இருப்பதாக": 3809,
      "▁danc": 3810,
      "▁விஷயம்": 3811,
      "▁paint": 3812,
      "▁str": 3813,
      "▁சமையலறை": 3814,
      "க்காட்சி": 3815,
      "▁ஜான": 3816,
      "▁துரத்த": 3817,
      "▁நமது": 3818,
      "iv": 3819,
      "▁உடன": 3820,
      "ந்தி": 3821,
      "▁சந்தித்தார்": 3822,
      "▁white": 3823,
      "▁இளவரச": 3824,
      "▁எச்சரிக்க": 3825,
      "▁பட்டாம்பூச்ச": 3826,
      "▁This": 3827,
      "லக": 3828,
      "▁please": 3829,
      "▁அழத்": 3830,
      "▁person": 3831,
      "▁அடிக்க": 3832,
      "▁நிரப்ப": 3833,
      "▁சமையலறையில்": 3834,
      "▁castle": 3835,
      "▁அவருக்குத்": 3836,
      "▁understand": 3837,
      "▁வெளிப்ப": 3838,
      "▁sail": 3839,
      "ுகளுடன்": 3840,
      "ிக்கவும்": 3841,
      "▁heal": 3842,
      "▁wished": 3843,
      "▁நாணய": 3844,
      "▁gif": 3845,
      "▁பளபளப்பான": 3846,
      "▁விரும்புகிறது": 3847,
      "▁கருவ": 3848,
      "▁தார்மீக": 3849,
      "▁leave": 3850,
      "▁Daisy": 3851,
      "ere": 3852,
      "▁உற்சாகமடைந்தார்": 3853,
      "▁shouted": 3854,
      "▁Mr": 3855,
      "▁waved": 3856,
      "▁நுழை": 3857,
      "▁காற்றில்": 3858,
      "▁கோப்ப": 3859,
      "ித்தல்": 3860,
      "ின்றனர்": 3861,
      "ுத்து": 3862,
      "▁tight": 3863,
      "ches": 3864,
      "▁உயிரின": 3865,
      "▁clot": 3866,
      "▁பூங்காவிற்கு": 3867,
      "▁அறையை": 3868,
      "தமாக": 3869,
      "▁இருக்கிறார்": 3870,
      "▁இனிமேல்": 3871,
      "▁விளையாடுவதற்கு": 3872,
      "▁கற்றுக்கொண்ட": 3873,
      "▁மகிழ்ச்சியடைய": 3874,
      "▁hopped": 3875,
      "▁reach": 3876,
      "▁instead": 3877,
      "▁மன": 3878,
      "▁எங்க": 3879,
      "▁poin": 3880,
      "ucky": 3881,
      "▁sit": 3882,
      "ிவிட்டு": 3883,
      "▁enjoyed": 3884,
      "▁கொடுத்து": 3885,
      "▁ஓவியம்": 3886,
      "ட்டுத்த": 3887,
      "▁திடீரென்று": 3888,
      "▁கருணை": 3889,
      "▁கதவைத்": 3890,
      "▁ஷ": 3891,
      "▁பாப": 3892,
      "▁பறவையைப்": 3893,
      "தூ": 3894,
      "▁held": 3895,
      "▁gone": 3896,
      "திப்ப": 3897,
      "▁spl": 3898,
      "▁சாப்பிட்டு": 3899,
      "ix": 3900,
      "▁finished": 3901,
      "▁கணம்": 3902,
      "▁je": 3903,
      "ர்களை": 3904,
      "▁தேர்ந்த": 3905,
      "▁el": 3906,
      "▁–": 3907,
      "▁அவர்களைப்": 3908,
      "▁ட்வ": 3909,
      "▁இடத்தில்": 3910,
      "▁pictures": 3911,
      "▁முக்கியமான": 3912,
      "▁விளையாடினார்கள்": 3913,
      "▁கலந்துரையாடல்": 3914,
      "▁காண்ப": 3915,
      "▁இண": 3916,
      "▁எம": 3917,
      "வற்ற": 3918,
      "சிறப்ப": 3919,
      "▁பலத்த": 3920,
      "சிறப்பியல்புகள்": 3921,
      "▁எடுத்தார்": 3922,
      "▁treat": 3923,
      "oc": 3924,
      "ெலி": 3925,
      "▁பலவீ": 3926,
      "▁sister": 3927,
      "▁சிக்கிக்க": 3928,
      "ட்டார்": 3929,
      "▁fruit": 3930,
      "▁gu": 3931,
      "▁அனுப்ப": 3932,
      "▁சைக்கி": 3933,
      "▁முடித்த": 3934,
      "▁உடைந்து": 3935,
      "▁பத்திர": 3936,
      "▁அதைக்": 3937,
      "▁முன்ந": 3938,
      "▁பூச்சி": 3939,
      "▁வலிமையான": 3940,
      "▁உறுதியளித்தார்": 3941,
      "avy": 3942,
      "▁சிரித்த": 3943,
      "▁கவலை": 3944,
      "▁தன்னைப்": 3945,
      "▁விட்டுச்": 3946,
      "▁யார்": 3947,
      "▁அழகானது": 3948,
      "gon": 3949,
      "த்தைச்": 3950,
      "▁தெரியாமல்": 3951,
      "▁முன்நிழல்": 3952,
      "வோ": 3953,
      "▁நிமிட": 3954,
      "▁குளிர்": 3955,
      "்களில்": 3956,
      "br": 3957,
      "▁அவர்களது": 3958,
      "▁அஞ்சல்": 3959,
      "▁சொல்வ": 3960,
      "▁காயம்": 3961,
      "▁eventually": 3962,
      "▁alone": 3963,
      "ியிலிருந்து": 3964,
      "▁finally": 3965,
      "▁கொள்ளுங்கள்": 3966,
      "▁இழுத்து": 3967,
      "▁perfect": 3968,
      "▁won": 3969,
      "▁சாவ": 3970,
      "▁ஒவ்வொருவரும்": 3971,
      "ரங்க": 3972,
      "▁dirty": 3973,
      "டுப": 3974,
      "set": 3975,
      "▁su": 3976,
      "ங்களுடன்": 3977,
      "▁fur": 3978,
      "▁அடை": 3979,
      "▁explain": 3980,
      "▁hour": 3981,
      "▁Jim": 3982,
      "▁நடந்த": 3983,
      "ரோ": 3984,
      "▁nap": 3985,
      "▁மலையின்": 3986,
      "▁இருண்ட": 3987,
      "▁pot": 3988,
      "▁எதிர்க": 3989,
      "▁முட்டாள": 3990,
      "▁எலும்ப": 3991,
      "என்ற": 3992,
      "▁பொத்த": 3993,
      "▁வந்தனர்": 3994,
      "▁clothes": 3995,
      "▁ஆப்பிள": 3996,
      "▁எழுப்ப": 3997,
      "▁மென்மையாகவும்": 3998,
      "ச்சு": 3999,
      "▁சாக்": 4000,
      "▁Finally": 4001,
      "▁flying": 4002,
      "▁கையை": 4003,
      "ever": 4004,
      "▁pass": 4005,
      "▁wear": 4006,
      "▁later": 4007,
      "்தோ": 4008,
      "▁teach": 4009,
      "▁bott": 4010,
      "▁carefully": 4011,
      "ப்போ": 4012,
      "▁வரைவ": 4013,
      "▁தந்தையும்": 4014,
      "ுடையது": 4015,
      "▁without": 4016,
      "▁ap": 4017,
      "▁pet": 4018,
      "▁sug": 4019,
      "▁ஓய்வெடுக்க": 4020,
      "முறை": 4021,
      "▁climbed": 4022,
      "▁அடைந்தனர்": 4023,
      "▁agreed": 4024,
      "iet": 4025,
      "▁இவ்வளவு": 4026,
      "▁ve": 4027,
      "▁else": 4028,
      "▁ஒரே": 4029,
      "▁விவசாயி": 4030,
      "▁கிராம": 4031,
      "▁enough": 4032,
      "ைத்": 4033,
      "▁suc": 4034,
      "ியோ": 4035,
      "Wh": 4036,
      "▁same": 4037,
      "▁discovers": 4038,
      "▁மர்ம": 4039,
      "▁சுற்றிலும்": 4040,
      "▁சார": 4041,
      "▁tower": 4042,
      "▁gives": 4043,
      "▁உச்ச": 4044,
      "▁roll": 4045,
      "▁பாதுகாப்பாகவும்": 4046,
      "ர்மையான": 4047,
      "▁விளையாடுவதில்": 4048,
      "▁உண்ம": 4049,
      "ope": 4050,
      "▁விளையாடுவோம்": 4051,
      "▁act": 4052,
      "▁meets": 4053,
      "▁குழப்பத்தை": 4054,
      "றுதல்": 4055,
      "லோ": 4056,
      "▁drink": 4057,
      "▁பல்": 4058,
      "indianindian": 4059,
      "▁தண்ணீரை": 4060,
      "▁கழு": 4061,
      "rought": 4062,
      "▁inv": 4063,
      "ness": 4064,
      "▁ele": 4065,
      "ையால்": 4066,
      "▁மேரி": 4067,
      "▁சுவார": 4068,
      "▁சாறு": 4069,
      "▁சாம்பல்": 4070,
      "▁நம்மால்": 4071,
      "▁சாதாரண": 4072,
      "▁குமிழ": 4073,
      "▁mil": 4074,
      "▁கூறுகிறார்கள்": 4075,
      "▁நண்பராக": 4076,
      "ென்றே": 4077,
      "ிலி": 4078,
      "▁பசிய": 4079,
      "▁கிளர்ச்சிய": 4080,
      "eces": 4081,
      "▁bar": 4082,
      "▁ob": 4083,
      "▁deep": 4084,
      "்களும்": 4085,
      "▁மாறியது": 4086,
      "▁monkey": 4087,
      "▁கூடு": 4088,
      "▁அளவுக்கு": 4089,
      "ieces": 4090,
      "ைத்தனர்": 4091,
      "▁tail": 4092,
      "▁தெரிவித்தனர்": 4093,
      "▁நேசிக்கிறேன்": 4094,
      "▁bigger": 4095,
      "▁குக": 4096,
      "▁தூய்": 4097,
      "▁அதனால்": 4098,
      "▁brought": 4099,
      "ண்புகள்": 4100,
      "ல்பட்டு": 4101,
      "▁தாயுடன்": 4102,
      "▁என்பதால்": 4103,
      "▁வாருங்கள்": 4104,
      "▁அன்றைய": 4105,
      "ale": 4106,
      "▁விலகி": 4107,
      "▁விளையாடுவது": 4108,
      "▁கடலில்": 4109,
      "ர்ர": 4110,
      "ible": 4111,
      "gs": 4112,
      "▁mor": 4113,
      "▁போவ": 4114,
      "▁black": 4115,
      "▁comes": 4116,
      "▁கிடைக்கும்": 4117,
      "▁fox": 4118,
      "▁அண்ணா": 4119,
      "▁புரிந்து": 4120,
      "ிப்பது": 4121,
      "▁ப்ர": 4122,
      "▁பின்புற": 4123,
      "▁பார்க்கும்": 4124,
      "▁ரோம": 4125,
      "▁pieces": 4126,
      "▁filled": 4127,
      "▁ரொ": 4128,
      "▁dangerous": 4129,
      "▁உறுதி": 4130,
      "▁மறைத்து": 4131,
      "▁திரும்பினர்": 4132,
      "▁முன்தோ": 4133,
      "▁முன்தோற்றம்": 4134,
      "ிக்கவில்லை": 4135,
      "▁living": 4136,
      "▁dist": 4137,
      "▁morning": 4138,
      "▁சோகமான": 4139,
      "▁Gra": 4140,
      "▁forgot": 4141,
      "▁most": 4142,
      "▁நேரத்திற்குப்": 4143,
      "▁இரட்டைய": 4144,
      "▁shared": 4145,
      "▁சாண்ட்வ": 4146,
      "zz": 4147,
      "▁டாலர்": 4148,
      "▁கடுமையாக": 4149,
      "▁மாய": 4150,
      "ொள்வ": 4151,
      "▁குதிரை": 4152,
      "arm": 4153,
      "▁organ": 4154,
      "▁இதய": 4155,
      "▁நடத்த": 4156,
      "▁bath": 4157,
      "▁நெருக்க": 4158,
      "▁டோ": 4159,
      "வன்": 4160,
      "▁Similar": 4161,
      "▁பூக்களை": 4162,
      "ுவார்கள்": 4163,
      "▁கையில்": 4164,
      "ee": 4165,
      "ors": 4166,
      "▁yes": 4167,
      "▁கேட்டுக்": 4168,
      "▁free": 4169,
      "▁listened": 4170,
      "டிம்": 4171,
      "▁ஜில்": 4172,
      "ord": 4173,
      "ல்கள்": 4174,
      "▁கூறினார்கள்": 4175,
      "▁ஜால": 4176,
      "▁moment": 4177,
      "வாகவும்": 4178,
      "▁தாவர": 4179,
      "▁rec": 4180,
      "▁எதுவும்": 4181,
      "▁river": 4182,
      "▁குடும்பத்தினர்": 4183,
      "▁monster": 4184,
      "▁கொண்டிருந்தாள்": 4185,
      "ென்சர்": 4186,
      "▁everything": 4187,
      "▁train": 4188,
      "▁மிக்க": 4189,
      "▁காணவில்லை": 4190,
      "▁குக்கீகளை": 4191,
      "த்தால்": 4192,
      "elly": 4193,
      "▁வெவ்": 4194,
      "unch": 4195,
      "▁நீர்": 4196,
      "▁அழுக்க": 4197,
      "ஆமாம்": 4198,
      "▁பாதுகாப்பான": 4199,
      "▁yard": 4200,
      "▁குரங்கு": 4201,
      "gy": 4202,
      "▁வரைய": 4203,
      "▁வெவ்வேறு": 4204,
      "ல்வெ": 4205,
      "▁இளவரசி": 4206,
      "▁அப்போதுதான்": 4207,
      "iver": 4208,
      "ித்துவ": 4209,
      "▁பெஞ்ச": 4210,
      "▁heavy": 4211,
      "▁கண்டுபிடித்தார்": 4212,
      "▁ra": 4213,
      "ிட்டனர்": 4214,
      "▁நிரம்பிய": 4215,
      "▁புத்தகத்தை": 4216,
      "▁ஏற்பட்ட": 4217,
      "க்கிறார்": 4218,
      "▁wise": 4219,
      "▁broke": 4220,
      "ரியை": 4221,
      "▁enc": 4222,
      "▁apple": 4223,
      "ப்பதை": 4224,
      "▁சண்டையிட": 4225,
      "▁followed": 4226,
      "▁தேடினார்": 4227,
      "▁நாளில்": 4228,
      "▁எம்மா": 4229,
      "▁அழகாகவும்": 4230,
      "த்தனர்": 4231,
      "sp": 4232,
      "என்": 4233,
      "▁ju": 4234,
      "ond": 4235,
      "▁taking": 4236,
      "▁games": 4237,
      "▁comfort": 4238,
      "▁மீன்கள்": 4239,
      "சிங்க": 4240,
      "▁அட்வ": 4241,
      "▁smell": 4242,
      "க்கிஷ": 4243,
      "▁உணர்ந்தனர்": 4244,
      "ased": 4245,
      "▁lead": 4246,
      "▁பெருமூச்ச": 4247,
      "▁ஆய்வு": 4248,
      "▁பயமு": 4249,
      "▁வலுவான": 4250,
      "▁வானம்": 4251,
      "▁முரட்டுத்த": 4252,
      "▁field": 4253,
      "used": 4254,
      "▁means": 4255,
      "ert": 4256,
      "▁answer": 4257,
      "▁பொக்கிஷ": 4258,
      "▁ஆச்சரியப்பட்ட": 4259,
      "▁கடித": 4260,
      "▁மணல்": 4261,
      "▁இழந்த": 4262,
      "ிவிட்டது": 4263,
      "▁இருக்கிறீர்கள்": 4264,
      "▁சாமும்": 4265,
      "▁sharing": 4266,
      "ிச்சை": 4267,
      "up": 4268,
      "▁bran": 4269,
      "▁செலுத்த": 4270,
      "▁பூக்கள்": 4271,
      "▁தொலைப": 4272,
      "▁டிம்மிக்கு": 4273,
      "▁dry": 4274,
      "ிவிட": 4275,
      "▁சென்றான்": 4276,
      "ுறுத்த": 4277,
      "▁நீச்சல்": 4278,
      "▁அட்வென்சர்": 4279,
      "Hi": 4280,
      "▁wasn": 4281,
      "▁நேரத்தில்": 4282,
      "ஒரு": 4283,
      "▁மனிதர்": 4284,
      "▁முயற்சித்தார்": 4285,
      "▁பாரா": 4286,
      "▁ஆந்தை": 4287,
      "ிறோம்": 4288,
      "▁doctor": 4289,
      "▁சிறுமியை": 4290,
      "▁doesn": 4291,
      "ாடு": 4292,
      "▁இனிப்ப": 4293,
      "ப்பான்": 4294,
      "▁நினைவூட்ட": 4295,
      "▁கைகளை": 4296,
      "ம்பை": 4297,
      "ட்டர்": 4298,
      "▁snack": 4299,
      "▁விஷயங்களைக்": 4300,
      "▁பெரியது": 4301,
      "▁கடற்கரைக்கு": 4302,
      "▁ஞான": 4303,
      "ighb": 4304,
      "▁வெற்ற": 4305,
      "▁nest": 4306,
      "▁minut": 4307,
      "ளியில்": 4308,
      "போத": 4309,
      "▁arrived": 4310,
      "மன": 4311,
      "▁ஆடை": 4312,
      "▁Later": 4313,
      "▁pack": 4314,
      "▁கிட்டி": 4315,
      "▁owl": 4316,
      "வராகவும்": 4317,
      "▁பனிம": 4318,
      "▁பயமுறுத்த": 4319,
      "▁ரயில்": 4320,
      "▁சத்தமாக": 4321,
      "▁சது": 4322,
      "▁முற": 4323,
      "ியாகவும்": 4324,
      "▁cost": 4325,
      "▁களைப்ப": 4326,
      "▁தப்ப": 4327,
      "▁குடும்பத்துடன்": 4328,
      "▁தான": 4329,
      "▁பயிற": 4330,
      "▁வெட்க": 4331,
      "▁பறவையின்": 4332,
      "outh": 4333,
      "ுகளைக்": 4334,
      "▁கப்ப": 4335,
      "ட்டில்": 4336,
      "▁farmer": 4337,
      "▁neighb": 4338,
      "▁விதை": 4339,
      "ular": 4340,
      "▁அலங்க": 4341,
      "▁முடிந்ததும்": 4342,
      "▁மென்மையாக": 4343,
      "▁promised": 4344,
      "▁அதிகமாக": 4345,
      "▁stud": 4346,
      "▁magical": 4347,
      "▁ஜூ": 4348,
      "ல்லி": 4349,
      "க்கியது": 4350,
      "▁மலர்": 4351,
      "▁bring": 4352,
      "▁அடியில்": 4353,
      "▁உருவாக்குவ": 4354,
      "▁wr": 4355,
      "▁கள": 4356,
      "▁lake": 4357,
      "▁சேம": 4358,
      "ize": 4359,
      "▁முட்டாள்த": 4360,
      "▁sign": 4361,
      "▁அழுக": 4362,
      "▁விழுந்த": 4363,
      "▁happen": 4364,
      "▁கட்டிட": 4365,
      "ng": 4366,
      "டிக்கொண்ட": 4367,
      "▁மறந்துவிட்ட": 4368,
      "▁quiet": 4369,
      "க்கூடிய": 4370,
      "ிருந்தாள்": 4371,
      "▁குவிய": 4372,
      "விர": 4373,
      "▁Jen": 4374,
      "▁tells": 4375,
      "▁must": 4376,
      "▁runs": 4377,
      "▁Just": 4378,
      "▁போய்வ": 4379,
      "▁amazing": 4380,
      "▁சிறப்பாக": 4381,
      "▁சகோதரி": 4382,
      "eter": 4383,
      "▁மோத": 4384,
      "▁கடற்கரையில்": 4385,
      "▁எமி": 4386,
      "▁bee": 4387,
      "▁Fluffy": 4388,
      "▁job": 4389,
      "▁joy": 4390,
      "டியை": 4391,
      "▁Tweet": 4392,
      "▁விளக்கினார்": 4393,
      "▁குழாய": 4394,
      "▁கடினமான": 4395,
      "ர்ஸ்": 4396,
      "▁வருத்தத்துடன்": 4397,
      "▁வீசினார்": 4398,
      "▁கடையில்": 4399,
      "▁பந்துடன்": 4400,
      "▁join": 4401,
      "▁கேட்டனர்": 4402,
      "old": 4403,
      "ts": 4404,
      "▁forget": 4405,
      "▁அனைவரையும்": 4406,
      "▁அசிங்க": 4407,
      "▁சந்திக்க": 4408,
      "ces": 4409,
      "▁சுட்டிக்க": 4410,
      "▁தாத்த": 4411,
      "▁disapp": 4412,
      "▁கொள்கிறாள்": 4413,
      "▁செல்கிறாள்": 4414,
      "▁side": 4415,
      "▁துடை": 4416,
      "▁செல்லப்": 4417,
      "▁செய்வதென்றே": 4418,
      "ாவுடன்": 4419,
      "பர": 4420,
      "▁wish": 4421,
      "ங்களிலும்": 4422,
      "▁சுவாரஸ்": 4423,
      "ிகளைக்": 4424,
      "▁பயணத்திற்கு": 4425,
      "▁wonderful": 4426,
      "▁அம்மாவின்": 4427,
      "▁mix": 4428,
      "▁ஸ்விங்க": 4429,
      "ier": 4430,
      "▁கொள்கிறது": 4431,
      "pping": 4432,
      "▁carrot": 4433,
      "▁முடியாத": 4434,
      "▁உதை": 4435,
      "▁silly": 4436,
      "▁வெளிப்படுத்த": 4437,
      "▁விரும்புகிறாள்": 4438,
      "நே": 4439,
      "▁ஜாலியாக": 4440,
      "▁நிறத்தில்": 4441,
      "▁சுய": 4442,
      "▁சரிசெ": 4443,
      "▁bat": 4444,
      "▁விலை": 4445,
      "▁டிராக": 4446,
      "மர": 4447,
      "Oh": 4448,
      "ினால்": 4449,
      "▁விலங்கு": 4450,
      "ிகளைப்": 4451,
      "elc": 4452,
      "ாக்கி": 4453,
      "▁கோட்டை": 4454,
      "மைக்க": 4455,
      "▁லூச": 4456,
      "முக": 4457,
      "▁கிழ": 4458,
      "▁பையை": 4459,
      "▁strange": 4460,
      "▁விழுந்தது": 4461,
      "என்றார்": 4462,
      "▁சாக்லே": 4463,
      "ama": 4464,
      "▁towards": 4465,
      "▁காண்கிறார்கள்": 4466,
      "ுவை": 4467,
      "▁mail": 4468,
      "▁es": 4469,
      "yard": 4470,
      "▁அழுக்கு": 4471,
      "▁collect": 4472,
      "▁புயல்": 4473,
      "▁treasure": 4474,
      "▁ஏற்ற": 4475,
      "▁stayed": 4476,
      "டியாக": 4477,
      "▁bike": 4478,
      "ents": 4479,
      "ைப்பழ": 4480,
      "▁பரவாயில்லை": 4481,
      "▁உணர்ந்தது": 4482,
      "▁பார்ப்போம்": 4483,
      "▁நிச்ச": 4484,
      "▁cal": 4485,
      "்கின்றன": 4486,
      "itty": 4487,
      "▁ஜன்னல்": 4488,
      "▁சுற்றியுள்ள": 4489,
      "வான": 4490,
      "▁add": 4491,
      "▁விளையாடலாம்": 4492,
      "▁வார": 4493,
      "▁செய்கிறது": 4494,
      "▁belie": 4495,
      "▁வாக": 4496,
      "▁bask": 4497,
      "uring": 4498,
      "▁தலைமுட": 4499,
      "▁rece": 4500,
      "த்தல்": 4501,
      "▁பொருள்": 4502,
      "▁செங்கல்பட்டு": 4503,
      "▁மிருக": 4504,
      "▁few": 4505,
      "▁உங்களுடன்": 4506,
      "▁அட்ட": 4507,
      "▁upset": 4508,
      "▁வாழைப்பழ": 4509,
      "▁bowl": 4510,
      "▁sea": 4511,
      "▁அணிந்திருந்தார்": 4512,
      "▁பால்": 4513,
      "▁பயன்படுத்தினார்": 4514,
      "▁Ch": 4515,
      "▁ஜிம்மி": 4516,
      "▁தழுவி": 4517,
      "▁lon": 4518,
      "▁கோபம்": 4519,
      "▁கண்டுபிடிப்ப": 4520,
      "க்கர": 4521,
      "படுத்த": 4522,
      "▁காட்டு": 4523,
      "▁அலமாரியில்": 4524,
      "▁உட்கார்ந்து": 4525,
      "gest": 4526,
      "▁ஆக்க": 4527,
      "▁பொறாமை": 4528,
      "▁everywhere": 4529,
      "▁அசை": 4530,
      "▁princess": 4531,
      "▁செய்வோம்": 4532,
      "▁மகிழ்வ": 4533,
      "▁pop": 4534,
      "▁பூச": 4535,
      "▁எல்லாவ": 4536,
      "▁தொடங்கினாள்": 4537,
      "▁ரு": 4538,
      "▁கைய": 4539,
      "▁படத்தை": 4540,
      "வாரம்": 4541,
      "▁பூனையும்": 4542,
      "▁Molly": 4543,
      "▁shop": 4544,
      "▁டாமின்": 4545,
      "ரிக": 4546,
      "ண்டியை": 4547,
      "▁சரியாக": 4548,
      "▁விளைவ": 4549,
      "▁இரட்டையர்கள்": 4550,
      "▁எறி": 4551,
      "▁போதுமான": 4552,
      "▁விழுந்தார்": 4553,
      "▁பைத்த": 4554,
      "்ற": 4555,
      "ball": 4556,
      "▁உற": 4557,
      "▁காலையில்": 4558,
      "ிலுள்ள": 4559,
      "▁நிலைய": 4560,
      "ைகளுக்கு": 4561,
      "▁சேகர": 4562,
      "▁fairy": 4563,
      "▁நிம்ம": 4564,
      "ung": 4565,
      "▁குப்ப": 4566,
      "oup": 4567,
      "▁lonely": 4568,
      "▁meet": 4569,
      "▁chair": 4570,
      "▁வெகு": 4571,
      "▁அடைந்து": 4572,
      "▁கெ": 4573,
      "▁mark": 4574,
      "▁ஒழுங்க": 4575,
      "▁உதவுமாறு": 4576,
      "ரித்து": 4577,
      "TMs": 4578,
      "▁பணக்கார": 4579,
      "▁backyard": 4580,
      "▁ஆரம்பித்தது": 4581,
      "▁மேக்ஸும்": 4582,
      "▁மாத": 4583,
      "தியான": 4584,
      "▁நெருக்கமாக": 4585,
      "ountain": 4586,
      "பூ": 4587,
      "▁hit": 4588,
      "▁blank": 4589,
      "▁பயணத்தை": 4590,
      "▁உண்மை": 4591,
      "த்தும்": 4592,
      "▁basket": 4593,
      "▁கற்பனை": 4594,
      "க்கெட்ட": 4595,
      "வர்களாக": 4596,
      "▁caught": 4597,
      "▁மேற்கொண்ட": 4598,
      "த்திலும்": 4599,
      "▁birth": 4600,
      "ைகளின்": 4601,
      "▁explor": 4602,
      "▁days": 4603,
      "▁உடைந்தது": 4604,
      "▁ஆரவாரம்": 4605,
      "▁spark": 4606,
      "▁சுண்ட": 4607,
      "ிருக்கும்": 4608,
      "▁இல்லாமல்": 4609,
      "▁pa": 4610,
      "திப்படுத்த": 4611,
      "▁amazed": 4612,
      "ற்றையும்": 4613,
      "▁bal": 4614,
      "▁என்னிடம்": 4615,
      "▁brown": 4616,
      "▁ஓவிய": 4617,
      "umb": 4618,
      "▁பைக்க": 4619,
      "▁சேர்த்த": 4620,
      "▁sur": 4621,
      "▁நேசித்தார்": 4622,
      "▁காடுகளில்": 4623,
      "ுவதில்லை": 4624,
      "vely": 4625,
      "akes": 4626,
      "▁ஒன்றைக்": 4627,
      "▁எழுத": 4628,
      "▁stand": 4629,
      "ude": 4630,
      "ுகளும்": 4631,
      "நில": 4632,
      "▁மறந்து": 4633,
      "ுந்த": 4634,
      "▁போனது": 4635,
      "▁mouth": 4636,
      "▁பனிமனி": 4637,
      "cket": 4638,
      "▁வருத்தமும்": 4639,
      "▁நகைச்ச": 4640,
      "▁தொகு": 4641,
      "ories": 4642,
      "க்கோ": 4643,
      "▁தர": 4644,
      "ிப்பதை": 4645,
      "▁அதிகம்": 4646,
      "aces": 4647,
      "▁ent": 4648,
      "▁குதித்தார்": 4649,
      "▁ஒருவரை": 4650,
      "ject": 4651,
      "▁விளையாடிய": 4652,
      "▁sick": 4653,
      "ங்களின்": 4654,
      "▁புல்வெ": 4655,
      "▁worried": 4656,
      "▁waited": 4657,
      "ows": 4658,
      "ிடமும்": 4659,
      "▁purp": 4660,
      "▁வீசியது": 4661,
      "▁குண": 4662,
      "▁secret": 4663,
      "▁இருந்தபோது": 4664,
      "▁ஆபத்தான": 4665,
      "த்தது": 4666,
      "▁ser": 4667,
      "▁புல்லில்": 4668,
      "டிம்மி": 4669,
      "▁spend": 4670,
      "▁மரிய": 4671,
      "அதற்கு": 4672,
      "ய்வாய்": 4673,
      "▁நோய்வாய்": 4674,
      "▁smart": 4675,
      "▁விளையாடுவதற்காக": 4676,
      "▁தீய": 4677,
      "▁வருத்தப்பட": 4678,
      "▁மைதான": 4679,
      "ுவதைப்": 4680,
      "▁செயல்பட": 4681,
      "▁விளையாடத்": 4682,
      "ருடைய": 4683,
      "▁ஆடைகளை": 4684,
      "▁bought": 4685,
      "▁belong": 4686,
      "▁மரத்தைப்": 4687,
      "▁ஸ்பாட்ட": 4688,
      "▁கூறி": 4689,
      "▁வாழ்க்க": 4690,
      "▁பையில்": 4691,
      "அவர": 4692,
      "▁இருந்தாலும்": 4693,
      "ாவிடம்": 4694,
      "ழ்": 4695,
      "லைஞ": 4696,
      "▁மரங்கள்": 4697,
      "▁மிகுந்த": 4698,
      "▁தேனீக்க": 4699,
      "மனை": 4700,
      "▁ஆலோச": 4701,
      "▁அரக்கன்": 4702,
      "▁காது": 4703,
      "▁படுக்கைக்குச்": 4704,
      "ளியை": 4705,
      "▁rep": 4706,
      "▁கவர்ச்ச": 4707,
      "▁ட்ர": 4708,
      "▁சலிப்ப": 4709,
      "▁உருவாக்கினார்": 4710,
      "▁வீட": 4711,
      "டாம்": 4712,
      "▁பரிசு": 4713,
      "▁prot": 4714,
      "ோட்ட": 4715,
      "▁எங்கள்": 4716,
      "ney": 4717,
      "ிகளுடன்": 4718,
      "▁pulled": 4719,
      "▁வாலை": 4720,
      "▁முயற்சிக்கிறார்": 4721,
      "இந்த": 4722,
      "▁ஆராய்ந்து": 4723,
      "▁piece": 4724,
      "▁life": 4725,
      "▁ரோபோ": 4726,
      "ளையை": 4727,
      "▁ஏமா": 4728,
      "Why": 4729,
      "▁நன்றிய": 4730,
      "ியே": 4731,
      "▁நல்லதல்ல": 4732,
      "▁key": 4733,
      "▁மறக்க": 4734,
      "▁இதுவரை": 4735,
      "▁சுவரில்": 4736,
      "▁birthday": 4737,
      "▁சுத": 4738,
      "ற்றது": 4739,
      "▁falls": 4740,
      "▁cla": 4741,
      "▁அவரும்": 4742,
      "ittens": 4743,
      "▁சுதந்திர": 4744,
      "னையை": 4745,
      "phant": 4746,
      "▁Mary": 4747,
      "▁பாத்திர": 4748,
      "▁அழுத்த": 4749,
      "▁கெட்ட": 4750,
      "▁rocks": 4751,
      "▁அம்மாவை": 4752,
      "▁சுவையாக": 4753,
      "▁அண்டை": 4754,
      "▁orange": 4755,
      "▁இல்லாத": 4756,
      "▁ஆராய்வ": 4757,
      "நாங்கள்": 4758,
      "▁ஆன்": 4759,
      "▁adventures": 4760,
      "ாடி": 4761,
      "▁தொங்க": 4762,
      "▁மின்ன": 4763,
      "நாய்": 4764,
      "▁சங்கட": 4765,
      "▁குளிர்ச்சிய": 4766,
      "▁விடு": 4767,
      "அவரது": 4768,
      "த்தியா": 4769,
      "▁hours": 4770,
      "▁young": 4771,
      "▁கேள": 4772,
      "▁dragon": 4773,
      "▁சர்க்க": 4774,
      "▁காட்ச": 4775,
      "ப்பர்": 4776,
      "▁சோம்ப": 4777,
      "▁சரிசெய்ய": 4778,
      "▁smo": 4779,
      "▁செல்வதற்கு": 4780,
      "▁கொண்டிருப்ப": 4781,
      "ரவு": 4782,
      "▁உண்மைய": 4783,
      "▁பறவையைக்": 4784,
      "▁week": 4785,
      "ிப்பதில்": 4786,
      "▁Tr": 4787,
      "▁மூட": 4788,
      "▁எலும": 4789,
      "▁lunch": 4790,
      "▁star": 4791,
      "Okay": 4792,
      "லையும்": 4793,
      "▁Jill": 4794,
      "▁கார்கள்": 4795,
      "க்கொண்டு": 4796,
      "▁மரத்திலிருந்து": 4797,
      "▁காலணிகளை": 4798,
      "▁விலங்குகளை": 4799,
      "மெலி": 4800,
      "▁trou": 4801,
      "▁புன்னகைத்தாள்": 4802,
      "மடைய": 4803,
      "▁வீட்டின்": 4804,
      "bles": 4805,
      "▁bite": 4806,
      "▁elephant": 4807,
      "▁swings": 4808,
      "▁வகுப்ப": 4809,
      "்களின்": 4810,
      "▁அனுபவித்து": 4811,
      "▁fit": 4812,
      "▁வைப்ப": 4813,
      "▁உதவும்": 4814,
      "▁trip": 4815,
      "▁நீள": 4816,
      "▁பொம்மையுடன்": 4817,
      "▁சுரங்க": 4818,
      "▁ஜாட": 4819,
      "▁பார்க்கவில்லை": 4820,
      "▁jar": 4821,
      "▁plays": 4822,
      "▁whe": 4823,
      "▁ஈர": 4824,
      "▁தாமதமாக": 4825,
      "▁em": 4826,
      "▁வழிவ": 4827,
      "▁storm": 4828,
      "▁past": 4829,
      "itting": 4830,
      "▁குடிக்க": 4831,
      "▁such": 4832,
      "▁saf": 4833,
      "▁eg": 4834,
      "▁வழி": 4835,
      "rown": 4836,
      "▁தார்மீகம்": 4837,
      "▁இருந்தால்": 4838,
      "▁துண்டை": 4839,
      "▁சுற்றிக்": 4840,
      "▁jour": 4841,
      "ush": 4842,
      "▁யானை": 4843,
      "ார்க்க": 4844,
      "▁சத்தம": 4845,
      "▁apples": 4846,
      "▁கூறினர்": 4847,
      "▁போனார்": 4848,
      "▁crying": 4849,
      "▁welc": 4850,
      "pper": 4851,
      "▁ஆறுதல்": 4852,
      "Mommy": 4853,
      "்களால்": 4854,
      "▁soup": 4855,
      "▁சோர்வாக": 4856,
      "▁பாராட்ட": 4857,
      "ப்த": 4858,
      "த்திற்குள்": 4859,
      "▁இனிமையான": 4860,
      "▁சூப்": 4861,
      "▁சொல": 4862,
      "▁caus": 4863,
      "▁பவு": 4864,
      "▁மறைந்த": 4865,
      "cked": 4866,
      "ைகளால்": 4867,
      "▁தீப்ப": 4868,
      "▁கிரீ": 4869,
      "med": 4870,
      "▁வாழ்ந்தனர்": 4871,
      "ிகளில்": 4872,
      "▁purple": 4873,
      "ுக்கள்": 4874,
      "olog": 4875,
      "▁சிரிக்க": 4876,
      "▁ஆச்சரியம்": 4877,
      "▁புன்னகை": 4878,
      "▁அனைத்தும்": 4879,
      "▁பசும": 4880,
      "ிவான": 4881,
      "▁துய": 4882,
      "▁தேவதை": 4883,
      "ுகிறீர்கள்": 4884,
      "▁அனைவருக்கும்": 4885,
      "▁words": 4886,
      "▁விரும்பினார்கள்": 4887,
      "▁boun": 4888,
      "▁கூர்மையான": 4889,
      "This": 4890,
      "▁தங்களுக்கு": 4891,
      "▁அன்பாகவும்": 4892,
      "▁திரும்பிச்": 4893,
      "▁year": 4894,
      "▁ஆத": 4895,
      "aur": 4896,
      "ates": 4897,
      "▁அடுப்ப": 4898,
      "▁tiny": 4899,
      "sy": 4900,
      "▁protect": 4901,
      "போதிலும்": 4902,
      "▁வைத்தது": 4903,
      "▁சூவும்": 4904,
      "▁உறை": 4905,
      "தியில்": 4906,
      "▁St": 4907,
      "▁letter": 4908,
      "▁உற்று": 4909,
      "▁பில்ல": 4910,
      "▁உங்களது": 4911,
      "▁அதே": 4912,
      "▁well": 4913,
      "ம்பில்": 4914,
      "▁திராட்ச": 4915,
      "▁செல்லும்போது": 4916,
      "▁ஆப்பிள்": 4917,
      "லாட": 4918,
      "▁சோம்பே": 4919,
      "▁இருப்பதாகவும்": 4920,
      "க்கில்": 4921,
      "▁நிறம்": 4922,
      "▁carry": 4923,
      "▁ரே": 4924,
      "▁நிச்சயமாக": 4925,
      "▁நண்பர்களாகி": 4926,
      "▁கடைக்கு": 4927,
      "▁படகை": 4928,
      "▁hum": 4929,
      "▁முத்த": 4930,
      "▁gentle": 4931,
      "▁minutes": 4932,
      "▁பெறுகிறார்": 4933,
      "▁Maybe": 4934,
      "▁ஏரிய": 4935,
      "▁cour": 4936,
      "▁வால்": 4937,
      "▁நம்பகமான": 4938,
      "▁cray": 4939,
      "▁பெய்ய": 4940,
      "ாலத்தில்": 4941,
      "▁பண்புகள்": 4942,
      "▁ஓடினாள்": 4943,
      "▁படுக்கையில்": 4944,
      "▁Kitty": 4945,
      "▁மிகச்": 4946,
      "ward": 4947,
      "ணியை": 4948,
      "▁காய்க": 4949,
      "லமான": 4950,
      "▁remind": 4951,
      "▁சண்டை": 4952,
      "▁சிரிப்ப": 4953,
      "▁வாயில்": 4954,
      "▁உதவுவ": 4955,
      "board": 4956,
      "▁lar": 4957,
      "▁பூக்கள": 4958,
      "▁பளபளப்பாகவும்": 4959,
      "▁நான": 4960,
      "▁நிறுத்து": 4961,
      "▁q": 4962,
      "வேன்": 4963,
      "unt": 4964,
      "▁While": 4965,
      "▁வளர": 4966,
      "▁போர்வ": 4967,
      "▁பெருமூச்சு": 4968,
      "னைய": 4969,
      "▁ce": 4970,
      "▁faster": 4971,
      "▁அலுவ": 4972,
      "▁பயிற்சி": 4973,
      "▁புள்ள": 4974,
      "▁பல்வேறு": 4975,
      "▁sol": 4976,
      "▁நலமாக": 4977,
      "▁heart": 4978,
      "▁இடத்தைக்": 4979,
      "▁ஆற்ற": 4980,
      "▁ரெ": 4981,
      "▁power": 4982,
      "▁talking": 4983,
      "▁conf": 4984,
      "▁அமைதியான": 4985,
      "▁கூச்ச": 4986,
      "லைக்கு": 4987,
      "▁மேச": 4988,
      "நிலை": 4989,
      "▁இருட்ட": 4990,
      "▁பின்பற்ற": 4991,
      "▁gift": 4992,
      "ப்படவில்லை": 4993,
      "itch": 4994,
      "ெடுத்த": 4995,
      "▁உணரச்": 4996,
      "ங்களால்": 4997,
      "▁பசியால்": 4998,
      "▁உயி": 4999,
      "▁Emma": 5000,
      "\"\"\"": 5001,
      "ized": 5002,
      "▁ஊற்ற": 5003,
      "▁neck": 5004,
      "▁True": 5005,
      "▁படகில்": 5006,
      "itten": 5007,
      "ல்களை": 5008,
      "▁pig": 5009,
      "▁அணில": 5010,
      "▁திரைப்பட": 5011,
      "▁shoes": 5012,
      "▁question": 5013,
      "ese": 5014,
      "ses": 5015,
      "▁சேர": 5016,
      "▁building": 5017,
      "▁தெருவ": 5018,
      "▁reg": 5019,
      "▁கச": 5020,
      "eared": 5021,
      "▁தேன்": 5022,
      "▁கேட்டுக்க": 5023,
      "▁ஏமாற்ற": 5024,
      "▁patient": 5025,
      "▁காரண": 5026,
      "▁மிருகக்காட்சி": 5027,
      "▁வருகிறது": 5028,
      "▁mist": 5029,
      "▁kiss": 5030,
      "ோர்": 5031,
      "▁கடைசியில்": 5032,
      "ையைத்": 5033,
      "▁காவல": 5034,
      "ள்ளைய": 5035,
      "▁முடிந்தவரை": 5036,
      "▁நீர": 5037,
      "▁ருச": 5038,
      "▁அதைத்": 5039,
      "▁வரைபட": 5040,
      "ஜியம்": 5041,
      "▁உறுதிப்படுத்த": 5042,
      "▁longer": 5043,
      "als": 5044,
      "▁புதி": 5045,
      "▁அழைத்தார்": 5046,
      "ுகையில்": 5047,
      "ives": 5048,
      "▁புதைய": 5049,
      "▁class": 5050,
      "▁உதவிக்காக": 5051,
      "▁blanket": 5052,
      "▁சிப்ப": 5053,
      "▁hig": 5054,
      "▁அர்த்த": 5055,
      "▁பெரியதாகவும்": 5056,
      "▁cover": 5057,
      "▁துப்ப": 5058,
      "▁குழுவ": 5059,
      "▁buck": 5060,
      "▁தேவைய": 5061,
      "cks": 5062,
      "ித்தபோது": 5063,
      "▁மெல்லிய": 5064,
      "▁தலையில்": 5065,
      "▁எல்லோ": 5066,
      "▁பத்திரமாக": 5067,
      "▁இனிமேலும்": 5068,
      "▁band": 5069,
      "▁ஆப்பிளை": 5070,
      "ன்கள்": 5071,
      "த்தியாச": 5072,
      "▁வித்தியாச": 5073,
      "Sure": 5074,
      "▁திருட": 5075,
      "▁wouldn": 5076,
      "▁வாட": 5077,
      "ஹாய்": 5078,
      "ியாள": 5079,
      "▁நினைக்கிறார்": 5080,
      "▁exp": 5081,
      "▁Soon": 5082,
      "▁சந்திக்கிறார்": 5083,
      "▁sunny": 5084,
      "▁படுக்கையின்": 5085,
      "▁neighbor": 5086,
      "▁tom": 5087,
      "▁sell": 5088,
      "▁stre": 5089,
      "▁ஸ்லைடு": 5090,
      "க்த": 5091,
      "படி": 5092,
      "▁லார": 5093,
      "▁மாண": 5094,
      "▁பொய்ய": 5095,
      "த்திற்க": 5096,
      "▁sub": 5097,
      "▁கொள்வது": 5098,
      "▁கொட்ட": 5099,
      "▁பாய்ந்து": 5100,
      "▁dolls": 5101,
      "▁உயர்த்த": 5102,
      "▁teacher": 5103,
      "▁நீந்திச்": 5104,
      "▁விளையாடவும்": 5105,
      "▁அக்க": 5106,
      "▁threw": 5107,
      "▁pay": 5108,
      "▁போட்டி": 5109,
      "cean": 5110,
      "▁பரிந்து": 5111,
      "▁எதைய": 5112,
      "▁அருகிலுள்ள": 5113,
      "▁pushed": 5114,
      "▁குக்கீஸ்": 5115,
      "▁king": 5116,
      "▁விற்ப": 5117,
      "ட்ச": 5118,
      "▁குதிப்ப": 5119,
      "▁பாடத்தைக்": 5120,
      "▁compl": 5121,
      "ையே": 5122,
      "▁spe": 5123,
      "▁fear": 5124,
      "▁கேட்டான்": 5125,
      "▁போபோ": 5126,
      "▁கண்டறிய": 5127,
      "▁பாடம்": 5128,
      "▁முடிவில்": 5129,
      "▁சத்தத்தைக்": 5130,
      "▁படை": 5131,
      "ிறீர்கள்": 5132,
      "▁தொப்பி": 5133,
      "▁believe": 5134,
      "iting": 5135,
      "▁வாசனை": 5136,
      "▁தீங்கு": 5137,
      "▁சாக்லேட்": 5138,
      "லெ": 5139,
      "to": 5140,
      "▁கடன்": 5141,
      "▁singing": 5142,
      "▁வளை": 5143,
      "▁gen": 5144,
      "▁காலை": 5145,
      "▁rub": 5146,
      "▁success": 5147,
      "▁உருவாக்கி": 5148,
      "▁சிநே": 5149,
      "▁thinks": 5150,
      "▁உண்மையிலேயே": 5151,
      "▁அகற்ற": 5152,
      "தியை": 5153,
      "▁பூட்ட": 5154,
      "▁juice": 5155,
      "▁இருக்கிறேன்": 5156,
      "▁Mittens": 5157,
      "oura": 5158,
      "▁சுற்றுலா": 5159,
      "டுங்க": 5160,
      "▁ட்வீ": 5161,
      "▁sandw": 5162,
      "▁நாயும்": 5163,
      "▁மருந்த": 5164,
      "▁ஆபத்தானது": 5165,
      "▁புல்": 5166,
      "▁கிராய": 5167,
      "▁சொன்னான்": 5168,
      "▁ben": 5169,
      "▁cann": 5170,
      "▁சாவியை": 5171,
      "But": 5172,
      "ைகளுடன்": 5173,
      "▁உடைக்க": 5174,
      "மெலிச": 5175,
      "▁முடியாமல்": 5176,
      "▁needs": 5177,
      "▁சிறுமிக்கு": 5178,
      "▁தந்தையிடம்": 5179,
      "▁wild": 5180,
      "ைகளும்": 5181,
      "▁மகிழ்ச்சியையும்": 5182,
      "▁across": 5183,
      "▁தொந்த": 5184,
      "▁சிநேக": 5185,
      "தற்காகவும்": 5186,
      "▁ocean": 5187,
      "ரையும்": 5188,
      "▁வெள்ள": 5189,
      "ஸ்த": 5190,
      "கள": 5191,
      "ணைப்பு": 5192,
      "▁உண்மையில்": 5193,
      "▁apolog": 5194,
      "▁வயிற": 5195,
      "▁along": 5196,
      "▁துண்டு": 5197,
      "▁smiles": 5198,
      "▁கடிக": 5199,
      "உங்கள்": 5200,
      "eb": 5201,
      "idge": 5202,
      "▁நமக்கு": 5203,
      "▁opt": 5204,
      "▁butt": 5205,
      "▁சம்ப": 5206,
      "▁healthy": 5207,
      "ிட்": 5208,
      "▁peace": 5209,
      "▁bottle": 5210,
      "▁rainb": 5211,
      "▁தார": 5212,
      "▁branch": 5213,
      "▁வண்ணம்": 5214,
      "▁வழியை": 5215,
      "▁தனித்துவ": 5216,
      "ப்ட": 5217,
      "ork": 5218,
      "▁wings": 5219,
      "▁helpful": 5220,
      "▁fence": 5221,
      "▁ஒவ்வொருவ": 5222,
      "▁தேவைப்பட": 5223,
      "epend": 5224,
      "▁கருண": 5225,
      "▁whist": 5226,
      "▁teaches": 5227,
      "▁sour": 5228,
      "▁குறிப்பில்லாத": 5229,
      "▁குளிராக": 5230,
      "▁பிரகாசமாகவும்": 5231,
      "ming": 5232,
      "ps": 5233,
      "பாவ": 5234,
      "▁ant": 5235,
      "▁throw": 5236,
      "▁கூட்ட": 5237,
      "▁cannot": 5238,
      "▁நீரில்": 5239,
      "▁மொத்த": 5240,
      "▁செய்வதை": 5241,
      "்பை": 5242,
      "aughty": 5243,
      "▁இடங்களிலும்": 5244,
      "ider": 5245,
      "்தான்": 5246,
      "▁using": 5247,
      "மெலிசமெலிச": 5248,
      "▁லி": 5249,
      "▁மிய": 5250,
      "▁தருக": 5251,
      "▁சேற்றில்": 5252,
      "▁எறும்பு": 5253,
      "▁naughty": 5254,
      "▁அவருக்க": 5255,
      "▁today": 5256,
      "▁watching": 5257,
      "▁சாப்பிட்டார்": 5258,
      "ஸ்ட்": 5259,
      "▁வழிவக": 5260,
      "▁கதவு": 5261,
      "▁learning": 5262,
      "▁சிநேகப்பான்": 5263,
      "▁குரங்க": 5264,
      "▁திமி": 5265,
      "▁மீட்ட": 5266,
      "▁அளவு": 5267,
      "▁வெறும்": 5268,
      "▁சிந்தித்தார்": 5269,
      "▁நாய்க்குட்டியை": 5270,
      "▁கடைசியாக": 5271,
      "▁எடை": 5272,
      "▁pres": 5273,
      "▁Daddy": 5274,
      "▁சந்திர": 5275,
      "▁அறைக்குள்": 5276,
      "▁எனக்குத்": 5277,
      "வசமாக": 5278,
      "▁Inside": 5279,
      "▁Sammy": 5280,
      "▁ஆடையை": 5281,
      "▁mach": 5282,
      "யம்": 5283,
      "வைக்": 5284,
      "▁குளியல": 5285,
      "▁விமானம்": 5286,
      "▁ஆர்வமுள்ள": 5287,
      "▁வருத்தமாக": 5288,
      "▁அனுமதிக்க": 5289,
      "▁Their": 5290,
      "▁street": 5291,
      "▁உருவாக்கிய": 5292,
      "▁வேடிக்கையானது": 5293,
      "ove": 5294,
      "▁spo": 5295,
      "▁குடும்பத்தின": 5296,
      "னைக்": 5297,
      "irt": 5298,
      "ாரர்": 5299,
      "▁mud": 5300,
      "▁exploring": 5301,
      "▁சிரித்தார்கள்": 5302,
      "▁விஷயங்களைப்": 5303,
      "▁பறவையும்": 5304,
      "▁scream": 5305,
      "▁முத்தம": 5306,
      "▁eas": 5307,
      "ிகரமான": 5308,
      "▁ஓடினர்": 5309,
      "▁ஓடினார்கள்": 5310,
      "▁பேர்": 5311,
      "▁உடனடியாக": 5312,
      "▁பொழு": 5313,
      "ண்ணாடி": 5314,
      "▁எங்கும்": 5315,
      "ற்றார்": 5316,
      "▁செல்வோம்": 5317,
      "▁large": 5318,
      "▁மர்மமான": 5319,
      "▁செய்தார்கள்": 5320,
      "▁explained": 5321,
      "▁ind": 5322,
      "▁ஊசலாட": 5323,
      "▁course": 5324,
      "read": 5325,
      "▁நகர்த்த": 5326,
      "ப்பாக": 5327,
      "▁காய்கற": 5328,
      "▁enjoys": 5329,
      "▁அசைக்க": 5330,
      "▁புன்னகைக்க": 5331,
      "els": 5332,
      "▁pudd": 5333,
      "▁கண்ணாடி": 5334,
      "▁நேசிக்க": 5335,
      "சன்": 5336,
      "▁med": 5337,
      "▁shows": 5338,
      "▁நாய்க்குட்டி": 5339,
      "ird": 5340,
      "▁பார்வ": 5341,
      "▁closed": 5342,
      "▁இருந்தபோதிலும்": 5343,
      "▁ign": 5344,
      "▁Mama": 5345,
      "▁ப்ளூ": 5346,
      "ழுக": 5347,
      "▁av": 5348,
      "▁மணலில்": 5349,
      "▁பாக்கெட்ட": 5350,
      "▁விரக்த": 5351,
      "ஹலோ": 5352,
      "ுகொள்ள": 5353,
      "▁corn": 5354,
      "▁குழாய்": 5355,
      "▁முட்டாள்": 5356,
      "ling": 5357,
      "ஞ்சிய": 5358,
      "▁late": 5359,
      "▁higher": 5360,
      "ுவிட்டார்": 5361,
      "▁இரண்ட": 5362,
      "▁செலவிட": 5363,
      "uct": 5364,
      "iness": 5365,
      "▁நேர்": 5366,
      "▁கேலி": 5367,
      "▁புரிய": 5368,
      "▁slowly": 5369,
      "▁இசையை": 5370,
      "▁பெல்ஜியம்": 5371,
      "▁இடத்தை": 5372,
      "arth": 5373,
      "ர்நா": 5374,
      "▁ஸ்லைடில்": 5375,
      "ாதே": 5376,
      "▁impress": 5377,
      "ந்தன": 5378,
      "▁lift": 5379,
      "னில்": 5380,
      "▁தண்ட": 5381,
      "▁எமிலி": 5382,
      "▁ஆகியவற்ற": 5383,
      "▁விருந்து": 5384,
      "ெய்": 5385,
      "▁போராட": 5386,
      "பரவாயில்லை": 5387,
      "▁சீனிவ": 5388,
      "▁டாமுக்கு": 5389,
      "▁myster": 5390,
      "▁பெற்று": 5391,
      "▁உதவுகிறாள்": 5392,
      "னிடம்": 5393,
      "▁அறிந்திருந்தனர்": 5394,
      "▁dropped": 5395,
      "▁துர்நா": 5396,
      "▁சுயந": 5397,
      "ிருக்கிறது": 5398,
      "▁தெரியாத": 5399,
      "▁உணர்கிறார்": 5400,
      "▁இருப்பதால்": 5401,
      "▁பரிசை": 5402,
      "▁தொழ": 5403,
      "erest": 5404,
      "▁கனமான": 5405,
      "▁பணி": 5406,
      "▁இங்கு": 5407,
      "டும்": 5408,
      "▁மகிழ்ச்சியடையச்": 5409,
      "தய": 5410,
      "▁நாளைக்": 5411,
      "▁road": 5412,
      "▁supp": 5413,
      "▁shr": 5414,
      "▁பெட்டியைக்": 5415,
      "▁woke": 5416,
      "ரும்போது": 5417,
      "ிகளுக்கு": 5418,
      "▁நகரத்தில்": 5419,
      "▁grou": 5420,
      "▁mel": 5421,
      "▁ஒட்ட": 5422,
      "▁மலரை": 5423,
      "▁மால": 5424,
      "▁நண்பர்களுக்கு": 5425,
      "▁கொள்ளலாம்": 5426,
      "டுமாறு": 5427,
      "▁காலம்": 5428,
      "▁உங்களிடம்": 5429,
      "மோ": 5430,
      "▁நிறுத்தி": 5431,
      "▁promise": 5432,
      "▁di": 5433,
      "▁உடன்": 5434,
      "▁மியாவும்": 5435,
      "▁வரவேற": 5436,
      "▁வலுவாக": 5437,
      "ெங்கெங்கெங்கெங்க": 5438,
      "nic": 5439,
      "▁knock": 5440,
      "▁புத்தகம்": 5441,
      "▁busy": 5442,
      "▁தீயணைப்பு": 5443,
      "ிட்ச": 5444,
      "▁வீசி": 5445,
      "▁forever": 5446,
      "▁அளித்தார்": 5447,
      "▁Al": 5448,
      "▁object": 5449,
      "▁போகும்": 5450,
      "▁பள்ளி": 5451,
      "▁கால்ப": 5452,
      "▁interest": 5453,
      "▁பக": 5454,
      "ato": 5455,
      "▁நெருங்க": 5456,
      "▁பொம்மைகளையும்": 5457,
      "▁cute": 5458,
      "▁நண்டு": 5459,
      "▁சேர்ந்த": 5460,
      "லுடன்": 5461,
      "▁அசைத்த": 5462,
      "▁மறுப": 5463,
      "▁நம்பிக்கை": 5464,
      "▁pic": 5465,
      "ால்ப": 5466,
      "▁வாத்த": 5467,
      "▁தேவைப்பட்டது": 5468,
      "▁leaving": 5469,
      "▁அருமையான": 5470,
      "▁hor": 5471,
      "▁milk": 5472,
      "▁welcome": 5473,
      "▁மித": 5474,
      "▁கண்டறி": 5475,
      "▁வெண்ண": 5476,
      "▁இழுக்க": 5477,
      "ிருக்கவில்லை": 5478,
      "▁முயன்றனர்": 5479,
      "blem": 5480,
      "▁சிறந்தது": 5481,
      "▁suddenly": 5482,
      "▁மோலி": 5483,
      "▁பாதுகாக்க": 5484,
      "▁par": 5485,
      "ாங்க": 5486,
      "▁தூங்கிக்": 5487,
      "▁சாப்பிட்டனர்": 5488,
      "லான": 5489,
      "▁அலை": 5490,
      "▁டாக": 5491,
      "▁புண்ப": 5492,
      "▁கோபமடைந்து": 5493,
      "ித்தன": 5494,
      "ந்தாள்": 5495,
      "▁suggest": 5496,
      "▁picnic": 5497,
      "▁rainbow": 5498,
      "▁spin": 5499,
      "▁எல்லாவற்றையும்": 5500,
      "Maybe": 5501,
      "▁நிற்க": 5502,
      "▁search": 5503,
      "▁துணியை": 5504,
      "cc": 5505,
      "நீர்": 5506,
      "▁round": 5507,
      "▁though": 5508,
      "▁இலைகளை": 5509,
      "▁பயன": 5510,
      "▁sal": 5511,
      "▁மீனை": 5512,
      "▁உற்சாகமான": 5513,
      "▁உள்ளனர்": 5514,
      "▁puts": 5515,
      "▁ரயில": 5516,
      "▁problem": 5517,
      "பட்ச": 5518,
      "ுக்குள்": 5519,
      "ுய": 5520,
      "▁பதி": 5521,
      "▁pocket": 5522,
      "▁மாட்டேன்": 5523,
      "la": 5524,
      "ுகளின்": 5525,
      "▁இரவில்": 5526,
      "▁பூனையைப்": 5527,
      "னிய": 5528,
      "▁stars": 5529,
      "▁இருப்பதில்": 5530,
      "▁imag": 5531,
      "▁shell": 5532,
      "▁மேம்ப": 5533,
      "▁செய்கிறீர்கள்": 5534,
      "▁வாங்குவதற்காக": 5535,
      "▁கதற": 5536,
      "▁Jimmy": 5537,
      "▁வந்தாள்": 5538,
      "▁தினமே": 5539,
      "விட்ட": 5540,
      "▁பனிமனித": 5541,
      "▁cir": 5542,
      "▁தொந்தரவு": 5543,
      "மடைந்தாள்": 5544,
      "ator": 5545,
      "▁feet": 5546,
      "▁தேவதூ": 5547,
      "▁காலில்": 5548,
      "▁கேரட்": 5549,
      "▁செய்கிறாள்": 5550,
      "▁sitting": 5551,
      "விட்டார்": 5552,
      "▁அடித்து": 5553,
      "ost": 5554,
      "▁swam": 5555,
      "alse": 5556,
      "▁திருப்பித்": 5557,
      "▁kite": 5558,
      "▁அழுதார்": 5559,
      "▁சுற்றித்": 5560,
      "▁மகிழ்ச்சியும்": 5561,
      "ினும்": 5562,
      "▁கிடைக்கவில்லை": 5563,
      "▁blew": 5564,
      "ுவிட்டது": 5565,
      "▁மிட்டன்ஸ்": 5566,
      "மாகும்": 5567,
      "ப்பதற்கு": 5568,
      "▁கடுமையான": 5569,
      "uce": 5570,
      "▁cheese": 5571,
      "▁ஏரி": 5572,
      "▁சமையல்": 5573,
      "▁லிச": 5574,
      "ிந்து": 5575,
      "▁துளைய": 5576,
      "augh": 5577,
      "▁hon": 5578,
      "▁சோத": 5579,
      "▁pri": 5580,
      "▁நிறைவே": 5581,
      "▁ராக்க": 5582,
      "▁சிவ": 5583,
      "aughter": 5584,
      "▁திருமணம்": 5585,
      "▁எல்லாம்": 5586,
      "▁தொட்டியில்": 5587,
      "▁பொய்யானது": 5588,
      "▁driver": 5589,
      "▁pract": 5590,
      "▁குரலில்": 5591,
      "்ந": 5592,
      "▁புதை": 5593,
      "▁clapped": 5594,
      "▁பந்தயத்தில்": 5595,
      "▁உங்களுக்காக": 5596,
      "▁குட்பை": 5597,
      "▁shy": 5598,
      "▁சார்": 5599,
      "▁பெரியதாக": 5600,
      "▁காத்திருந்தார்": 5601,
      "▁நடனமா": 5602,
      "ந்துவிட்டது": 5603,
      "த்துக்க": 5604,
      "▁ஒளிந்து": 5605,
      "ssed": 5606,
      "▁தெருவில்": 5607,
      "▁யூ": 5608,
      "▁False": 5609,
      "க்கண": 5610,
      "▁wra": 5611,
      "▁மேஜிக்": 5612,
      "▁இழந்து": 5613,
      "▁ear": 5614,
      "▁nose": 5615,
      "ாவிட்ட": 5616,
      "▁சீஸ்": 5617,
      "▁ஓநாய்": 5618,
      "ுக்குக்": 5619,
      "lder": 5620,
      "▁விலகிச்": 5621,
      "▁zoo": 5622,
      "▁சமைக்க": 5623,
      "ளிக்க": 5624,
      "▁Ell": 5625,
      "▁அறிவ": 5626,
      "▁பெரிதாக": 5627,
      "ிருப்பதைக்": 5628,
      "ெல்": 5629,
      "ining": 5630,
      "▁காரமான": 5631,
      "▁மட": 5632,
      "▁செய்வதில்": 5633,
      "ிகளின்": 5634,
      "▁தாத்தா": 5635,
      "ீரற்ற": 5636,
      "▁சக்கர": 5637,
      "▁கொள்ளவும்": 5638,
      "ந்தபோது": 5639,
      "▁சுட்டி": 5640,
      "க்குமாறு": 5641,
      "▁சுவாரஸ்யமான": 5642,
      "▁கண்டுபிடித்தனர்": 5643,
      "▁அடு": 5644,
      "▁சுபாவ": 5645,
      "▁swimming": 5646,
      "▁மருத்துவர்": 5647,
      "தயவு": 5648,
      "▁படம்": 5649,
      "▁snake": 5650,
      "▁சமி": 5651,
      "▁நெருங்கி": 5652,
      "▁இடத்திற்கு": 5653,
      "▁தாய்க்கு": 5654,
      "Lily": 5655,
      "▁seek": 5656,
      "unk": 5657,
      "▁sang": 5658,
      "▁nearby": 5659,
      "▁சிக்கிக்": 5660,
      "▁மண்ட": 5661,
      "▁ஏற்பட்டது": 5662,
      "▁incl": 5663,
      "▁ஆசிரியர்": 5664,
      "▁என்பதைக்": 5665,
      "▁கொண்டிருந்தன": 5666,
      "▁விலங்குகளும்": 5667,
      "▁எச்சர": 5668,
      "▁இருக்கு": 5669,
      "adow": 5670,
      "▁என்னுடையது": 5671,
      "▁drove": 5672,
      "▁வேடிக்கையாகவும்": 5673,
      "டினார்கள்": 5674,
      "▁stories": 5675,
      "ete": 5676,
      "apes": 5677,
      "▁நானும்": 5678,
      "▁பையனை": 5679,
      "▁பொருந்த": 5680,
      "▁நண்பருக்கு": 5681,
      "▁இருந்ததற்காக": 5682,
      "izz": 5683,
      "ப்பகு": 5684,
      "▁உணர்வு": 5685,
      "▁பின்புறத்தில்": 5686,
      "▁cave": 5687,
      "▁கம்பளிப்பு": 5688,
      "▁மருத்துவமனை": 5689,
      "ாகும்": 5690,
      "டித்து": 5691,
      "▁ஒப்பு": 5692,
      "▁பாலை": 5693,
      "The": 5694,
      "▁கேவல": 5695,
      "ஆனால்": 5696,
      "▁ஓட்டி": 5697,
      "▁ஸ்விங்": 5698,
      "▁அறிந்து": 5699,
      "▁லோ": 5700,
      "▁Two": 5701,
      "▁adm": 5702,
      "▁ஆட்ட": 5703,
      "▁என்பதில்": 5704,
      "▁மாட்டார்": 5705,
      "▁emb": 5706,
      "▁ஓடிய": 5707,
      "▁மழையில்": 5708,
      "▁feat": 5709,
      "▁துர்நாற்றம்": 5710,
      "▁டைன": 5711,
      "▁விற்க": 5712,
      "▁வருத்தம்": 5713,
      "▁அசைத்தார்": 5714,
      "ுவதாகவும்": 5715,
      "▁பிரவு": 5716,
      "▁கடிக்க": 5717,
      "▁இனிப்பு": 5718,
      "▁breaks": 5719,
      "▁உழை": 5720,
      "▁கால்ந": 5721,
      "▁வண்ட": 5722,
      "▁ஸ்ட்ர": 5723,
      "ages": 5724,
      "▁இறக": 5725,
      "▁twins": 5726,
      "பட்ட": 5727,
      "▁plants": 5728,
      "▁times": 5729,
      "▁ஓட்டு": 5730,
      "ாஷ்": 5731,
      "▁crab": 5732,
      "▁தன்னைச்": 5733,
      "▁பிடிவாத": 5734,
      "மடைந்தனர்": 5735,
      "▁பதற்ற": 5736,
      "▁பாறையைக்": 5737,
      "▁ban": 5738,
      "▁பஸ்": 5739,
      "▁sold": 5740,
      "▁ஆண்ட": 5741,
      "▁பாறையை": 5742,
      "கவலைப்படாதீர்கள்": 5743,
      "▁வலு": 5744,
      "▁group": 5745,
      "▁தன்மை": 5746,
      "ல்லா": 5747,
      "▁machine": 5748,
      "umpy": 5749,
      "▁லேச": 5750,
      "▁புரியவில்லை": 5751,
      "▁coat": 5752,
      "▁விளையாடும்": 5753,
      "▁அமைதியாகவும்": 5754,
      "lebr": 5755,
      "மின்": 5756,
      "▁இறங்கி": 5757,
      "▁foot": 5758,
      "க்கினார்": 5759,
      "▁இழக்க": 5760,
      "▁journey": 5761,
      "▁தாராள": 5762,
      "arp": 5763,
      "mer": 5764,
      "▁இருப்பார்": 5765,
      "ிரை": 5766,
      "▁bread": 5767,
      "▁ஸ்கார்": 5768,
      "▁சிக்கிக்கொண்ட": 5769,
      "▁cozy": 5770,
      "▁fil": 5771,
      "▁pill": 5772,
      "▁daughter": 5773,
      "▁சீனியர்": 5774,
      "▁பெரும்": 5775,
      "▁தெரிவித்து": 5776,
      "▁திரும்புவதற்கான": 5777,
      "▁மூழ": 5778,
      "▁பாடி": 5779,
      "▁எல்லோரும்": 5780,
      "▁உதவுகிறேன்": 5781,
      "▁பால": 5782,
      "▁வகையில்": 5783,
      "▁முறையும்": 5784,
      "ocol": 5785,
      "▁தடி": 5786,
      "▁உருவாக்கினர்": 5787,
      "▁சுண்ணா": 5788,
      "ார்க்": 5789,
      "▁bush": 5790,
      "▁பலக": 5791,
      "▁உலகத்தை": 5792,
      "▁bench": 5793,
      "▁தப்பி": 5794,
      "▁மருத்துவரிடம்": 5795,
      "gled": 5796,
      "▁செய்யலாம்": 5797,
      "▁திமிங்க": 5798,
      "▁val": 5799,
      "த்தான்": 5800,
      "▁asleep": 5801,
      "▁திருப்பிக்": 5802,
      "ric": 5803,
      "▁kick": 5804,
      "டுதல்": 5805,
      "▁rob": 5806,
      "▁huge": 5807,
      "▁தேர்வு": 5808,
      "தயவுசெய்து": 5809,
      "▁chick": 5810,
      "▁கேட்கிறார்கள்": 5811,
      "▁hang": 5812,
      "ெட்டை": 5813,
      "▁clever": 5814,
      "▁மக்கள": 5815,
      "▁seat": 5816,
      "▁கண்க": 5817,
      "▁தவறி": 5818,
      "▁பொருள": 5819,
      "▁அரண்": 5820,
      "▁உலகை": 5821,
      "▁honey": 5822,
      "▁during": 5823,
      "▁மொத்தம்": 5824,
      "▁போலி": 5825,
      "▁சூடாக": 5826,
      "▁உலர்ந்த": 5827,
      "▁செவ": 5828,
      "▁wave": 5829,
      "▁குள்ள": 5830,
      "▁பெற்றோருடன்": 5831,
      "▁தந்தையின்": 5832,
      "▁மக்களை": 5833,
      "▁அண்ண": 5834,
      "▁வசிக்கும்": 5835,
      "▁வாங்கினார்": 5836,
      "▁லை": 5837,
      "▁கண்ணாட": 5838,
      "Do": 5839,
      "▁ஓடுவதையும்": 5840,
      "▁U": 5841,
      "ிவிட்ட": 5842,
      "▁பெட்டியைத்": 5843,
      "ipped": 5844,
      "▁பிளாக்க": 5845,
      "▁நடக்கிறது": 5846,
      "lex": 5847,
      "▁change": 5848,
      "▁chocol": 5849,
      "தாகத்": 5850,
      "▁horse": 5851,
      "▁Bl": 5852,
      "▁இளம்": 5853,
      "▁சுறு": 5854,
      "▁கிடைத்ததில்": 5855,
      "சுறு": 5856,
      "▁touc": 5857,
      "்றை": 5858,
      "▁places": 5859,
      "▁live": 5860,
      "▁டாமை": 5861,
      "்கிறோம்": 5862,
      "▁கையைப்": 5863,
      "▁மெழுக": 5864,
      "▁சந்திக்கிறது": 5865,
      "▁af": 5866,
      "▁சுறுசுறு": 5867,
      "▁புறக்கண": 5868,
      "▁பலூனை": 5869,
      "▁Grandma": 5870,
      "▁கூறுகையில்": 5871,
      "ையிலும்": 5872,
      "▁decide": 5873,
      "▁தேவதூத": 5874,
      "▁sharp": 5875,
      "▁முடிக்க": 5876,
      "▁டைனோச": 5877,
      "▁moved": 5878,
      "▁spider": 5879,
      "யே": 5880,
      "▁decides": 5881,
      "▁சோகத்துடனும்": 5882,
      "▁நோய": 5883,
      "▁காற்ற": 5884,
      "▁கண்கள்": 5885,
      "▁அவர்களுக்குத்": 5886,
      "▁vill": 5887,
      "ancy": 5888,
      "▁spoon": 5889,
      "▁சிலந்தி": 5890,
      "ாலில்": 5891,
      "க்காள": 5892,
      "▁திருப்த": 5893,
      "▁இருக்கிறாய்": 5894,
      "▁ஜிம்": 5895,
      "▁பனிக்க": 5896,
      "den": 5897,
      "▁சிறக": 5898,
      "▁உடற்ப": 5899,
      "▁ஒளிரும்": 5900,
      "ப்பிட": 5901,
      "வைப்": 5902,
      "▁சுற": 5903,
      "▁டிரை": 5904,
      "▁finish": 5905,
      "▁அன்பானவர்": 5906,
      "▁tasty": 5907,
      "▁வைத்துக்": 5908,
      "▁தோற்ற": 5909,
      "▁பிடித்தமான": 5910,
      "ர்ச்சி": 5911,
      "▁மோட்டார்": 5912,
      "arra": 5913,
      "ுகளாக": 5914,
      "▁வீட்டிற்குள்": 5915,
      "▁சிறுமியும்": 5916,
      "▁நேர்த்த": 5917,
      "Story": 5918,
      "▁mountain": 5919,
      "▁எங்களுக்கு": 5920,
      "ேஸ்": 5921,
      "▁pile": 5922,
      "நானும்": 5923,
      "▁சென்றாலும்": 5924,
      "▁உடல்": 5925,
      "▁leaf": 5926,
      "▁தோட்டத்திற்கு": 5927,
      "ியைத்": 5928,
      "▁nut": 5929,
      "▁drive": 5930,
      "▁wide": 5931,
      "▁வாக்கு": 5932,
      "▁சாப்பிடுவதற்கு": 5933,
      "ual": 5934,
      "▁அந": 5935,
      "▁lucky": 5936,
      "▁கோபமாக": 5937,
      "▁மேசையின்": 5938,
      "▁plane": 5939,
      "▁feather": 5940,
      "▁கொடுக்கிறார்": 5941,
      "▁embarra": 5942,
      "▁உதவியது": 5943,
      "ுகொண்ட": 5944,
      "ொள்கிறார்": 5945,
      "▁சிற்றுண்டி": 5946,
      "mon": 5947,
      "ரா": 5948,
      "▁warn": 5949,
      "ிக்கத்": 5950,
      "ery": 5951,
      "▁cow": 5952,
      "▁grand": 5953,
      "வுக": 5954,
      "▁இயற்க": 5955,
      "▁ஜெல்லி": 5956,
      "▁hiding": 5957,
      "▁சரிதான்": 5958,
      "▁stepped": 5959,
      "▁முன்னால்": 5960,
      "ுவாச": 5961,
      "▁உதவிக்கு": 5962,
      "▁பாடல": 5963,
      "▁fing": 5964,
      "▁தைரியமான": 5965,
      "▁அவருடைய": 5966,
      "▁ener": 5967,
      "▁கிளைய": 5968,
      "▁பார்க்கிறாள்": 5969,
      "கோ": 5970,
      "▁காரணமாக": 5971,
      "▁resc": 5972,
      "▁தேநீர்": 5973,
      "▁contain": 5974,
      "cy": 5975,
      "▁மூழ்க": 5976,
      "▁சீனிவாச": 5977,
      "▁தந்திர": 5978,
      "▁onto": 5979,
      "▁சாகசம்": 5980,
      "▁கற": 5981,
      "▁சென்றன": 5982,
      "▁பலூன்": 5983,
      "▁self": 5984,
      "▁Emily": 5985,
      "▁எலுமிச்சை": 5986,
      "▁பெருமைய": 5987,
      "▁பயனுள்ள": 5988,
      "▁குறிப்பாக": 5989,
      "▁சிற்றுண்ட": 5990,
      "OK": 5991,
      "வளாக": 5992,
      "▁தங்கிய": 5993,
      "▁பண்ணையில்": 5994,
      "▁With": 5995,
      "▁வரும்போது": 5996,
      "▁wom": 5997,
      "▁gather": 5998,
      "▁விப": 5999,
      "▁banan": 6000,
      "▁விசுவாச": 6001,
      "▁teaching": 6002,
      "▁ஆற்றில்": 6003,
      "▁துண்டுகளை": 6004,
      "▁அந்ந": 6005,
      "af": 6006,
      "▁cookie": 6007,
      "ாகவே": 6008,
      "▁வரு": 6009,
      "▁மரத்திற்கு": 6010,
      "▁body": 6011,
      "▁cheered": 6012,
      "ாவைப்": 6013,
      "ப்படுகிறார்கள்": 6014,
      "▁fixed": 6015,
      "ிகரமாக": 6016,
      "▁வருந்தினார்": 6017,
      "aking": 6018,
      "oose": 6019,
      "erry": 6020,
      "▁spent": 6021,
      "▁பதிவு": 6022,
      "ுமிக்க": 6023,
      "▁ஆகியவற்றை": 6024,
      "▁ஆரம்பித்தாள்": 6025,
      "▁chocolate": 6026,
      "தாலும்": 6027,
      "▁செம்ம": 6028,
      "▁கூச்சலிட": 6029,
      "▁வெளி": 6030,
      "▁தன்னிடம்": 6031,
      "ாஸ்": 6032,
      "ital": 6033,
      "▁அளிக்கிறது": 6034,
      "▁தும்ம": 6035,
      "▁தூரம்": 6036,
      "▁குற்ற": 6037,
      "ுவேன்": 6038,
      "▁நிமோ": 6039,
      "▁celebr": 6040,
      "▁பொத்தானை": 6041,
      "▁சுரு": 6042,
      "ont": 6043,
      "▁knee": 6044,
      "▁கூண்ட": 6045,
      "ுவர்த்த": 6046,
      "▁விருந்துக்கு": 6047,
      "eth": 6048,
      "▁mine": 6049,
      "work": 6050,
      "ying": 6051,
      "▁seed": 6052,
      "▁சுவை": 6053,
      "▁அதிகபட்ச": 6054,
      "▁நிழ": 6055,
      "▁பசை": 6056,
      "▁சம்பாத": 6057,
      "▁மெழுகுவர்த்த": 6058,
      "▁தந்தைய": 6059,
      "▁இருக்கவும்": 6060,
      "▁கூச்சலிட்டு": 6061,
      "தோ": 6062,
      "▁திறந்தார்": 6063,
      "▁முதுக": 6064,
      "▁செய்கிறாய்": 6065,
      "▁வீட்டுக்க": 6066,
      "▁rope": 6067,
      "▁விட்டுவிட": 6068,
      "▁interesting": 6069,
      "றாவ": 6070,
      "▁யாரோ": 6071,
      "▁giant": 6072,
      "▁கொண்டாட": 6073,
      "▁பயந்தனர்": 6074,
      "ாவில்": 6075,
      "▁இதில்": 6076,
      "▁லிசா": 6077,
      "▁பெறுகிறோம்": 6078,
      "யி": 6079,
      "▁சுறா": 6080,
      "▁wearing": 6081,
      "ones": 6082,
      "▁causing": 6083,
      "ெட்டி": 6084,
      "▁பொருளை": 6085,
      "▁பைத்தியம்": 6086,
      "ime": 6087,
      "▁card": 6088,
      "▁மேக்ஸை": 6089,
      "▁சிரித்துக்": 6090,
      "raid": 6091,
      "▁பேசும்": 6092,
      "▁குளிர்ந்த": 6093,
      "தோடு": 6094,
      "ுவிட்டு": 6095,
      "தெல்லாம்": 6096,
      "▁shapes": 6097,
      "▁அலுவலக": 6098,
      "▁நகைச்சுவ": 6099,
      "▁sack": 6100,
      "▁கார்களுடன்": 6101,
      "year": 6102,
      "▁last": 6103,
      "திரு": 6104,
      "ருள்ள": 6105,
      "▁சூறாவ": 6106,
      "▁முயன்றது": 6107,
      "▁hoped": 6108,
      "▁அனுபவிக்க": 6109,
      "▁கண்டேன்": 6110,
      "▁திரும்பும்": 6111,
      "▁noises": 6112,
      "▁வாங்கிக்": 6113,
      "ப்பட்டிருந்த": 6114,
      "▁வயலில்": 6115,
      "▁கைகளில்": 6116,
      "▁பெற்றோரிடம்": 6117,
      "மடைக": 6118,
      "▁பகுதி": 6119,
      "▁afraid": 6120,
      "▁respect": 6121,
      "▁இருந்ததை": 6122,
      "hip": 6123,
      "▁mot": 6124,
      "▁நண்பன்": 6125,
      "▁honest": 6126,
      "▁அவளைப்": 6127,
      "ுள்ளது": 6128,
      "▁ducks": 6129,
      "▁talked": 6130,
      "▁நடுங்க": 6131,
      "▁செய்யுமாறு": 6132,
      "▁esc": 6133,
      "▁தட": 6134,
      "▁இலைகள்": 6135,
      "டர்": 6136,
      "▁save": 6137,
      "▁சை": 6138,
      "ிரம்": 6139,
      "▁கட்டு": 6140,
      "ரத்தில்": 6141,
      "▁கொடுப்ப": 6142,
      "▁யோசித்த": 6143,
      "▁ஒழுங்கு": 6144,
      "▁hidden": 6145,
      "ங்களுக்குப்": 6146,
      "▁புன்னகைத்தனர்": 6147,
      "சியம்": 6148,
      "▁சொன்னது": 6149,
      "▁பலவீனமான": 6150,
      "▁யாராவது": 6151,
      "ொள்ளைய": 6152,
      "▁வாளி": 6153,
      "டியும்": 6154,
      "▁cheer": 6155,
      "▁பாடலைப்": 6156,
      "ature": 6157,
      "▁energy": 6158,
      "▁அறிவு": 6159,
      "▁அதிகர": 6160,
      "க்காட்ச": 6161,
      "▁பயப்படவில்லை": 6162,
      "▁பயமாக": 6163,
      "▁பராம": 6164,
      "▁பிரகாசமாக": 6165,
      "ிழமை": 6166,
      "▁ash": 6167,
      "▁பன்றி": 6168,
      "▁புதர்கள": 6169,
      "▁வாழ்ந்த": 6170,
      "▁தனித்துவமான": 6171,
      "▁சூனிய": 6172,
      "▁bucket": 6173,
      "▁தேடிக்கொண்ட": 6174,
      "ிகா": 6175,
      "shine": 6176,
      "▁தீட்ட": 6177,
      "▁நாய்க்குட்ட": 6178,
      "▁கலைஞ": 6179,
      "▁phone": 6180,
      "▁ஆரம்பித்தனர்": 6181,
      "▁புகைப்படம்": 6182,
      "▁ஊசலா": 6183,
      "▁மறுத்த": 6184,
      "ன்களை": 6185,
      "▁நியா": 6186,
      "▁சுண்டெல": 6187,
      "▁pool": 6188,
      "ஸ்ப": 6189,
      "▁சுழன்று": 6190,
      "▁successful": 6191,
      "▁விளையாடுகிறார்": 6192,
      "▁நன்றியுள்ள": 6193,
      "▁நடி": 6194,
      "▁பாம்பு": 6195,
      "▁ஸ்ட்ரா": 6196,
      "▁mov": 6197,
      "▁ஆழமான": 6198,
      "▁முன்வ": 6199,
      "▁தன்னால்": 6200,
      "▁tick": 6201,
      "▁தொலைக்காட்ச": 6202,
      "▁relie": 6203,
      "▁நண்பரின்": 6204,
      "▁கொழு": 6205,
      "▁searched": 6206,
      "▁பென்னை": 6207,
      "▁கடற்கொள்ளைய": 6208,
      "▁வளர்க்க": 6209,
      "▁step": 6210,
      "▁Where": 6211,
      "ர்ரிகளை": 6212,
      "▁கீழ்ப்படி": 6213,
      "▁ஏறினார்": 6214,
      "▁பிடித்தார்": 6215,
      "ிப்": 6216,
      "we": 6217,
      "▁கவல": 6218,
      "▁பொம்மைகளைப்": 6219,
      "▁cloud": 6220,
      "▁decor": 6221,
      "▁பார்வைய": 6222,
      "▁விடைபெற்று": 6223,
      "▁sort": 6224,
      "▁நாற்காலியில்": 6225,
      "▁wood": 6226,
      "gly": 6227,
      "▁அணிவகு": 6228,
      "ife": 6229,
      "▁ஈரமான": 6230,
      "▁Teddy": 6231,
      "▁emp": 6232,
      "▁cart": 6233,
      "▁working": 6234,
      "▁மாபெ": 6235,
      "▁விசில்": 6236,
      "▁உற்சாகப்படுத்த": 6237,
      "கிழ": 6238,
      "▁ஆந்த": 6239,
      "▁பளபளக்கும்": 6240,
      "light": 6241,
      "▁puzz": 6242,
      "▁options": 6243,
      "▁வரிச": 6244,
      "▁incre": 6245,
      "▁holding": 6246,
      "▁கிரீட": 6247,
      "ரிகிறது": 6248,
      "ிருந்தபோது": 6249,
      "▁puddle": 6250,
      "▁பூங்காவை": 6251,
      "▁புண்படுத்த": 6252,
      "னையும்": 6253,
      "▁encoura": 6254,
      "▁விவாத": 6255,
      "▁கால்பந்து": 6256,
      "ans": 6257,
      "▁spicy": 6258,
      "▁கூறுகிறாள்": 6259,
      "▁மாபெரும்": 6260,
      "ுதல்": 6261,
      "▁eag": 6262,
      "▁wash": 6263,
      "▁அடைந்தபோது": 6264,
      "▁செடி": 6265,
      "▁messy": 6266,
      "▁laughing": 6267,
      "▁முகத்தை": 6268,
      "▁bub": 6269,
      "▁எண்ணிக்க": 6270,
      "▁குழப்பம்": 6271,
      "▁அமைதி": 6272,
      "▁woman": 6273,
      "▁Mum": 6274,
      "▁tid": 6275,
      "▁சுட": 6276,
      "▁இழந்துவிட்ட": 6277,
      "▁சிக": 6278,
      "▁sounds": 6279,
      "▁வியப்ப": 6280,
      "▁ஜாக்கும்": 6281,
      "▁stra": 6282,
      "▁தொலைபேச": 6283,
      "▁ஸ்ட்ராபெ": 6284,
      "erv": 6285,
      "ungle": 6286,
      "▁hosp": 6287,
      "llo": 6288,
      "▁selfish": 6289,
      "ues": 6290,
      "▁pizz": 6291,
      "▁திட்டம": 6292,
      "▁sunshine": 6293,
      "▁mysterious": 6294,
      "▁taste": 6295,
      "▁Pe": 6296,
      "ப்பதில்": 6297,
      "▁திருமதி": 6298,
      "▁அளவிட": 6299,
      "ிடுங்கள்": 6300,
      "▁முழங்காலில்": 6301,
      "▁robot": 6302,
      "ium": 6303,
      "▁expens": 6304,
      "▁cross": 6305,
      "▁டால்ப": 6306,
      "▁தீர": 6307,
      "▁படங்களை": 6308,
      "▁Thank": 6309,
      "▁மகிழ்ச்சியை": 6310,
      "▁env": 6311,
      "▁மறந்துவிட": 6312,
      "oop": 6313,
      "▁தடுக்க": 6314,
      "▁மற்றவர": 6315,
      "▁பெய்யத்": 6316,
      "▁fancy": 6317,
      "வில்ல": 6318,
      "ிருக்கலாம்": 6319,
      "ரைக்": 6320,
      "▁mad": 6321,
      "Of": 6322,
      "▁இருப்பினும்": 6323,
      "▁அடிக்கடி": 6324,
      "▁jungle": 6325,
      "▁விளைவிக்கும்": 6326,
      "▁tool": 6327,
      "▁உடையை": 6328,
      "owed": 6329,
      "▁empty": 6330,
      "▁டிராகன்": 6331,
      "▁crayons": 6332,
      "▁பெற்றார்": 6333,
      "▁தீர்": 6334,
      "▁cap": 6335,
      "▁மகிழ்கிறார்கள்": 6336,
      "▁peaceful": 6337,
      "▁grumpy": 6338,
      "▁மதிப்புமிக்க": 6339,
      "TMt": 6340,
      "▁இருக்கும்போது": 6341,
      "▁hospital": 6342,
      "▁கோட்டையை": 6343,
      "▁வை": 6344,
      "▁ஓட்டுந": 6345,
      "▁நீந்திக்": 6346,
      "▁கோமா": 6347,
      "▁பிரபலமான": 6348,
      "▁danced": 6349,
      "▁கால்நடை": 6350,
      "▁சுத்தமாக": 6351,
      "▁பிரார்த்த": 6352,
      "▁பொம்மையைப்": 6353,
      "▁உணவுகளை": 6354,
      "▁முத்திர": 6355,
      "▁hugs": 6356,
      "▁பொது": 6357,
      "ிகளும்": 6358,
      "▁அசிங்கமான": 6359,
      "▁காண்கிறார்": 6360,
      "▁மார்": 6361,
      "▁நடனம்": 6362,
      "க்குப்": 6363,
      "▁தலையண": 6364,
      "▁treats": 6365,
      "சர்ப்ப": 6366,
      "▁தரை": 6367,
      "▁jelly": 6368,
      "▁தோன்றுகிறது": 6369,
      "▁test": 6370,
      "ினை": 6371,
      "▁calm": 6372,
      "▁feed": 6373,
      "▁தயார்": 6374,
      "▁Z": 6375,
      "ைக்குமா": 6376,
      "▁காற்றை": 6377,
      "மல்ல": 6378,
      "▁lay": 6379,
      "▁write": 6380,
      "▁ஜானி": 6381,
      "▁வேலி": 6382,
      "port": 6383,
      "▁order": 6384,
      "▁clou": 6385,
      "▁மாயா": 6386,
      "▁scare": 6387,
      "▁வலுசர்ப்ப": 6388,
      "▁spoil": 6389,
      "▁தூக்க": 6390,
      "▁வேகமாகவும்": 6391,
      "▁விலங்குகளையும்": 6392,
      "▁எதையாவது": 6393,
      "▁போலவே": 6394,
      "▁பொழுதைக்": 6395,
      "▁மருத்துவமனைக்கு": 6396,
      "லூ": 6397,
      "ating": 6398,
      "▁கடல்": 6399,
      "▁வானவில்": 6400,
      "▁confused": 6401,
      "▁மாறுகிறது": 6402,
      "▁ஆப்பிள்களை": 6403,
      "▁gas": 6404,
      "▁rude": 6405,
      "▁சேகரிக்க": 6406,
      "▁வழக்கமான": 6407,
      "▁பிஸ": 6408,
      "▁செல்லலாம்": 6409,
      "▁worm": 6410,
      "ience": 6411,
      "▁mind": 6412,
      "▁லியோ": 6413,
      "▁வினா": 6414,
      "▁ஏற்க": 6415,
      "▁பன்ன": 6416,
      "▁உணர்வ": 6417,
      "▁பாட்டில": 6418,
      "▁ஐஸ்கிரீமை": 6419,
      "▁கிடைக்குமா": 6420,
      "▁ஜேக்": 6421,
      "மையானது": 6422,
      "gged": 6423,
      "▁திறந்தபோது": 6424,
      "▁பளி": 6425,
      "▁whole": 6426,
      "ten": 6427,
      "▁travel": 6428,
      "▁யான": 6429,
      "▁நாயின்": 6430,
      "▁remain": 6431,
      "▁smooth": 6432,
      "ாட்டி": 6433,
      "▁shelf": 6434,
      "▁whistle": 6435,
      "▁சூடாகவும்": 6436,
      "▁ஓய்வு": 6437,
      "▁இசைக்க": 6438,
      "▁village": 6439,
      "▁வருத்தப்பட்டாள்": 6440,
      "▁ஒலிவ": 6441,
      "▁furry": 6442,
      "▁குளியல்": 6443,
      "▁வேண்டுமா": 6444,
      "ாதாரண": 6445,
      "amed": 6446,
      "▁hope": 6447,
      "▁முழு": 6448,
      "▁snowman": 6449,
      "▁கயிற்றை": 6450,
      "▁கொண்டுவ": 6451,
      "வர்களாகவும்": 6452,
      "ோக": 6453,
      "▁sy": 6454,
      "நாய": 6455,
      "▁பார்ப்பது": 6456,
      "▁expensive": 6457,
      "▁oven": 6458,
      "▁ஆச்சரியத்தை": 6459,
      "▁trouble": 6460,
      "▁சட்டையை": 6461,
      "▁front": 6462,
      "▁ஓட்டிச்": 6463,
      "▁வேண்டு": 6464,
      "▁செல்வார்": 6465,
      "ளிம": 6466,
      "▁touched": 6467,
      "▁lazy": 6468,
      "▁தரைய": 6469,
      "▁shook": 6470,
      "▁ஒலி": 6471,
      "▁மிகப்": 6472,
      "▁நாளின்": 6473,
      "▁கேட்காமல்": 6474,
      "▁சந்தித்த": 6475,
      "▁மக்களுக்கு": 6476,
      "ையோ": 6477,
      "▁nothing": 6478,
      "▁பாதுகாப்பானது": 6479,
      "▁சேர்க்க": 6480,
      "▁சிந்தித்து": 6481,
      "▁தீங்க": 6482,
      "▁விலைய": 6483,
      "▁அழு": 6484,
      "▁ஏற்படுகிறது": 6485,
      "▁கப்": 6486,
      "▁சிலந்த": 6487,
      "▁நான்கு": 6488,
      "▁சும": 6489,
      "▁இருப்பார்கள்": 6490,
      "▁net": 6491,
      "▁path": 6492,
      "▁அசாதாரண": 6493,
      "▁Le": 6494,
      "▁ஸ்டிக்க": 6495,
      "▁அடுப்பில்": 6496,
      "▁arms": 6497,
      "ustr": 6498,
      "▁இரவும்": 6499,
      "▁திரும்பியபோது": 6500,
      "▁அளித்தது": 6501,
      "▁gray": 6502,
      "ையுடனும்": 6503,
      "▁வாத்துக்க": 6504,
      "ன்பிற": 6505,
      "▁continue": 6506,
      "ஹா": 6507,
      "▁dest": 6508,
      "▁கிடைத்தது": 6509,
      "▁பாதையில்": 6510,
      "▁வேண்டுமான": 6511,
      "▁பெயருள்ள": 6512,
      "▁உடைத்த": 6513,
      "டியோ": 6514,
      "▁பேட்": 6515,
      "▁matter": 6516,
      "▁பிடிக்காது": 6517,
      "▁கூச்சலிட்டார்": 6518,
      "முடிய": 6519,
      "▁pour": 6520,
      "▁shirt": 6521,
      "▁போய்": 6522,
      "▁ஜெர்ரி": 6523,
      "உங்களுக்கு": 6524,
      "▁முக்கியமானது": 6525,
      "▁பனியில்": 6526,
      "▁கேட்பது": 6527,
      "▁நண்பருடன்": 6528,
      "க்கான": 6529,
      "▁விலையுய": 6530,
      "▁பறப்ப": 6531,
      "▁button": 6532,
      "ளிக": 6533,
      "ging": 6534,
      "▁paw": 6535,
      "▁தேர்ந்தெடுக்க": 6536,
      "▁tun": 6537,
      "▁படுக்கைய": 6538,
      "▁புத்தகங்கள்": 6539,
      "▁ரோஜ": 6540,
      "▁uses": 6541,
      "மற்ற": 6542,
      "▁city": 6543,
      "▁கதைகளை": 6544,
      "சால": 6545,
      "▁அப்படி": 6546,
      "▁Together": 6547,
      "▁உங்களைப்": 6548,
      "▁அவச": 6549,
      "▁நட்சத்திரம்": 6550,
      "▁குட்டி": 6551,
      "▁துணிச்சல்": 6552,
      "யண": 6553,
      "யின்": 6554,
      "▁jog": 6555,
      "▁perform": 6556,
      "pa": 6557,
      "▁Ann": 6558,
      "▁வாகன": 6559,
      "▁உருண்ட": 6560,
      "▁சாராவும்": 6561,
      "▁பரிந்துரை": 6562,
      "▁gold": 6563,
      "▁ஆர்": 6564,
      "▁வந்தான்": 6565,
      "ாளி": 6566,
      "▁coin": 6567,
      "▁அவனது": 6568,
      "▁படைப்பாற்ற": 6569,
      "▁பூக்களையும்": 6570,
      "und": 6571,
      "▁விட்டுக்": 6572,
      "▁அடையாளம்": 6573,
      "▁ship": 6574,
      "▁அருவ": 6575,
      "▁பணத்தை": 6576,
      "நிற": 6577,
      "▁உருக": 6578,
      "▁விலங்குகளைப்": 6579,
      "▁anyone": 6580,
      "▁பறந்தது": 6581,
      "▁காடுகளுக்கு": 6582,
      "▁ஈடு": 6583,
      "▁தாமதமாகிவிட்டது": 6584,
      "▁dirt": 6585,
      "மேக்ஸ்": 6586,
      "▁lovely": 6587,
      "ினான்": 6588,
      "▁moon": 6589,
      "▁தொகுத": 6590,
      "▁குளிக்க": 6591,
      "▁அப்பாவுடன்": 6592,
      "▁நினைக்கிறேன்": 6593,
      "▁நவீ": 6594,
      "▁சிறுவனுக்கு": 6595,
      "▁neckl": 6596,
      "க்குடன்": 6597,
      "▁சத்தத்தை": 6598,
      "▁தந்தையுடன்": 6599,
      "▁இடி": 6600,
      "▁துள்ள": 6601,
      "▁பெரிதாகவும்": 6602,
      "▁நனை": 6603,
      "▁பணியை": 6604,
      "▁விட்டார்": 6605,
      "▁வைத்தாள்": 6606,
      "box": 6607,
      "▁clouds": 6608,
      "ishes": 6609,
      "▁நெக்": 6610,
      "▁starts": 6611,
      "ாமி": 6612,
      "▁pizza": 6613,
      "▁போதெல்லாம்": 6614,
      "▁tea": 6615,
      "▁stone": 6616,
      "▁சுட்டிக்காட்ட": 6617,
      "▁ஆகி": 6618,
      "▁அவனை": 6619,
      "▁மன்னித்து": 6620,
      "▁பெறுவதற்காக": 6621,
      "▁கைவிட": 6622,
      "▁waiting": 6623,
      "ிக்கிறாள்": 6624,
      "▁ஆலி": 6625,
      "▁கண்ணீ": 6626,
      "▁நெகிழ": 6627,
      "▁சுபாவம்": 6628,
      "ிரா": 6629,
      "▁அறைக்குச்": 6630,
      "ring": 6631,
      "▁Bobo": 6632,
      "▁கோமாளி": 6633,
      "ோப": 6634,
      "முற": 6635,
      "▁சூவின்": 6636,
      "▁கடிதத்தை": 6637,
      "▁கோல்": 6638,
      "▁உச்சியை": 6639,
      "▁பற்றியும்": 6640,
      "▁zoom": 6641,
      "▁sandwich": 6642,
      "▁டிம்மியை": 6643,
      "▁போலீ": 6644,
      "▁ஆடைகள்": 6645,
      "▁லில்லியிடம்": 6646,
      "▁bake": 6647,
      "▁கட்டிப்பிடிக்க": 6648,
      "▁மகிழ்ந்தார்": 6649,
      "▁மேக்ஸின்": 6650,
      "▁திரும்புவதற்கு": 6651,
      "▁Be": 6652,
      "▁rad": 6653,
      "மடைந்தது": 6654,
      "▁வருகிறார்": 6655,
      "▁push": 6656,
      "▁spray": 6657,
      "▁தங்கி": 6658,
      "▁பெருமையாகவும்": 6659,
      "▁half": 6660,
      "▁ரொட்டி": 6661,
      "▁seemed": 6662,
      "▁தேவையில்லை": 6663,
      "▁hurts": 6664,
      "▁second": 6665,
      "▁தயாரிப்ப": 6666,
      "▁தெரிவித்தது": 6667,
      "▁veget": 6668,
      "▁giving": 6669,
      "▁finding": 6670,
      "▁tidy": 6671,
      "▁அந்நிய": 6672,
      "land": 6673,
      "▁glass": 6674,
      "▁kitten": 6675,
      "▁முட்டை": 6676,
      "▁relieved": 6677,
      "▁team": 6678,
      "▁விசேஷமான": 6679,
      "▁போகலாம்": 6680,
      "▁ஆழ்த்த": 6681,
      "▁சோம்பேறி": 6682,
      "▁நன்றியுடனும்": 6683,
      "▁trust": 6684,
      "▁கழித்து": 6685,
      "▁மேம்படுத்த": 6686,
      "ாயா": 6687,
      "▁ஆம்": 6688,
      "▁wondered": 6689,
      "▁embarrassed": 6690,
      "▁அசல்": 6691,
      "ென்றும்": 6692,
      "▁ஆடம்ப": 6693,
      "▁office": 6694,
      "▁பெண்ணை": 6695,
      "▁பிஸியாக": 6696,
      "▁உறுதியாக": 6697,
      "▁பாட்டியின்": 6698,
      "▁நிமிடங்கள்": 6699,
      "▁உற்சாகம்": 6700,
      "▁செய்கிறேன்": 6701,
      "▁இடமாக": 6702,
      "▁appeared": 6703,
      "ுவதற்கும்": 6704,
      "ில்லாத": 6705,
      "▁Jenny": 6706,
      "▁கல்லை": 6707,
      "▁ஒருமுறை": 6708,
      "▁ru": 6709,
      "▁hello": 6710,
      "▁match": 6711,
      "ளைப்": 6712,
      "urse": 6713,
      "▁turt": 6714,
      "▁ugly": 6715,
      "▁police": 6716,
      "▁thumb": 6717,
      "▁மூச்சு": 6718,
      "ஜால": 6719,
      "▁adv": 6720,
      "▁bugs": 6721,
      "▁பிட்ச": 6722,
      "▁முதுகில்": 6723,
      "▁wore": 6724,
      "ப்பட்டிருந்தது": 6725,
      "ides": 6726,
      "▁பிராண": 6727,
      "▁கோட": 6728,
      "▁பூசண": 6729,
      "▁shining": 6730,
      "ாகம்": 6731,
      "▁burn": 6732,
      "▁நாட்கள்": 6733,
      "▁உதவுவீர்களா": 6734,
      "ந்தம்": 6735,
      "▁poor": 6736,
      "▁மாயாஜால": 6737,
      "ipe": 6738,
      "ina": 6739,
      "▁ring": 6740,
      "▁ஆலோசனை": 6741,
      "▁கிண்ணத்தில்": 6742,
      "andy": 6743,
      "▁nerv": 6744,
      "▁அசைய": 6745,
      "ழல்": 6746,
      "▁boss": 6747,
      "ளம்": 6748,
      "▁அத்தை": 6749,
      "▁வாசிக்க": 6750,
      "▁ஆரோக்கியமான": 6751,
      "▁வில்ல": 6752,
      "▁பூங்காவைச்": 6753,
      "▁நாயுடன்": 6754,
      "▁ரீ": 6755,
      "▁தீர்மான": 6756,
      "ளைக்க": 6757,
      "▁தலையசைத்த": 6758,
      "▁பட்டாம்பூச்சி": 6759,
      "▁ஒன்றைப்": 6760,
      "oming": 6761,
      "▁என்னவ": 6762,
      "▁nervous": 6763,
      "▁ஸ்டீ": 6764,
      "▁முன்பாக": 6765,
      "ground": 6766,
      "▁வானத்தை": 6767,
      "▁கோபமடைந்தார்": 6768,
      "ைக்காக": 6769,
      "▁சிறுவனை": 6770,
      "▁இருக்குமாறு": 6771,
      "▁ஆழ்": 6772,
      "▁fake": 6773,
      "▁அடைந்தது": 6774,
      "▁பரிசோத": 6775,
      "▁பரிசாக": 6776,
      "▁measure": 6777,
      "ாளர்": 6778,
      "▁மார்க்": 6779,
      "▁முன்க": 6780,
      "▁ஜீ": 6781,
      "▁அழுவதை": 6782,
      "▁பெருமைப்பட": 6783,
      "▁முண": 6784,
      "விட்டு": 6785,
      "ines": 6786,
      "▁அச்சிட": 6787,
      "ப்பில்": 6788,
      "▁கோபுரத்தை": 6789,
      "மையை": 6790,
      "airs": 6791,
      "ாரத்தை": 6792,
      "▁taken": 6793,
      "வது": 6794,
      "▁leg": 6795,
      "▁value": 6796,
      "▁மிருகக்காட்சிசா": 6797,
      "ர்ட்": 6798,
      "ுமுண": 6799,
      "▁திரவ": 6800,
      "ables": 6801,
      "▁compet": 6802,
      "▁முணுமுண": 6803,
      "▁என்றென்றும்": 6804,
      "▁கவனமாகவும்": 6805,
      "▁கோப்பையை": 6806,
      "▁வீட்டுக்குச்": 6807,
      "astic": 6808,
      "▁அவன்": 6809,
      "▁TV": 6810,
      "▁காண்கிறாள்": 6811,
      "▁தொலைபே": 6812,
      "▁பாட்டியை": 6813,
      "▁lad": 6814,
      "▁நாயைப்": 6815,
      "▁dig": 6816,
      "▁சிறுவனும்": 6817,
      "▁நகரத்": 6818,
      "ர்ந்தனர்": 6819,
      "பை": 6820,
      "▁மேற்கொண்டனர்": 6821,
      "▁carrots": 6822,
      "▁பழங்களை": 6823,
      "▁இழந்தார்": 6824,
      "▁ஒள": 6825,
      "▁தோண்ட": 6826,
      "கத்தில்": 6827,
      "▁exciting": 6828,
      "▁இருக்கிறாள்": 6829,
      "என்னை": 6830,
      "▁குறித்த": 6831,
      "▁போய்விட்டது": 6832,
      "▁தரு": 6833,
      "▁dogs": 6834,
      "▁திட்டம்": 6835,
      "▁தேவைப்படும்": 6836,
      "▁மான்": 6837,
      "▁asking": 6838,
      "▁கோழ": 6839,
      "▁வரிசை": 6840,
      "ீரோ": 6841,
      "▁விரும்பினான்": 6842,
      "▁டேபி": 6843,
      "▁gig": 6844,
      "▁துறை": 6845,
      "▁norm": 6846,
      "▁present": 6847,
      "▁ஆர்வத்துடன்": 6848,
      "▁தேவைப்படுகிறது": 6849,
      "▁தனிமையாக": 6850,
      "▁அழை": 6851,
      "ases": 6852,
      "▁bark": 6853,
      "▁loses": 6854,
      "▁களிம": 6855,
      "▁கோழி": 6856,
      "ியதும்": 6857,
      "▁songs": 6858,
      "▁கோபமும்": 6859,
      "▁barked": 6860,
      "▁துள்ளிக்": 6861,
      "▁தயாரித்தார்": 6862,
      "▁tie": 6863,
      "▁மிள": 6864,
      "ண்டா": 6865,
      "▁frustr": 6866,
      "▁tem": 6867,
      "▁kindness": 6868,
      "▁தேவையான": 6869,
      "▁தீவிர": 6870,
      "▁அளிக்க": 6871,
      "▁கொள்வார்": 6872,
      "ony": 6873,
      "▁மறுபுற": 6874,
      "▁சூரியகா": 6875,
      "▁மய": 6876,
      "▁may": 6877,
      "▁bell": 6878,
      "▁வேகமான": 6879,
      "னே": 6880,
      "▁fat": 6881,
      "▁மற்றவர்களுடன்": 6882,
      "▁unl": 6883,
      "▁தவளைய": 6884,
      "▁சுட்டிக்காட்டி": 6885,
      "▁மறந்துவிட்டார்": 6886,
      "▁பாதை": 6887,
      "▁நண்பரான": 6888,
      "ன்க": 6889,
      "வித்த": 6890,
      "▁அரி": 6891,
      "▁இளவரசர்": 6892,
      "▁அன்பு": 6893,
      "▁jew": 6894,
      "▁vase": 6895,
      "▁அறிக": 6896,
      "▁இந்தக்": 6897,
      "▁கரடியும்": 6898,
      "ியல்": 6899,
      "act": 6900,
      "▁தலைமுடியை": 6901,
      "▁பாபி": 6902,
      "▁நெருப்ப": 6903,
      "▁வழிவகுக்க": 6904,
      "▁cou": 6905,
      "▁pan": 6906,
      "ளைக்கிழ": 6907,
      "▁சீக்க": 6908,
      "▁நேசிக்கிறோம்": 6909,
      "ுக்கான": 6910,
      "▁உருவாக்குகிறார்": 6911,
      "▁நிமி": 6912,
      "▁பாடலை": 6913,
      "▁கிளர்ச்சியடைந்த": 6914,
      "▁இறை": 6915,
      "▁spread": 6916,
      "▁ஒழுங்கமைக்க": 6917,
      "itter": 6918,
      "▁line": 6919,
      "▁polite": 6920,
      "▁பெல்லா": 6921,
      "▁நிமிர்ந்து": 6922,
      "்த்து": 6923,
      "▁நூலக": 6924,
      "▁கடினம்": 6925,
      "▁necklace": 6926,
      "uddy": 6927,
      "▁ஜென்னி": 6928,
      "Hey": 6929,
      "ாப்பி": 6930,
      "▁உருளைக்கிழ": 6931,
      "▁மறைக்க": 6932,
      "cil": 6933,
      "▁rare": 6934,
      "▁வீரர்": 6935,
      "▁புளிப்பு": 6936,
      "▁தலையசைத்தார்": 6937,
      "ume": 6938,
      "▁கனமாக": 6939,
      "▁டுவிட்ட": 6940,
      "▁தெரிந்த": 6941,
      "▁உதவுவது": 6942,
      "▁நவீன": 6943,
      "▁fighting": 6944,
      "▁மடங்கு": 6945,
      "▁ஆமை": 6946,
      "iding": 6947,
      "▁true": 6948,
      "▁gently": 6949,
      "▁creative": 6950,
      "▁கார்களை": 6951,
      "▁ஆச்சரியமாக": 6952,
      "▁famous": 6953,
      "▁பயந்த": 6954,
      "▁முடிவ": 6955,
      "▁ladder": 6956,
      "▁அச்சுறுத்த": 6957,
      "▁ஊக்குவ": 6958,
      "▁பறவையுடன்": 6959,
      "bers": 6960,
      "aced": 6961,
      "▁அழகு": 6962,
      "▁encount": 6963,
      "ேஜ்": 6964,
      "▁ஈடுபட": 6965,
      "iron": 6966,
      "izzy": 6967,
      "▁saved": 6968,
      "▁chased": 6969,
      "▁bur": 6970,
      "▁பாடல்": 6971,
      "▁செல்வது": 6972,
      "▁rod": 6973,
      "▁splas": 6974,
      "▁சிக்கி": 6975,
      "▁forgive": 6976,
      "▁பொருட்கள்": 6977,
      "▁சாண்ட்விச்ச": 6978,
      "ம்ஸ்": 6979,
      "▁pin": 6980,
      "▁powerful": 6981,
      "▁yog": 6982,
      "▁ஈடுப": 6983,
      "erp": 6984,
      "▁நம்பிக்க": 6985,
      "▁நம்புகிறேன்": 6986,
      "ன்மை": 6987,
      "்கார்": 6988,
      "த்திடம்": 6989,
      "▁கேவலமான": 6990,
      "▁வசதியான": 6991,
      "ரண": 6992,
      "arl": 6993,
      "▁நின்றது": 6994,
      "ique": 6995,
      "▁these": 6996,
      "▁தப்பிக்க": 6997,
      "▁Blue": 6998,
      "▁weak": 6999,
      "▁உயர்ந்த": 7000,
      "▁பாலி": 7001,
      "▁டய": 7002,
      "▁cloth": 7003,
      "▁நீரூ": 7004,
      "▁புல்வெளியில்": 7005,
      "▁grew": 7006,
      "▁விரி": 7007,
      "▁நடுவ": 7008,
      "▁வேண்டுமானாலும்": 7009,
      "▁ராட்ச": 7010,
      "▁இறைச்ச": 7011,
      "▁பிரச்சினை": 7012,
      "▁harm": 7013,
      "▁குளம்": 7014,
      "▁கயிறு": 7015,
      "▁கொள்வதில்": 7016,
      "io": 7017,
      "▁ஜென்": 7018,
      "▁கவனித்து": 7019,
      "▁சிலவற்றை": 7020,
      "isa": 7021,
      "▁chew": 7022,
      "olf": 7023,
      "▁scar": 7024,
      "▁happiness": 7025,
      "▁திரும்பிப்": 7026,
      "▁லூஸி": 7027,
      "▁plate": 7028,
      "▁குதித்தது": 7029,
      "▁உற்சாகமாகவும்": 7030,
      "ப்பெ": 7031,
      "▁கொடுங்கள்": 7032,
      "▁வண்ணங்கள்": 7033,
      "▁அனுமதி": 7034,
      "▁நிறைவேற்ற": 7035,
      "▁கொடி": 7036,
      "▁காகிதத்தை": 7037,
      "▁முயற்சிக்கிறது": 7038,
      "▁hur": 7039,
      "▁whenever": 7040,
      "▁பறக்கும்": 7041,
      "▁காலி": 7042,
      "▁ஓடிவிட": 7043,
      "▁elder": 7044,
      "▁ஈர்க்க": 7045,
      "▁கிட்டார்": 7046,
      "▁eggs": 7047,
      "▁rolled": 7048,
      "▁அவற்றைப்": 7049,
      "▁மாவு": 7050,
      "▁பீட்டர்": 7051,
      "▁இருக்காது": 7052,
      "▁போல்": 7053,
      "▁lock": 7054,
      "▁sleepy": 7055,
      "▁turtle": 7056,
      "ுவிட்டதாக": 7057,
      "▁மாயவித்த": 7058,
      "▁rich": 7059,
      "▁தனக்காக": 7060,
      "▁சிதற": 7061,
      "ஏய்": 7062,
      "▁ter": 7063,
      "▁prince": 7064,
      "▁நண்பர்களான": 7065,
      "▁eager": 7066,
      "▁கதையை": 7067,
      "▁normal": 7068,
      "▁ஜானும்": 7069,
      "▁வாழ்ந்தது": 7070,
      "▁பிரார்த்தனை": 7071,
      "▁செய்தால்": 7072,
      "▁sheep": 7073,
      "▁van": 7074,
      "ன்கு": 7075,
      "▁smelled": 7076,
      "▁வெண்ணெய்": 7077,
      "▁பார்த்தான்": 7078,
      "▁Johnny": 7079,
      "னவே": 7080,
      "மூட்ட": 7081,
      "▁உடைத்து": 7082,
      "▁மூலிக": 7083,
      "▁விடுங்கள்": 7084,
      "▁hears": 7085,
      "▁துறைமுக": 7086,
      "kin": 7087,
      "rank": 7088,
      "ங்கினார்": 7089,
      "▁ஏற்கனவே": 7090,
      "▁four": 7091,
      "▁உயரம்": 7092,
      "▁நண்பரிடம்": 7093,
      "▁நாட்களுக்கு": 7094,
      "திப": 7095,
      "▁elderly": 7096,
      "▁வானவில்ல": 7097,
      "▁கண்": 7098,
      "▁கத்திர": 7099,
      "▁வீசும்": 7100,
      "▁வெயில்": 7101,
      "ிலிருந்த": 7102,
      "▁ரசித்து": 7103,
      "▁கண்டுபிடிக்கும்": 7104,
      "▁தீக்கு": 7105,
      "▁ஏரியில்": 7106,
      "▁நட்பான": 7107,
      "▁உற்றுப்": 7108,
      "▁சிறியதாக": 7109,
      "Similar": 7110,
      "▁விட்டது": 7111,
      "▁medic": 7112,
      "▁மீட்டெடுக்க": 7113,
      "▁movie": 7114,
      "▁உடனே": 7115,
      "▁sugar": 7116,
      "▁moving": 7117,
      "▁shares": 7118,
      "▁கேரட்டை": 7119,
      "orrow": 7120,
      "▁லூசியும்": 7121,
      "▁smelly": 7122,
      "▁upright": 7123,
      "▁தூங்கினார்": 7124,
      "▁அழுக்காக": 7125,
      "▁easy": 7126,
      "▁strug": 7127,
      "▁கிராயன": 7128,
      "era": 7129,
      "▁often": 7130,
      "கவலைப்படாதே": 7131,
      "றுதி": 7132,
      "ubb": 7133,
      "▁string": 7134,
      "▁pointed": 7135,
      "்வு": 7136,
      "▁spill": 7137,
      "▁ஆச்சரியப்படுத்த": 7138,
      "பு": 7139,
      "▁dead": 7140,
      "▁tele": 7141,
      "▁பட்டம்": 7142,
      "▁missed": 7143,
      "ியதற்காக": 7144,
      "fic": 7145,
      "▁நம்பினார்": 7146,
      "ti": 7147,
      "▁ஈரமாக": 7148,
      "▁டாக்ட": 7149,
      "▁பாப்கார்": 7150,
      "▁friendship": 7151,
      "▁எண்ணிக்கை": 7152,
      "முடியாத": 7153,
      "▁frustrated": 7154,
      "ube": 7155,
      "▁orig": 7156,
      "▁சொன்னார்கள்": 7157,
      "▁செம்ப": 7158,
      "▁மீனைப்": 7159,
      "▁கொள்வதன்": 7160,
      "▁Lisa": 7161,
      "▁விருந்தை": 7162,
      "▁துப்பாக்க": 7163,
      "▁chest": 7164,
      "▁Tweety": 7165,
      "வரும்": 7166,
      "▁mod": 7167,
      "▁பியான": 7168,
      "▁legs": 7169,
      "▁சிறப்பானது": 7170,
      "▁பாட்டிலை": 7171,
      "▁சொந்தமானது": 7172,
      "▁பள்ளியில்": 7173,
      "▁புல்லின்": 7174,
      "▁drawing": 7175,
      "▁மேசை": 7176,
      "▁பேட்ட": 7177,
      "cient": 7178,
      "▁இல்லைய": 7179,
      "▁சகோதரிய": 7180,
      "▁பென்னின்": 7181,
      "▁பூனையைக்": 7182,
      "▁Come": 7183,
      "▁கலக்க": 7184,
      "▁வியந்தார்": 7185,
      "▁வலுவாகவும்": 7186,
      "▁சீரற்ற": 7187,
      "பாருங்கள்": 7188,
      "▁stir": 7189,
      "▁unique": 7190,
      "▁ஆகியோர்": 7191,
      "▁சிறப்பானதாக": 7192,
      "Good": 7193,
      "▁stret": 7194,
      "சாத": 7195,
      "க்குத": 7196,
      "▁அழுதாள்": 7197,
      "▁களஞ்சிய": 7198,
      "▁சைக்கிளை": 7199,
      "▁வகு": 7200,
      "▁பைக்": 7201,
      "▁நண்பனாக": 7202,
      "▁வரைந்து": 7203,
      "ொல": 7204,
      "வெட்ட": 7205,
      "▁origin": 7206,
      "▁இயந்திரம்": 7207,
      "▁பாக்கெட்டில்": 7208,
      "▁கோகோ": 7209,
      "▁லாலி": 7210,
      "▁balloons": 7211,
      "▁சுதந்திரமாக": 7212,
      "▁குடும்பத்திற்கு": 7213,
      "▁செய்யப்பட்ட": 7214,
      "▁கவலைப்பட்டார்": 7215,
      "நட": 7216,
      "▁விலங்குகளுடன்": 7217,
      "ிவாய்": 7218,
      "▁வரைந்தார்": 7219,
      "▁பியானோ": 7220,
      "▁bone": 7221,
      "▁செய்வார்": 7222,
      "ூச": 7223,
      "▁teeth": 7224,
      "▁tasted": 7225,
      "▁படுக்கைக்கு": 7226,
      "ப்புற": 7227,
      "▁knocked": 7228,
      "ெடுப்ப": 7229,
      "▁தொலைக்காட்சி": 7230,
      "▁தவிர": 7231,
      "▁knowing": 7232,
      "▁competit": 7233,
      "▁exam": 7234,
      "▁பிரகாசித்தது": 7235,
      "▁சிறுமியின்": 7236,
      "▁நண்பர்களைக்": 7237,
      "▁amount": 7238,
      "▁நின்றார்": 7239,
      "▁Mark": 7240,
      "▁பாறைகள்": 7241,
      "▁செல்லுங்கள்": 7242,
      "▁பாலைவ": 7243,
      "▁generous": 7244,
      "▁கழித்தனர்": 7245,
      "▁குழந்தைகளே": 7246,
      "yal": 7247,
      "▁பெண்ணின்": 7248,
      "▁சக்திவாய்": 7249,
      "▁சொல்லிவிட்டு": 7250,
      "▁கனவ": 7251,
      "▁டக்கி": 7252,
      "▁அனைவரு": 7253,
      "▁விரும்புகிறோம்": 7254,
      "சாலி": 7255,
      "▁bri": 7256,
      "▁மரியாத": 7257,
      "▁பின்தொடர்ந்தார்": 7258,
      "▁space": 7259,
      "▁மரக்க": 7260,
      "▁லாலிபா": 7261,
      "▁jumping": 7262,
      "▁ஹீரோ": 7263,
      "▁கற்றுக்கொள்ள": 7264,
      "▁பழங்கள்": 7265,
      "▁கொள்வோம்": 7266,
      "alous": 7267,
      "asing": 7268,
      "▁couch": 7269,
      "▁கைதட்ட": 7270,
      "▁அடைகிறார்": 7271,
      "ரையை": 7272,
      "oof": 7273,
      "ices": 7274,
      "▁lose": 7275,
      "▁கேக்க": 7276,
      "▁அறையின்": 7277,
      "▁மண்": 7278,
      "▁நம்மை": 7279,
      "▁comfortable": 7280,
      "▁பேன": 7281,
      "▁earth": 7282,
      "▁sticks": 7283,
      "▁landed": 7284,
      "▁jealous": 7285,
      "▁pencil": 7286,
      "▁puzzle": 7287,
      "▁சாகசத்தை": 7288,
      "▁நகரம்": 7289,
      "▁தடிய": 7290,
      "▁மேலங்க": 7291,
      "▁சிரித்தாள்": 7292,
      "ிலோ": 7293,
      "ிருக்கிறார்": 7294,
      "▁அனுபவித்தனர்": 7295,
      "ிறதா": 7296,
      "்கிறீர்கள்": 7297,
      "▁செய்தீர்கள்": 7298,
      "▁ஆரோக்கியமாகவும்": 7299,
      "erpill": 7300,
      "▁caterpill": 7301,
      "▁கொண்டதாகவும்": 7302,
      "▁காலியாக": 7303,
      "▁விஷயங்களில்": 7304,
      "▁குழந்தைகளும்": 7305,
      "▁wolf": 7306,
      "▁escape": 7307,
      "▁பிற்ப": 7308,
      "▁dancing": 7309,
      "▁உதவுகிறார்கள்": 7310,
      "▁கவர்ச்சிகரமான": 7311,
      "▁gar": 7312,
      "▁lemon": 7313,
      "▁நீங்கள": 7314,
      "▁சிக்கலில்": 7315,
      "சாதன": 7316,
      "▁sil": 7317,
      "▁துண்டுகளாக": 7318,
      "க்காரர்": 7319,
      "▁அளிக்கிறார்": 7320,
      "cept": 7321,
      "▁ignor": 7322,
      "▁என்னவென்றால்": 7323,
      "sel": 7324,
      "▁ப்ளூபெ": 7325,
      "▁சர்க்கரை": 7326,
      "▁உயரமாகவும்": 7327,
      "சூ": 7328,
      "▁தாய்ம": 7329,
      "▁வரவில்லை": 7330,
      "▁குளிர்சாதன": 7331,
      "rag": 7332,
      "கிறது": 7333,
      "▁dish": 7334,
      "▁சுத்தமான": 7335,
      "▁தானிய": 7336,
      "▁அழைப்ப": 7337,
      "ோல்": 7338,
      "க்கூட": 7339,
      "ிருந்தன": 7340,
      "▁சந்தித்து": 7341,
      "▁சூப்பர்": 7342,
      "▁குக்கீயை": 7343,
      "▁வெற்றிகரமாக": 7344,
      "▁சமையலறைக்குச்": 7345,
      "▁மோதிய": 7346,
      "▁உயரத்தில்": 7347,
      "▁விரும்பினால்": 7348,
      "▁மண்டப": 7349,
      "▁ஏற்றுக்க": 7350,
      "sc": 7351,
      "▁diffic": 7352,
      "▁பெஞ்சின்": 7353,
      "றவை": 7354,
      "▁clown": 7355,
      "▁விருப்பம்": 7356,
      "ன்சை": 7357,
      "▁eats": 7358,
      "்டோப": 7359,
      "▁ashamed": 7360,
      "த்திற்காக": 7361,
      "▁எங்கிருந்து": 7362,
      "▁ஏற்றி": 7363,
      "▁bedroom": 7364,
      "▁பேருந்த": 7365,
      "pack": 7366,
      "▁exper": 7367,
      "▁bored": 7368,
      "ots": 7369,
      "▁motor": 7370,
      "▁பதிலளித்த": 7371,
      "▁boring": 7372,
      "ாட்சிய": 7373,
      "▁மாற்றம்": 7374,
      "▁இருப்பதும்": 7375,
      "▁சூரியகாந்தி": 7376,
      "▁ஸ்குவ": 7377,
      "▁fold": 7378,
      "ட்டைக்க": 7379,
      "ges": 7380,
      "ங்கால": 7381,
      "▁சாமை": 7382,
      "▁கோபமான": 7383,
      "dle": 7384,
      "ations": 7385,
      "aurant": 7386,
      "▁உதவியாள": 7387,
      "▁தூக்கம்": 7388,
      "த்தி": 7389,
      "ூர்": 7390,
      "லால்": 7391,
      "▁சேமித்து": 7392,
      "லைக்குச்": 7393,
      "▁பார்த்ததில்லை": 7394,
      "▁realizes": 7395,
      "▁கேமர": 7396,
      "▁loyal": 7397,
      "▁splash": 7398,
      "றிப்ப": 7399,
      "▁Brown": 7400,
      "▁ஆர்டர்": 7401,
      "▁ancient": 7402,
      "▁ஆடு": 7403,
      "▁நீர்ய": 7404,
      "▁waves": 7405,
      "▁அவரைக்": 7406,
      "▁தொலைபேசி": 7407,
      "▁முட்டாள்தனமான": 7408,
      "▁மகிழ்ச்சியில்": 7409,
      "▁twist": 7410,
      "ஏன்": 7411,
      "▁அளித்த": 7412,
      "▁organized": 7413,
      "▁அவருக்குக்": 7414,
      "▁இருவ": 7415,
      "▁வாகனம்": 7416,
      "▁போகிறது": 7417,
      "▁மிட்டாய": 7418,
      "▁களைப்படைந்து": 7419,
      "▁மகள்": 7420,
      "ம்பில்ஸ்": 7421,
      "▁arg": 7422,
      "▁market": 7423,
      "▁ஒப்புக்க": 7424,
      "▁ஏற்படுத்தும்": 7425,
      "▁சக்திவாய்ந்த": 7426,
      "▁டாமிடம்": 7427,
      "▁நிலத்தில்": 7428,
      "▁நிறுத்திவிட்டு": 7429,
      "▁சட்டை": 7430,
      "▁பாடினார்": 7431,
      "▁பயப்படுகிறார்": 7432,
      "▁வழிவகுக்கிறது": 7433,
      "▁உணருக": 7434,
      "இப்போது": 7435,
      "▁சாமுக்கு": 7436,
      "▁Jake": 7437,
      "▁பகுத": 7438,
      "▁நகரில்": 7439,
      "ையும்வரை": 7440,
      "▁receives": 7441,
      "▁அதன்பிற": 7442,
      "▁buil": 7443,
      "▁வாங்கி": 7444,
      "ிருந்ததால்": 7445,
      "ூட": 7446,
      "▁தோட்டத்தை": 7447,
      "▁ட்வீட்": 7448,
      "ாங்கு": 7449,
      "▁பியர்": 7450,
      "▁வகை": 7451,
      "▁bossy": 7452,
      "▁தேர்வ": 7453,
      "▁கைகளால்": 7454,
      "▁அதன்பிறகு": 7455,
      "▁பாம்ப": 7456,
      "▁விடுவ": 7457,
      "▁அம்மாவைப்": 7458,
      "ஸும்": 7459,
      "▁சாய்": 7460,
      "ப்படுகின்றன": 7461,
      "▁புத்தகத்தைப்": 7462,
      "roph": 7463,
      "▁bald": 7464,
      "▁fruits": 7465,
      "▁pray": 7466,
      "▁உணர்வை": 7467,
      "▁tomorrow": 7468,
      "pe": 7469,
      "selves": 7470,
      "தல": 7471,
      "▁Go": 7472,
      "ப்பட்டாள்": 7473,
      "▁ones": 7474,
      "ொள்கிறார்கள்": 7475,
      "▁விமானத்தில்": 7476,
      "ிப்பார்": 7477,
      "▁நிலை": 7478,
      "▁வில்": 7479,
      "▁ஆலிஸ்": 7480,
      "▁நடுவில்": 7481,
      "▁பொத்தான": 7482,
      "▁இருப்பேன்": 7483,
      "▁closet": 7484,
      "ced": 7485,
      "▁கப்பல்": 7486,
      "▁மின்": 7487,
      "▁கொழுப்பு": 7488,
      "▁நம்பமுடியாத": 7489,
      "▁weal": 7490,
      "▁balls": 7491,
      "ella": 7492,
      "▁கவலைப்படவில்லை": 7493,
      "ிராத": 7494,
      "▁கிளி": 7495,
      "ாக்கள்": 7496,
      "▁drew": 7497,
      "▁chicken": 7498,
      "▁becoming": 7499,
      "▁boxes": 7500,
      "▁smiling": 7501,
      "▁உதவியை": 7502,
      "▁காட்டுகிறார்": 7503,
      "மிங்": 7504,
      "▁கம்பளி": 7505,
      "▁difficult": 7506,
      "▁காகிதத்தில்": 7507,
      "oin": 7508,
      "▁clear": 7509,
      "▁வைத்தனர்": 7510,
      "▁enjoying": 7511,
      "ர்ச்சியாக": 7512,
      "ince": 7513,
      "▁கொண்டிருப்பதை": 7514,
      "▁அச்சம்": 7515,
      "▁crawl": 7516,
      "▁அறைகளை": 7517,
      "▁தலையசைத்தனர்": 7518,
      "▁cab": 7519,
      "▁சாகசங்களில்": 7520,
      "het": 7521,
      "▁ext": 7522,
      "▁fre": 7523,
      "▁borrow": 7524,
      "▁சேகரித்து": 7525,
      "▁காவலர்": 7526,
      "▁கொடிய": 7527,
      "ிவாக": 7528,
      "▁meant": 7529,
      "▁create": 7530,
      "▁அரண்மன": 7531,
      "▁தொடங்கின": 7532,
      "▁தீர்க்க": 7533,
      "▁வரிக்குத": 7534,
      "▁surf": 7535,
      "▁ஏற்படுத்துகிறது": 7536,
      "மில்லை": 7537,
      "▁தாக்க": 7538,
      "▁காணலாம்": 7539,
      "▁குரலைக்": 7540,
      "▁வாழ்ந்தார்": 7541,
      "அவள": 7542,
      "▁caterpillar": 7543,
      "▁வன": 7544,
      "ends": 7545,
      "ெடுத்து": 7546,
      "▁மகிழ்ச்சியைத்": 7547,
      "▁பசு": 7548,
      "▁colour": 7549,
      "▁கற்றுக்கொ": 7550,
      "▁restaurant": 7551,
      "▁பாடல்களைப்": 7552,
      "▁புகைப்படத்தை": 7553,
      "▁காள": 7554,
      "▁safely": 7555,
      "ிருந்தால்": 7556,
      "▁மேற்கொண்டார்": 7557,
      "▁அறிந்திருந்தாள்": 7558,
      "ளும்": 7559,
      "▁நடை": 7560,
      "ோக்கி": 7561,
      "▁இரண்டாவது": 7562,
      "▁வீடியோ": 7563,
      "▁அரிய": 7564,
      "ேஜ": 7565,
      "த்தட்ட": 7566,
      "▁நடக்கத்": 7567,
      "▁frag": 7568,
      "▁கத்தினார்": 7569,
      "▁ஒளிய": 7570,
      "▁snacks": 7571,
      "▁taught": 7572,
      "▁விரும்புவதாக": 7573,
      "▁gun": 7574,
      "விடம்": 7575,
      "ங்கா": 7576,
      "ினேன்": 7577,
      "▁கழிவ": 7578,
      "டோ": 7579,
      "bled": 7580,
      "▁ஹெல": 7581,
      "▁dreams": 7582,
      "▁தோட்டம்": 7583,
      "▁திமிங்கில": 7584,
      "▁பெண்ணும்": 7585,
      "▁சத்தங்களை": 7586,
      "வரிடம்": 7587,
      "▁புல்லாங்கு": 7588,
      "கரிய": 7589,
      "▁நிம்மதி": 7590,
      "தியாகவும்": 7591,
      "▁ஆல்": 7592,
      "போன்ற": 7593,
      "▁புகை": 7594,
      "ரால்": 7595,
      "▁map": 7596,
      "▁பழத்தை": 7597,
      "னமாகவும்": 7598,
      "▁அவனுக்கு": 7599,
      "▁செய்யவில்லை": 7600,
      "தாப": 7601,
      "osaur": 7602,
      "▁relax": 7603,
      "▁பரிதாப": 7604,
      "▁ஓடுகிறார்கள்": 7605,
      "மூ": 7606,
      "▁சிரிக்கிறார்கள்": 7607,
      "▁lik": 7608,
      "▁pir": 7609,
      "▁faces": 7610,
      "▁எழுது": 7611,
      "▁நீலம்": 7612,
      "▁சாண்ட்விச்": 7613,
      "சீ": 7614,
      "▁dizzy": 7615,
      "▁cage": 7616,
      "▁noisy": 7617,
      "▁சாலையில்": 7618,
      "▁தோல்வ": 7619,
      "▁Don": 7620,
      "▁sque": 7621,
      "▁whis": 7622,
      "▁wagged": 7623,
      "▁பெட்டியைப்": 7624,
      "aser": 7625,
      "▁similar": 7626,
      "▁இல்லாததால்": 7627,
      "▁படைப்பாற்றல்": 7628,
      "▁என்றாள்": 7629,
      "▁தோண்டி": 7630,
      "னமானது": 7631,
      "▁scarf": 7632,
      "▁corner": 7633,
      "▁ஆச்சரியமான": 7634,
      "▁உணரத்": 7635,
      "▁distance": 7636,
      "▁medicine": 7637,
      "▁சாமின்": 7638,
      "மாக்க": 7639,
      "▁செய்யத்": 7640,
      "▁கிட்டத்தட்ட": 7641,
      "▁People": 7642,
      "▁குழந்தைகளுக்கு": 7643,
      "▁லே": 7644,
      "ுவதிலும்": 7645,
      "▁உழைத்தார்": 7646,
      "iable": 7647,
      "▁speed": 7648,
      "▁அண்ணாவும்": 7649,
      "▁சாகசங்களை": 7650,
      "▁பனிக்கட்டி": 7651,
      "cus": 7652,
      "issors": 7653,
      "▁தந்தைக்கு": 7654,
      "▁முரட்டுத்தனமான": 7655,
      "▁தேடினார்கள்": 7656,
      "்ரூ": 7657,
      "ங்காட்சிய": 7658,
      "▁செய்வேன்": 7659,
      "▁அடைந்தாள்": 7660,
      "emo": 7661,
      "ாலை": 7662,
      "▁துடி": 7663,
      "Please": 7664,
      "▁கிராமத்தில்": 7665,
      "▁fragile": 7666,
      "▁bet": 7667,
      "▁வெங்க": 7668,
      "▁இருப்பதன்": 7669,
      "▁அதிலிருந்து": 7670,
      "ப்பட்டன": 7671,
      "▁பள்ளிக்கு": 7672,
      "▁விரும்பினேன்": 7673,
      "▁thick": 7674,
      "▁வெட்டி": 7675,
      "▁நபருக்கு": 7676,
      "▁மூலையில்": 7677,
      "▁செல்லுமாறு": 7678,
      "▁பார்க்கலாம்": 7679,
      "▁Somet": 7680,
      "▁ஆக்டோப": 7681,
      "▁போட்டு": 7682,
      "▁pretended": 7683,
      "▁உருவாக்குகிறது": 7684,
      "ield": 7685,
      "▁அருங்காட்சிய": 7686,
      "ிக்கொண்ட": 7687,
      "▁dinosaur": 7688,
      "▁பசுமையான": 7689,
      "My": 7690,
      "▁guil": 7691,
      "▁mic": 7692,
      "▁மிஸ்": 7693,
      "▁நீளமான": 7694,
      "▁சைக்கிள்": 7695,
      "▁விடுமுறை": 7696,
      "ical": 7697,
      "▁சுவையானது": 7698,
      "▁/": 7699,
      "வெளி": 7700,
      "▁ஓடியது": 7701,
      "▁சின்னப்": 7702,
      "ஷன்": 7703,
      "▁ஜார்": 7704,
      "▁popular": 7705,
      "▁புறப்பட்டு": 7706,
      "▁பென்னுக்கு": 7707,
      "ர்பூச": 7708,
      "▁மோதல்": 7709,
      "▁கால்களை": 7710,
      "▁gain": 7711,
      "ியுங்கள்": 7712,
      "▁குழந்தைகளுடன்": 7713,
      "▁குழாயை": 7714,
      "▁பெருமையுடன்": 7715,
      "ceed": 7716,
      "eterm": 7717,
      "▁தந்தையை": 7718,
      "▁சாராவின்": 7719,
      "▁பயம்": 7720,
      "▁பழுது": 7721,
      "▁இருட்டாக": 7722,
      "ிகே": 7723,
      "▁உறங்க": 7724,
      "▁கேளுங்கள்": 7725,
      "▁தர்பூச": 7726,
      "▁கோட்டையைக்": 7727,
      "▁egg": 7728,
      "▁cabin": 7729,
      "▁அலமாரி": 7730,
      "▁அவளுடன்": 7731,
      "▁scissors": 7732,
      "▁பொறுமையாக": 7733,
      "▁ராணி": 7734,
      "ங்க்": 7735,
      "▁புலி": 7736,
      "▁சிறியது": 7737,
      "▁ஈரமாகவும்": 7738,
      "▁கத்திரிக்க": 7739,
      "▁பள்ளிக்குச்": 7740,
      "▁Mar": 7741,
      "▁Fred": 7742,
      "▁இதன்": 7743,
      "▁நல்லவர்": 7744,
      "ination": 7745,
      "▁செய்தேன்": 7746,
      "▁புத்தகங்களை": 7747,
      "▁Nemo": 7748,
      "▁மளிக": 7749,
      "▁ஓடுவதை": 7750,
      "▁நதி": 7751,
      "▁உருண்டோ": 7752,
      "▁Some": 7753,
      "▁குழு": 7754,
      "▁bridge": 7755,
      "▁mem": 7756,
      "▁joke": 7757,
      "▁தவளையை": 7758,
      "▁mistake": 7759,
      "▁விமானத்தை": 7760,
      "let": 7761,
      "▁Sus": 7762,
      "ல்லாச": 7763,
      "▁தோல்": 7764,
      "▁shake": 7765,
      "▁உல்லாச": 7766,
      "▁பனிப்ப": 7767,
      "▁பூசணிக்க": 7768,
      "▁வைக்கிறார்": 7769,
      "▁vegetables": 7770,
      "▁ஸ்லைடுகளில்": 7771,
      "▁புத்தகங்களைப்": 7772,
      "▁drum": 7773,
      "▁libr": 7774,
      "▁கொள்ளவில்லை": 7775,
      "pite": 7776,
      "ௌகரிய": 7777,
      "▁returns": 7778,
      "▁விரும்பி": 7779,
      "▁தோழ": 7780,
      "க்குமா": 7781,
      "▁straw": 7782,
      "▁இயல்ப": 7783,
      "ecially": 7784,
      "▁following": 7785,
      "▁original": 7786,
      "▁புழு": 7787,
      "▁snee": 7788,
      "▁மேகம்": 7789,
      "▁finger": 7790,
      "த்துக்கு": 7791,
      "▁வாய்ந்த": 7792,
      "▁stri": 7793,
      "▁நீட்ட": 7794,
      "ன்சைன்சை": 7795,
      "▁esp": 7796,
      "▁மூடுப": 7797,
      "ள்ளனர்": 7798,
      "▁பெட்டியின்": 7799,
      "▁Ellie": 7800,
      "▁கிளை": 7801,
      "▁இணைக்க": 7802,
      "▁வழியைக்": 7803,
      "▁தேவைப்படும்போது": 7804,
      "▁father": 7805,
      "ிடு": 7806,
      "▁பிராணி": 7807,
      "▁பார்த்திராத": 7808,
      "▁destro": 7809,
      "ஸின்": 7810,
      "▁விண்": 7811,
      "ற்றனர்": 7812,
      "▁சொல்வது": 7813,
      "▁நாளுக்கு": 7814,
      "▁சாப்பிடுவது": 7815,
      "ites": 7816,
      "▁whale": 7817,
      "▁especially": 7818,
      "ision": 7819,
      "▁உலோக": 7820,
      "▁தொட்டியை": 7821,
      "▁விஷயத்தை": 7822,
      "▁cr": 7823,
      "ேர்": 7824,
      "▁தொடர்ப": 7825,
      "▁தயாரித்து": 7826,
      "▁que": 7827,
      "க்குக்": 7828,
      "▁includ": 7829,
      "▁புதிதாக": 7830,
      "▁அவர்களும்": 7831,
      "▁விலையுயர்ந்த": 7832,
      "▁சக்தி": 7833,
      "▁நேசிப்ப": 7834,
      "▁clum": 7835,
      "▁காலடி": 7836,
      "▁வேட்டைக்க": 7837,
      "▁குளிர்ச்சியான": 7838,
      "urous": 7839,
      "▁படிக": 7840,
      "▁rescue": 7841,
      "tract": 7842,
      "▁miles": 7843,
      "▁கைகளைப்": 7844,
      "ுமோ": 7845,
      "▁வலிய": 7846,
      "▁stuff": 7847,
      "▁bathroom": 7848,
      "▁குளத்திற்கு": 7849,
      "kn": 7850,
      "▁புழுவ": 7851,
      "▁tightly": 7852,
      "▁adventurous": 7853,
      "▁determ": 7854,
      "▁எக்காள": 7855,
      "▁செய்வதென்று": 7856,
      "▁ஜன்னலுக்கு": 7857,
      "▁shore": 7858,
      "ரத்தை": 7859,
      "▁ஊற்றி": 7860,
      "▁சாப்பிடுவதை": 7861,
      "▁மறக்கவில்லை": 7862,
      "ச்சிற": 7863,
      "ாவும்": 7864,
      "▁weird": 7865,
      "▁design": 7866,
      "▁unus": 7867,
      "▁ஒழுங்குபடுத்த": 7868,
      "▁முத்தம்": 7869,
      "▁பத்திரிக": 7870,
      "ubborn": 7871,
      "▁Peter": 7872,
      "▁காகிதம்": 7873,
      "▁ஞானமுள்ள": 7874,
      "▁hero": 7875,
      "▁deaf": 7876,
      "▁stubborn": 7877,
      "▁பகுதியாக": 7878,
      "▁மிகச்சிற": 7879,
      "▁flag": 7880,
      "▁அழைப்பு": 7881,
      "▁தொலைதூ": 7882,
      "any": 7883,
      "▁thin": 7884,
      "▁picks": 7885,
      "ர்க்கட": 7886,
      "▁வழுக்க": 7887,
      "▁கூடுதல்": 7888,
      "▁நிலையில்": 7889,
      "▁வேகமாகச்": 7890,
      "▁ord": 7891,
      "▁depend": 7892,
      "▁regular": 7893,
      "▁போனதால்": 7894,
      "▁கூறினாள்": 7895,
      "▁steal": 7896,
      "▁கழற்றி": 7897,
      "▁திருப்பம்": 7898,
      "illi": 7899,
      "▁பழம்": 7900,
      "▁fig": 7901,
      "aghet": 7902,
      "▁jewel": 7903,
      "▁தீக்குருவ": 7904,
      "iew": 7905,
      "▁அசௌகரிய": 7906,
      "▁ஊசலாட்ட": 7907,
      "▁வருந்துகிறோம்": 7908,
      "வெது": 7909,
      "ர்களுக்கு": 7910,
      "▁சமையலறைக்கு": 7911,
      "▁மண்ண": 7912,
      "▁மைக்": 7913,
      "▁guilty": 7914,
      "▁வீட்டைச்": 7915,
      "▁prod": 7916,
      "▁அமைதியற்ற": 7917,
      "▁பனிமனிதரை": 7918,
      "▁வைத்திருந்தனர்": 7919,
      "▁நினைக்கிறார்கள்": 7920,
      "▁bounce": 7921,
      "▁தெரிவிக்க": 7922,
      "irr": 7923,
      "▁unusual": 7924,
      "▁சேற்ற": 7925,
      "aghetti": 7926,
      "▁கணின": 7927,
      "▁மென்மையானது": 7928,
      "ிரவு": 7929,
      "த்தின": 7930,
      "▁மாலும": 7931,
      "▁கொள்ளும்": 7932,
      "▁மலிவான": 7933,
      "▁பெண்ணுக்கு": 7934,
      "லாகவும்": 7935,
      "▁succeed": 7936,
      "▁வேர்க்கட": 7937,
      "ஆஹா": 7938,
      "▁passed": 7939,
      "▁மகிழ்விக்க": 7940,
      "Come": 7941,
      "▁base": 7942,
      "▁பேண்ட்": 7943,
      "▁mis": 7944,
      "▁பசி": 7945,
      "ரில்ல": 7946,
      "▁toug": 7947,
      "▁பெயி": 7948,
      "▁ரயிலில்": 7949,
      "imp": 7950,
      "▁leading": 7951,
      "▁flies": 7952,
      "▁விரக்திய": 7953,
      "▁பயத்துடனும்": 7954,
      "▁ஏழை": 7955,
      "ன்பிடி": 7956,
      "▁டாக்டர்": 7957,
      "▁விதைகளை": 7958,
      "▁wing": 7959,
      "ைத்தல்": 7960,
      "▁இறக்கைகளை": 7961,
      "ிற்ச": 7962,
      "▁கோது": 7963,
      "▁வெது": 7964,
      "▁கேரட்ட": 7965,
      "▁மேஜையில்": 7966,
      "▁வெதுவெது": 7967,
      "▁விஷயங்களையும்": 7968,
      "▁கதா": 7969,
      "▁overc": 7970,
      "▁clumsy": 7971,
      "▁பொறுமைய": 7972,
      "▁மாட்டார்கள்": 7973,
      "▁balance": 7974,
      "▁creature": 7975,
      "▁கூழ": 7976,
      "▁wealthy": 7977,
      "▁மீன்பிடி": 7978,
      "▁ரசித்தனர்": 7979,
      "ado": 7980,
      "ley": 7981,
      "ants": 7982,
      "▁கெட்டு": 7983,
      "▁வெங்காய": 7984,
      "▁ஸ்விங்குகளில்": 7985,
      "▁டீ": 7986,
      "▁சுண்ணாம்பு": 7987,
      "urch": 7988,
      "▁ரசித்தார்": 7989,
      "▁dol": 7990,
      "▁ஃ": 7991,
      "▁glue": 7992,
      "▁கத்தி": 7993,
      "▁வார்த்தைகளை": 7994,
      "▁சுழற்ச": 7995,
      "▁ப்ரிட்": 7996,
      "▁சத்தமாகவும்": 7997,
      "▁வருத்தமாகவும்": 7998,
      "iff": 7999,
      "most": 8000,
      "▁ஹோட்ட": 8001,
      "▁ஓட்டுநர்": 8002,
      "மீது": 8003,
      "▁குழப்பமான": 8004,
      "▁வைத்திருக்கும்": 8005,
      "▁குளிர்ச்சியாக": 8006,
      "▁carried": 8007,
      "▁தானாகவே": 8008,
      "▁fine": 8009,
      "▁march": 8010,
      "▁returned": 8011,
      "▁screamed": 8012,
      "isk": 8013,
      "▁காபி": 8014,
      "▁மரத்தைக்": 8015,
      "▁நீங்களும்": 8016,
      "▁cri": 8017,
      "▁சுற்றிச்": 8018,
      "▁bitter": 8019,
      "ித்தார்கள்": 8020,
      "▁நுழ": 8021,
      "▁fright": 8022,
      "▁வளர்ந்து": 8023,
      "▁உதவுவதில்": 8024,
      "▁பயன்படுத்தலாம்": 8025,
      "▁தொழிற்ச": 8026,
      "ன்னா": 8027,
      "▁புரோ": 8028,
      "▁shark": 8029,
      "▁spoiled": 8030,
      "▁கம்பளிப்புழுவ": 8031,
      "▁tough": 8032,
      "▁இதுதான்": 8033,
      "▁பகிர்ந்த": 8034,
      "▁பில்": 8035,
      "▁crown": 8036,
      "▁பறவையிடம்": 8037,
      "▁பென்னிடம்": 8038,
      "cles": 8039,
      "▁கூழாங்க": 8040,
      "▁உச்சியில்": 8041,
      "▁விடைபெற்றார்": 8042,
      "▁திக": 8043,
      "▁Ducky": 8044,
      "▁திரும்பிய": 8045,
      "▁விளையாடுவதைப்": 8046,
      "▁நபரை": 8047,
      "▁deliver": 8048,
      "▁subtract": 8049,
      "▁உறி": 8050,
      "▁missing": 8051,
      "▁கொரில்ல": 8052,
      "▁அலங்கரிக்க": 8053,
      "▁மீத": 8054,
      "iddle": 8055,
      "▁deer": 8056,
      "▁பாஸ்": 8057,
      "▁லிட்ட": 8058,
      "▁விளக்கை": 8059,
      "gle": 8060,
      "▁likely": 8061,
      "ட்படுத்த": 8062,
      "▁வைத்தார்கள்": 8063,
      "▁தேய": 8064,
      "▁valu": 8065,
      "▁கூறுகிறது": 8066,
      "▁அனுமதித்தார்": 8067,
      "▁unkn": 8068,
      "▁வருமாறு": 8069,
      "▁மாமா": 8070,
      "▁பல்ல": 8071,
      "▁print": 8072,
      "▁\"\"\"\"": 8073,
      "▁excite": 8074,
      "izes": 8075,
      "▁என்னைப்": 8076,
      "▁இருப்போம்": 8077,
      "வருக்கு": 8078,
      "▁tent": 8079,
      "▁cleaned": 8080,
      "▁பொதுவாக": 8081,
      "▁மலை": 8082,
      "▁fier": 8083,
      "▁அவற்றின்": 8084,
      "▁தந்தையருடன்": 8085,
      "▁Jerry": 8086,
      "▁shoot": 8087,
      "▁அலைகள்": 8088,
      "▁cleaning": 8089,
      "com": 8090,
      "▁comput": 8091,
      "▁ple": 8092,
      "▁perm": 8093,
      "▁டிரக்கை": 8094,
      "▁spaghetti": 8095,
      "▁wand": 8096,
      "▁நபரிடம்": 8097,
      "▁கங்கா": 8098,
      "▁அமைக்க": 8099,
      "elp": 8100,
      "▁soap": 8101,
      "▁Little": 8102,
      "▁வினாடி": 8103,
      "▁painting": 8104,
      "▁ஒவ்வொன்ற": 8105,
      "▁குழந்தைகளை": 8106,
      "▁tomato": 8107,
      "▁check": 8108,
      "▁spotted": 8109,
      "▁படுத்து": 8110,
      "▁குளியலறை": 8111,
      "tern": 8112,
      "▁moder": 8113,
      "ப்பட்டனர்": 8114,
      "▁பன்ற": 8115,
      "▁சந்தை": 8116,
      "▁கயிற்ற": 8117,
      "▁தோன்றும்": 8118,
      "▁முரட்டுத்தனமாக": 8119,
      "▁விளையாடுவார்கள்": 8120,
      "▁மீன்களை": 8121,
      "▁மன்னிக்கவும்": 8122,
      "▁fierce": 8123,
      "▁ப்ளாஷ்": 8124,
      "▁இதுபோன்ற": 8125,
      "ைகிறது": 8126,
      "▁island": 8127,
      "▁playful": 8128,
      "▁seas": 8129,
      "▁டேக்": 8130,
      "▁ஒளியை": 8131,
      "▁அறிமுக": 8132,
      "ires": 8133,
      "▁ஓட்டை": 8134,
      "▁meadow": 8135,
      "▁zip": 8136,
      "▁கரடு": 8137,
      "▁ஸ்வெட்ட": 8138,
      "▁வடிவமை": 8139,
      "▁ins": 8140,
      "▁lab": 8141,
      "▁எரிம": 8142,
      "▁dolph": 8143,
      "ட்களையும்": 8144,
      "▁சாப்பிடலாம்": 8145,
      "▁nosy": 8146,
      "ொள்கிறது": 8147,
      "▁destroy": 8148,
      "▁disappoin": 8149,
      "▁முயற்சிப்ப": 8150,
      "uth": 8151,
      "▁நிலம்": 8152,
      "▁incred": 8153,
      "▁அங்கேயே": 8154,
      "ப்பும்": 8155,
      "alk": 8156,
      "▁rough": 8157,
      "▁பாதிக்க": 8158,
      "az": 8159,
      "ும்படி": 8160,
      "ியிலும்": 8161,
      "▁தெரிகிறது": 8162,
      "▁பொருத்தமான": 8163,
      "▁flex": 8164,
      "திலேயே": 8165,
      "கால": 8166,
      "ween": 8167,
      "யிற்ச": 8168,
      "▁unknown": 8169,
      "gen": 8170,
      "▁தக்க": 8171,
      "Tom": 8172,
      "ிட்டாள்": 8173,
      "▁உணவைக்": 8174,
      "ப்பதற்காக": 8175,
      "▁சுவையாகவும்": 8176,
      "▁மறைந்துவிட்டது": 8177,
      "▁உன்": 8178,
      "ighed": 8179,
      "▁பீட்": 8180,
      "▁independ": 8181,
      "▁தெரிந்தது": 8182,
      "▁equ": 8183,
      "▁ham": 8184,
      "▁almost": 8185,
      "▁உறிஞ்ச": 8186,
      "▁உங்களுக்குத்": 8187,
      "▁ரூ": 8188,
      "▁கரண்ட": 8189,
      "▁பிழ": 8190,
      "▁garage": 8191,
      "▁சகோதரர்கள்": 8192,
      "▁பழங்கால": 8193,
      "▁தாயிடமிருந்து": 8194,
      "rod": 8195,
      "▁strawber": 8196,
      "▁guit": 8197,
      "▁bloom": 8198,
      "▁கொண்டவர்": 8199,
      "▁முடியாததால்": 8200,
      "▁whisper": 8201,
      "▁குழந்தையை": 8202,
      "ரட": 8203,
      "▁brings": 8204,
      "▁சாக்கை": 8205,
      "▁மடி": 8206,
      "▁barn": 8207,
      "▁fool": 8208,
      "▁ஆகிறது": 8209,
      "▁queen": 8210,
      "ுகிறாய்": 8211,
      "▁வீட்டு": 8212,
      "▁விரும்பியது": 8213,
      "▁வித்தியாசமான": 8214,
      "▁lit": 8215,
      "▁விலங்குகளுக்கு": 8216,
      "▁தயவாக": 8217,
      "▁சமையலற": 8218,
      "▁delicate": 8219,
      "▁students": 8220,
      "▁Why": 8221,
      "▁tig": 8222,
      "▁mirr": 8223,
      "▁forward": 8224,
      "▁கூடைப்ப": 8225,
      "▁பென்சில்": 8226,
      "▁நிறமாகவும்": 8227,
      "▁தேர்ந்தெடுத்த": 8228,
      "▁வீட்டைக்": 8229,
      "▁வயலின்": 8230,
      "▁reliable": 8231,
      "▁துர": 8232,
      "▁gate": 8233,
      "▁இசைக்கு": 8234,
      "சிங்": 8235,
      "ready": 8236,
      "▁துண்டுகள்": 8237,
      "▁பொருட்படுத்த": 8238,
      "▁ஹா": 8239,
      "▁Leo": 8240,
      "▁லாரியை": 8241,
      "நல்ல": 8242,
      "▁between": 8243,
      "▁பாறையின்": 8244,
      "சில்": 8245,
      "▁மந்த": 8246,
      "▁rocket": 8247,
      "œI": 8248,
      "ம்மின்": 8249,
      "லைத்": 8250,
      "▁வந்துவிட்டது": 8251,
      "த்தாள்": 8252,
      "க்குர": 8253,
      "வையாக": 8254,
      "▁already": 8255,
      "▁incredible": 8256,
      "▁வலியுறுத்த": 8257,
      "▁இதைப்": 8258,
      "▁பையனும்": 8259,
      "▁advice": 8260,
      "▁useful": 8261,
      "▁er": 8262,
      "▁wake": 8263,
      "▁country": 8264,
      "▁அவர்களைக்": 8265,
      "▁கேட்கிறது": 8266,
      "தைச்": 8267,
      "▁திறமையான": 8268,
      "▁போர்": 8269,
      "▁understood": 8270,
      "▁கிரேய": 8271,
      "▁விசில": 8272,
      "▁இருள்": 8273,
      "▁கூக்குர": 8274,
      "▁செய்யவும்": 8275,
      "▁துளைக்குள்": 8276,
      "ext": 8277,
      "ately": 8278,
      "▁phra": 8279,
      "▁கற்பிக்கிறார்": 8280,
      "ப்ர": 8281,
      "லையை": 8282,
      "சது": 8283,
      "▁pound": 8284,
      "▁நிறுவ": 8285,
      "▁முடியுமோ": 8286,
      "▁art": 8287,
      "▁பணப்ப": 8288,
      "▁banana": 8289,
      "▁நிலக்க": 8290,
      "ாவிட்டாலும்": 8291,
      "▁ராண": 8292,
      "ிட்டி": 8293,
      "ention": 8294,
      "▁ஒலியை": 8295,
      "▁குளிர்க": 8296,
      "▁flut": 8297,
      "▁வரைக": 8298,
      "▁பைத்திய": 8299,
      "்கின்றனர்": 8300,
      "▁சாஸ்": 8301,
      "▁V": 8302,
      "▁Bella": 8303,
      "ைட்": 8304,
      "▁முகம்": 8305,
      "oomy": 8306,
      "▁cro": 8307,
      "க்கூடாது": 8308,
      "▁பெண்ணிடம்": 8309,
      "▁புறப்பட்டுச்": 8310,
      "ஞ்": 8311,
      "Tim": 8312,
      "▁square": 8313,
      "▁flexible": 8314,
      "▁hunt": 8315,
      "▁Buddy": 8316,
      "▁வேகம்": 8317,
      "▁covered": 8318,
      "▁reward": 8319,
      "▁சத்தமிட்டு": 8320,
      "▁கிரிக்க": 8321,
      "▁frightened": 8322,
      "ெல்ம": 8323,
      "▁obed": 8324,
      "▁செல்வதைப்": 8325,
      "▁prep": 8326,
      "▁உணவளிக்க": 8327,
      "▁அருவருப்ப": 8328,
      "ache": 8329,
      "▁தாமத": 8330,
      "▁brush": 8331,
      "▁shape": 8332,
      "▁கேளாத": 8333,
      "▁செயல்": 8334,
      "▁phrase": 8335,
      "▁அசுத்த": 8336,
      "ினீர்கள்": 8337,
      "▁valuable": 8338,
      "விட்டது": 8339,
      "முரட": 8340,
      "▁மதிக்க": 8341,
      "த்தான": 8342,
      "▁கரடுமுரட": 8343,
      "▁விளி": 8344,
      "ிகாப்ட": 8345,
      "▁board": 8346,
      "▁walks": 8347,
      "▁கிண்ணம்": 8348,
      "▁பயந்தது": 8349,
      "▁மரங்களை": 8350,
      "▁வரும்வரை": 8351,
      "▁thoughtful": 8352,
      "▁கெட்டுப்போ": 8353,
      "களையும்": 8354,
      "▁modern": 8355,
      "inary": 8356,
      "குறிப்ப": 8357,
      "அவளுடைய": 8358,
      "▁கூடையில்": 8359,
      "▁grace": 8360,
      "▁accept": 8361,
      "▁நிறமாக": 8362,
      "▁பயணத்தைத்": 8363,
      "ormous": 8364,
      "▁guitar": 8365,
      "▁தொட்டி": 8366,
      "▁showing": 8367,
      "▁mighty": 8368,
      "▁வெளியேறி": 8369,
      "லியை": 8370,
      "▁breath": 8371,
      "▁நடைப்பயண": 8372,
      "irp": 8373,
      "▁witch": 8374,
      "வர்களுக்கு": 8375,
      "▁யோ": 8376,
      "டையில்": 8377,
      "ட்டும்": 8378,
      "▁கால்கள்": 8379,
      "▁செம்மறிய": 8380,
      "▁உதவியதற்காக": 8381,
      "வண": 8382,
      "டைவ": 8383,
      "▁area": 8384,
      "▁பெய்த": 8385,
      "▁அழித்த": 8386,
      "▁அடையும்": 8387,
      "▁பாட்டில்": 8388,
      "wards": 8389,
      "▁mirror": 8390,
      "▁enormous": 8391,
      "▁காய்கறிகளை": 8392,
      "▁பயப்படுகிறாள்": 8393,
      "▁மனிதனை": 8394,
      "▁லூசியின்": 8395,
      "▁ஹெலிகாப்ட": 8396,
      "▁Sn": 8397,
      "டையும்": 8398,
      "ஞ்சர்ஸ்": 8399,
      "▁persist": 8400,
      "▁dull": 8401,
      "▁stood": 8402,
      "▁நினைத்தது": 8403,
      "▁maybe": 8404,
      "▁month": 8405,
      "▁மீதமுள்ள": 8406,
      "▁shel": 8407,
      "▁பணியாற்றினர்": 8408,
      "▁எப்ப": 8409,
      "▁seeds": 8410,
      "▁பெருமையும்": 8411,
      "▁tape": 8412,
      "▁ஆய்வ": 8413,
      "ுவதால்": 8414,
      "▁அவளது": 8415,
      "▁birdie": 8416,
      "▁வேலியை": 8417,
      "▁questions": 8418,
      "ண்டாமி": 8419,
      "▁ரீதியான": 8420,
      "ண்டாமிருக": 8421,
      "▁உதவியற்ற": 8422,
      "▁மரங்களில்": 8423,
      "▁போட்டியில்": 8424,
      "▁noun": 8425,
      "▁hairy": 8426,
      "▁நாணயத்தை": 8427,
      "▁கோப்பை": 8428,
      "▁foolish": 8429,
      "▁listening": 8430,
      "ர்ச்சொ": 8431,
      "▁Sometimes": 8432,
      "▁சரியே": 8433,
      "▁நடனமாடி": 8434,
      "▁பெயர்ச்சொ": 8435,
      "▁ஓடிவிட்டார்": 8436,
      "ட்டுப்": 8437,
      "▁கனசது": 8438,
      "த்தனமான": 8439,
      "▁சமநிலை": 8440,
      "▁பாறைகளை": 8441,
      "▁விசுவாசமான": 8442,
      "ினா": 8443,
      "▁roar": 8444,
      "திருத்து": 8445,
      "▁புதையல்": 8446,
      "▁விலங்குகளின்": 8447,
      "▁desk": 8448,
      "▁ber": 8449,
      "▁rh": 8450,
      "ஜில்": 8451,
      "▁பங்கே": 8452,
      "▁delight": 8453,
      "▁சூரியனில்": 8454,
      "▁விளையாட்டில்": 8455,
      "▁icy": 8456,
      "▁pillow": 8457,
      "▁ஆகியவை": 8458,
      "▁யோசனையை": 8459,
      "▁நினைக்கவில்லை": 8460,
      "▁வீட்டுக்காரர்": 8461,
      "fast": 8462,
      "▁வெப்பம்": 8463,
      "▁தெரிந்து": 8464,
      "anut": 8465,
      "▁ஓடிவிட்டது": 8466,
      "ib": 8467,
      "ப்பிடி": 8468,
      "▁அழிக்க": 8469,
      "▁கடற்கரை": 8470,
      "atter": 8471,
      "▁requ": 8472,
      "ருப்பு": 8473,
      "▁wheel": 8474,
      "▁போன்றது": 8475,
      "▁cheerful": 8476,
      "▁முடிதிருத்து": 8477,
      "▁கவி": 8478,
      "▁terri": 8479,
      "▁வாழ்ந்து": 8480,
      "▁எதிர்காலத்தில்": 8481,
      "▁stops": 8482,
      "oppy": 8483,
      "▁பூனையின்": 8484,
      "▁goat": 8485,
      "▁yourself": 8486,
      "பவர்": 8487,
      "▁law": 8488,
      "▁சிந்தித்த": 8489,
      "▁நிற்ப": 8490,
      "▁batter": 8491,
      "▁செய்ததற்காக": 8492,
      "▁பார்ப்பதையும்": 8493,
      "ipp": 8494,
      "ured": 8495,
      "▁cher": 8496,
      "▁நாற்காலி": 8497,
      "வுக்கும்": 8498,
      "▁compass": 8499,
      "▁புரோக்கோ": 8500,
      "ுல": 8501,
      "லில்ல": 8502,
      "▁நுண்ண": 8503,
      "▁cone": 8504,
      "▁தினம்": 8505,
      "▁independent": 8506,
      "▁ஜோடி": 8507,
      "▁புறப்பட": 8508,
      "▁மூலமும்": 8509,
      "▁ஒருவருக்கு": 8510,
      "▁லில்லியுடன்": 8511,
      "▁magn": 8512,
      "ும்வரை": 8513,
      "▁அழுகையை": 8514,
      "▁dependable": 8515,
      "▁இருப்பதைப்": 8516,
      "▁இருக்கவில்லை": 8517,
      "ிலில்": 8518,
      "▁முயலை": 8519,
      "▁டிரைவர்": 8520,
      "▁உயிரினம்": 8521,
      "▁அன்னாவும்": 8522,
      "▁ஸ்கூட்ட": 8523,
      "ரான": 8524,
      "▁heat": 8525,
      "▁பிளா": 8526,
      "rell": 8527,
      "anges": 8528,
      "▁காடுகளை": 8529,
      "ோதெல்லாம்": 8530,
      "par": 8531,
      "▁char": 8532,
      "▁stat": 8533,
      "▁பொறு": 8534,
      "ிங்": 8535,
      "▁tag": 8536,
      "▁சத்தமான": 8537,
      "ியிடமிருந்து": 8538,
      "▁காண்டாமிருக": 8539,
      "▁Dan": 8540,
      "▁மாட": 8541,
      "▁pump": 8542,
      "▁பல்லி": 8543,
      "ism": 8544,
      "▁பணக்காரர்": 8545,
      "தலாக": 8546,
      "▁human": 8547,
      "▁தூய்மையாகவும்": 8548,
      "▁towel": 8549,
      "▁வெட்டு": 8550,
      "▁மனை": 8551,
      "▁cant": 8552,
      "▁meal": 8553,
      "▁அவசர": 8554,
      "▁clock": 8555,
      "போன": 8556,
      "▁super": 8557,
      "▁quar": 8558,
      "ாலையில்": 8559,
      "▁ரப்பர்": 8560,
      "▁berries": 8561,
      "▁அணைத்து": 8562,
      "▁வடிவங்களை": 8563,
      "க்கவச": 8564,
      "▁பெயரை": 8565,
      "▁obedient": 8566,
      "▁முன்கூட்ட": 8567,
      "▁disappointed": 8568,
      "▁காந்த": 8569,
      "▁feathers": 8570,
      "▁தைரியமாகவும்": 8571,
      "னிந்து": 8572,
      "▁வேலையை": 8573,
      "▁வின": 8574,
      "▁அடிய": 8575,
      "▁காரிய": 8576,
      "▁library": 8577,
      "▁முன்கூட்டியே": 8578,
      "▁lamp": 8579,
      "▁wander": 8580,
      "▁attract": 8581,
      "▁வழங்குகிறார்": 8582,
      "ha": 8583,
      "▁vol": 8584,
      "▁nature": 8585,
      "▁சிறுவனின்": 8586,
      "▁விளையாட்டுகளை": 8587,
      "ுகளால்": 8588,
      "▁Alice": 8589,
      "▁என்பதே": 8590,
      "▁breakfast": 8591,
      "▁சிற்றுண்டியை": 8592,
      "▁அணிலை": 8593,
      "▁நடக்கும்": 8594,
      "▁முயற்சித்த": 8595,
      "▁ஹூ": 8596,
      "▁தேவால": 8597,
      "▁நாட்களுக்குப்": 8598,
      "▁நட்சத்திரங்கள்": 8599,
      "▁ஏழ": 8600,
      "▁pil": 8601,
      "▁இதைக்": 8602,
      "▁வெளிர்": 8603,
      "▁driving": 8604,
      "▁ப்ளாஷ்லை": 8605,
      "▁விளையாடுமாறு": 8606,
      "▁extra": 8607,
      "▁காட்சியை": 8608,
      "▁மற்றவர்களிடம்": 8609,
      "▁வெதுவெதுப்பான": 8610,
      "▁காத்திருந்தனர்": 8611,
      "▁அசைந்து": 8612,
      "▁விளக்கு": 8613,
      "▁பெட்டிக்குள்": 8614,
      "▁பொருட்களையும்": 8615,
      "▁comb": 8616,
      "▁cheap": 8617,
      "▁சிலர்": 8618,
      "▁வருவார்": 8619,
      "▁குளத்தின்": 8620,
      "▁முடிகிறது": 8621,
      "▁நினைத்தார்கள்": 8622,
      "▁கதறி": 8623,
      "▁Bobby": 8624,
      "▁வரவேற்கிறோம்": 8625,
      "ர்களைப்": 8626,
      "▁middle": 8627,
      "pes": 8628,
      "▁view": 8629,
      "க்குறை": 8630,
      "க்குதல்": 8631,
      "▁க்": 8632,
      "▁aunt": 8633,
      "▁serious": 8634,
      "▁நகைச்சுவை": 8635,
      "▁scr": 8636,
      "▁Even": 8637,
      "▁ஊக்க": 8638,
      "▁stamp": 8639,
      "▁bubbles": 8640,
      "▁பிரகாசித்துக்": 8641,
      "oot": 8642,
      "llip": 8643,
      "▁கடலுக்கு": 8644,
      "ச்சுற்ற": 8645,
      "▁அவசியம்": 8646,
      "▁தலைச்சுற்ற": 8647,
      "ெழு": 8648,
      "▁wrap": 8649,
      "▁unlock": 8650,
      "▁sparkly": 8651,
      "▁கண்களைத்": 8652,
      "▁நண்பர்களின்": 8653,
      "▁இறந்து": 8654,
      "▁டெய்": 8655,
      "▁முழும": 8656,
      "ாவுக்கு": 8657,
      "▁ஐந்து": 8658,
      "▁முக்கோ": 8659,
      "▁முழங்கால்": 8660,
      "udge": 8661,
      "▁மாலி": 8662,
      "▁graceful": 8663,
      "▁படிப்ப": 8664,
      "▁இருப்பதையும்": 8665,
      "▁prov": 8666,
      "▁solve": 8667,
      "▁டைனோசர்": 8668,
      "▁ஏற்படுத்தியது": 8669,
      "▁horn": 8670,
      "▁computer": 8671,
      "▁saying": 8672,
      "▁அலக": 8673,
      "▁மின்ச": 8674,
      "▁சீக்கிரம்": 8675,
      "பொரு": 8676,
      "▁எரிவாய": 8677,
      "▁பயன்படுத்துவது": 8678,
      "llipop": 8679,
      "▁பேஸ்ப": 8680,
      "▁பலவீனமாக": 8681,
      "▁மரங்களையும்": 8682,
      "▁வரிசைப்படுத்த": 8683,
      "▁வைத்திருப்பதை": 8684,
      "illiant": 8685,
      "▁peanut": 8686,
      "▁பேசிக்": 8687,
      "▁அவனைக்": 8688,
      "▁குச்சியைக்": 8689,
      "ைச்சீ": 8690,
      "▁பிரேஸ்": 8691,
      "▁மேற்கொள்ள": 8692,
      "அதை": 8693,
      "க்காரி": 8694,
      "▁அதற்குப்": 8695,
      "▁cran": 8696,
      "▁அவ்வாறு": 8697,
      "▁வாக்கிய": 8698,
      "▁பேசினார்கள்": 8699,
      "ems": 8700,
      "▁கிண": 8701,
      "▁elect": 8702,
      "▁fridge": 8703,
      "ம்புல": 8704,
      "▁தருவ": 8705,
      "▁திரைச்சீ": 8706,
      "▁பேஸ்பால்": 8707,
      "▁லவ்": 8708,
      "றினார்": 8709,
      "▁reading": 8710,
      "▁station": 8711,
      "▁playground": 8712,
      "▁போடுகிறார்": 8713,
      "▁மாத்திர": 8714,
      "▁சாச": 8715,
      "▁brilliant": 8716,
      "▁surprises": 8717,
      "▁அணிந்திருந்த": 8718,
      "▁இறுக்கமாகப்": 8719,
      "▁Un": 8720,
      "▁தக": 8721,
      "▁உணவக": 8722,
      "▁Which": 8723,
      "▁lollipop": 8724,
      "▁anx": 8725,
      "▁தோழி": 8726,
      "▁standing": 8727,
      "▁themselves": 8728,
      "▁சிவப்பாகவும்": 8729,
      "▁மறுத்துவிட்டார்": 8730,
      "▁humble": 8731,
      "▁parrot": 8732,
      "top": 8733,
      "▁obs": 8734,
      "▁earn": 8735,
      "▁மூன்ற": 8736,
      "▁hopping": 8737,
      "▁word": 8738,
      "▁காலணிகள்": 8739,
      "▁பெருமைப்பட்டார்": 8740,
      "comfort": 8741,
      "▁குளிராகவும்": 8742,
      "▁கோபுரத்தைக்": 8743,
      "ங்கை": 8744,
      "▁chase": 8745,
      "▁கிரே": 8746,
      "▁tank": 8747,
      "க்கெட்": 8748,
      "▁மெருக": 8749,
      "▁அதாவது": 8750,
      "▁தள்ளினார்": 8751,
      "reen": 8752,
      "ொள்கிறாள்": 8753,
      "▁மற்றவர்களின்": 8754,
      "▁inf": 8755,
      "▁பாட்டிக்கு": 8756,
      "▁mult": 8757,
      "▁record": 8758,
      "▁கொண்டான்": 8759,
      "▁அவருக்குப்": 8760,
      "▁பெற்றோரின்": 8761,
      "ci": 8762,
      "▁Cl": 8763,
      "!\"\"\"": 8764,
      "▁பெல": 8765,
      "▁ஆடம்பரமான": 8766,
      "▁umb": 8767,
      "▁ஆம்புல": 8768,
      "▁உழைப்ப": 8769,
      "▁சுமந்து": 8770,
      "▁மற்றவர்களை": 8771,
      "▁வீசிய": 8772,
      "எனக்குத்": 8773,
      "▁விற்பனை": 8774,
      "▁திரும்பியதும்": 8775,
      "ிறி": 8776,
      "▁clap": 8777,
      "▁காடு": 8778,
      "▁brace": 8779,
      "▁However": 8780,
      "corn": 8781,
      "▁eye": 8782,
      "▁கடற்ப": 8783,
      "▁charm": 8784,
      "▁பைக்கை": 8785,
      "▁விளையாடுகிறாள்": 8786,
      "ப்பைத்": 8787,
      "▁செவில": 8788,
      "▁காலையிலும்": 8789,
      "▁கொடுக்கிறாள்": 8790,
      "▁கடிதம்": 8791,
      "▁umbrell": 8792,
      "▁இரை": 8793,
      "▁சம்ம": 8794,
      "▁பெறுகிறாள்": 8795,
      "▁ஓடிவந்து": 8796,
      "▁மரத்திடம்": 8797,
      "▁avail": 8798,
      "▁வெளியேறினார்": 8799,
      "▁yelled": 8800,
      "eve": 8801,
      "்ட்": 8802,
      "▁cards": 8803,
      "▁இடை": 8804,
      "▁பேர": 8805,
      "▁those": 8806,
      "▁ஆனது": 8807,
      "ாவிட்டால்": 8808,
      "▁celebrate": 8809,
      "▁load": 8810,
      "▁அங்க": 8811,
      "▁trunk": 8812,
      "▁ஆராய்வதையும்": 8813,
      "▁கற்பிக்கிறது": 8814,
      "▁boys": 8815,
      "ipper": 8816,
      "▁கோட்டையில்": 8817,
      "▁முயன்றபோது": 8818,
      "▁sword": 8819,
      "▁மரியா": 8820,
      "▁தேனீக்கள்": 8821,
      "▁வாய": 8822,
      "▁once": 8823,
      "▁பரிமா": 8824,
      "▁அடைகிறேன்": 8825,
      "ips": 8826,
      "▁Mrs": 8827,
      "▁against": 8828,
      "▁cam": 8829,
      "▁சிறந்து": 8830,
      "▁அலமாரியை": 8831,
      "▁tiger": 8832,
      "▁கிளையின்": 8833,
      "பறவை": 8834,
      "▁ஜேம்ஸ்": 8835,
      "▁Sh": 8836,
      "▁ஏண": 8837,
      "▁நடனக்": 8838,
      "▁Tweetie": 8839,
      "▁usually": 8840,
      "▁buys": 8841,
      "▁வாழ்வ": 8842,
      "மள": 8843,
      "▁செல்வதாக": 8844,
      "▁பழமையானது": 8845,
      "▁போய்விட்ட": 8846,
      "▁அதிர்ஷ்டசாலி": 8847,
      "▁cell": 8848,
      "▁தேதி": 8849,
      "▁ஒன்றி": 8850,
      "▁toast": 8851,
      "▁பராமர": 8852,
      "குறிப்பில்லாத": 8853,
      "▁பூனைக்குட்டி": 8854,
      "ஒருவ": 8855,
      "▁ஆய": 8856,
      "▁cur": 8857,
      "▁popcorn": 8858,
      "▁தூங்குவதற்கு": 8859,
      "▁jack": 8860,
      "▁phot": 8861,
      "▁potato": 8862,
      "▁நுழைந்து": 8863,
      "▁பிறந்தநாள்": 8864,
      "▁பூம": 8865,
      "▁ஆகியோ": 8866,
      "▁ஒளியில்": 8867,
      "▁சுத்திய": 8868,
      "▁உடற்பயிற்சி": 8869,
      "▁பதிலளித்தது": 8870,
      "▁கொண்டிருந்தான்": 8871,
      "▁Pete": 8872,
      "▁pale": 8873,
      "▁பொய்": 8874,
      "▁வலியை": 8875,
      "▁உதவுங்கள்": 8876,
      "▁அறிவுறுத்த": 8877,
      "தன": 8878,
      "ரியும்": 8879,
      "▁அனலான": 8880,
      "▁இயக்க": 8881,
      "▁வளரும்": 8882,
      "▁promises": 8883,
      "▁தண்ணீருக்கு": 8884,
      "▁சூறாவளி": 8885,
      "▁அச்சத்தை": 8886,
      "▁இசைக்கலைஞ": 8887,
      "▁பூங்காவின்": 8888,
      "arsh": 8889,
      "▁துயரு": 8890,
      "▁gloomy": 8891,
      "▁முரண்பாடு": 8892,
      "▁யோகா": 8893,
      "▁பாலைவன": 8894,
      "▁திறந்தது": 8895,
      "▁திட்டத்தை": 8896,
      "▁பறவைகளைப்": 8897,
      "▁லைலா": 8898,
      "▁அலிகே": 8899,
      "▁செம்பூர்": 8900,
      "▁கொள்வதும்": 8901,
      "ubby": 8902,
      "▁clay": 8903,
      "▁roof": 8904,
      "▁எறிந்து": 8905,
      "▁பென்சில": 8906,
      "▁மிக்கவர்": 8907,
      "▁seem": 8908,
      "▁பாப்பி": 8909,
      "ில்வேனிய": 8910,
      "ills": 8911,
      "▁pun": 8912,
      "ellig": 8913,
      "▁sight": 8914,
      "▁ஈடுபட்ட": 8915,
      "▁நோட்டுப்": 8916,
      "▁பூக்களைப்": 8917,
      "ஸுக்கு": 8918,
      "▁உணர்கிறார்கள்": 8919,
      "▁பைகளை": 8920,
      "றல்": 8921,
      "▁சேத": 8922,
      "▁பூனைக்குட்டியை": 8923,
      "▁இதழ": 8924,
      "▁சூரியனை": 8925,
      "dom": 8926,
      "▁உணர்கிறாள்": 8927,
      "மிக்கு": 8928,
      "▁crazy": 8929,
      "▁squee": 8930,
      "▁நிகழ்த்த": 8931,
      "upid": 8932,
[...]
